<unk>	0
▁và	-4.42177
▁của	-4.43611
▁có	-4.64761
▁các	-4.78206
▁là	-4.78573
▁trong	-4.81153
▁được	-4.93298
▁với	-4.93664
▁cho	-4.94906
▁một	-4.99957
▁đã	-5.00485
▁không	-5.04739
▁người	-5.05274
▁những	-5.23337
▁công	-5.23716
▁để	-5.42585
▁khi	-5.44333
▁ở	-5.53225
▁này	-5.5362
▁tại	-5.54158
▁về	-5.57183
▁đến	-5.60435
▁ra	-5.61731
▁từ	-5.64023
▁năm	-5.66992
▁thể	-5.69456
▁vào	-5.69856
▁hiện	-5.69935
▁trên	-5.7062
▁cũng	-5.71023
▁nhiều	-5.71479
▁đầu	-5.72574
▁đó	-5.73113
▁nhà	-5.74179
▁đồng	-5.74958
▁sẽ	-5.7648
▁như	-5.78314
▁ngày	-5.7931
▁thành	-5.80186
▁sự	-5.81571
▁bị	-5.81604
▁việc	-5.83169
▁nam	-5.83962
▁làm	-5.88268
▁ông	-5.90896
▁chính	-5.90908
▁quốc	-5.92023
▁động	-5.921
▁lại	-5.92319
▁theo	-5.92797
▁việt	-5.93078
▁10	-5.93387
▁số	-5.94333
▁hàng	-5.94377
▁nước	-5.95748
▁bộ	-5.97049
▁phải	-5.97508
▁chỉ	-5.97949
▁anh	-5.97981
▁nhân	-5.98253
▁quan	-5.98705
▁sau	-6.02473
▁gia	-6.03772
▁tôi	-6.03996
▁trường	-6.04098
▁định	-6.06044
▁nhưng	-6.08346
▁hơn	-6.11626
▁còn	-6.13141
▁nhất	-6.13775
▁1	-6.14556
▁thời	-6.14788
▁2	-6.15244
▁trung	-6.15496
▁cơ	-6.1655
▁học	-6.17169
▁điều	-6.18984
▁hội	-6.1965
▁đang	-6.1973
▁trước	-6.21991
▁phát	-6.22347
▁mới	-6.22983
▁con	-6.24494
▁qua	-6.24975
▁thông	-6.25419
▁giá	-6.25882
▁thực	-6.26082
▁biết	-6.26083
▁thủ	-6.27538
▁dân	-6.27959
▁thế	-6.28269
▁cùng	-6.291
▁hình	-6.29315
▁viên	-6.30033
▁hợp	-6.3027
▁đi	-6.31498
▁	-6.31853
▁sinh	-6.333
▁rất	-6.33696
▁vụ	-6.34565
▁cao	-6.34807
▁đối	-6.34852
▁tế	-6.35179
▁đây	-6.35763
▁thì	-6.35913
▁hành	-6.37028
▁mà	-6.37658
▁ảnh	-6.38326
▁sản	-6.3866
▁nhận	-6.39768
▁lý	-6.3995
▁3	-6.40721
▁tình	-6.41385
▁bạn	-6.41432
▁nội	-6.41445
▁mình	-6.41519
▁trình	-6.41728
▁chủ	-6.41822
▁thị	-6.43115
▁tiếp	-6.43842
▁vì	-6.44229
▁cả	-6.44475
▁hà	-6.44824
▁tin	-6.45432
▁do	-6.45835
▁giải	-6.46467
▁xe	-6.46555
▁xuất	-6.47274
▁kinh	-6.48657
▁dự	-6.48947
▁dụng	-6.49174
▁văn	-6.49436
▁tư	-6.49627
▁đường	-6.50051
▁chức	-6.5021
▁lên	-6.5045
▁hai	-6.50678
▁điểm	-6.50881
▁nên	-6.50889
▁cầu	-6.51033
▁nghiệp	-6.52078
▁lượng	-6.52906
▁vẫn	-6.53782
▁kết	-6.54144
▁cuộc	-6.54503
▁bản	-6.54582
▁an	-6.55094
▁tăng	-6.55124
▁đại	-6.55942
▁cách	-6.56317
▁nay	-6.56654
▁tác	-6.58742
▁báo	-6.58777
▁doanh	-6.58984
▁tới	-6.59339
▁năng	-6.59444
▁lực	-6.6057
▁tháng	-6.61812
▁cô	-6.63443
▁giới	-6.65044
▁bình	-6.66014
▁nói	-6.66341
▁tâm	-6.6691
▁tiền	-6.6738
▁bảo	-6.67453
▁triển	-6.68874
▁diễn	-6.68972
▁liên	-6.69296
▁mặt	-6.69674
▁cấp	-6.70048
▁đội	-6.70225
▁khác	-6.70277
▁5	-6.70296
▁toàn	-6.71162
▁án	-6.72311
▁lớn	-6.73006
▁tài	-6.73358
▁chúng	-6.73484
▁thu	-6.74861
▁4	-6.74963
▁mỹ	-6.75293
▁đề	-6.76041
▁tập	-6.76154
▁khu	-6.76776
▁độ	-6.77228
▁tự	-6.77436
▁thi	-6.77821
▁tổ	-6.7783
▁thương	-6.78001
▁phần	-6.78154
▁phương	-6.78535
▁thanh	-6.78743
▁2014	-6.79455
▁phòng	-6.79493
▁cần	-6.79585
▁nguyễn	-6.79762
▁nhiên	-6.8019
▁chiến	-6.80374
▁b	-6.80504
i	-6.80907
▁giao	-6.81301
▁tạo	-6.81325
▁thấy	-6.8151
▁ngoài	-6.82502
▁lần	-6.82563
▁gian	-6.82723
▁vị	-6.83134
▁họ	-6.83149
▁xã	-6.83646
▁hóa	-6.83758
▁rằng	-6.84099
▁trọng	-6.84357
▁pháp	-6.84724
▁bằng	-6.8481
▁tổng	-6.84904
▁chưa	-6.85132
▁tính	-6.85351
▁quả	-6.87225
▁ý	-6.87417
▁khách	-6.8746
▁bán	-6.87607
▁trưởng	-6.88494
▁minh	-6.88576
▁sở	-6.88592
▁trang	-6.88975
▁máy	-6.8918
▁triệu	-6.89811
▁yêu	-6.89899
▁thống	-6.90074
▁đấu	-6.90135
▁quyết	-6.90287
▁nữ	-6.90807
▁em	-6.91229
▁hệ	-6.91615
▁quân	-6.92052
▁thường	-6.92383
▁sử	-6.92471
▁tuổi	-6.92534
▁hiệu	-6.92648
▁hay	-6.93422
▁6	-6.93483
▁trở	-6.93889
▁bệnh	-6.94202
▁tham	-6.95342
▁thứ	-6.95387
▁tỷ	-6.95661
▁tục	-6.95822
▁thức	-6.95991
▁u	-6.96369
▁9	-6.96383
▁bên	-6.9687
▁bà	-6.96875
▁nào	-6.97
▁mạnh	-6.97274
▁ban	-6.97508
▁quá	-6.97593
▁đạo	-6.97669
▁điện	-6.97863
▁ty	-6.98321
▁tiêu	-6.98508
ất	-6.98897
▁gần	-6.99463
▁vực	-6.99607
▁nếu	-6.9992
▁địa	-6.99973
▁trị	-7.00017
▁kỳ	-7.00135
▁tỉnh	-7.00267
▁vừa	-7.00292
▁tiên	-7.00784
▁cảnh	-7.00978
▁tuy	-7.0115
▁thiết	-7.02179
▁sống	-7.02456
▁khai	-7.0251
▁sĩ	-7.02878
▁hoạt	-7.02885
▁đưa	-7.02939
▁xây	-7.03577
▁sáng	-7.03949
▁chất	-7.05169
▁phẩm	-7.05245
▁đình	-7.05422
▁sát	-7.05673
▁cảm	-7.05832
▁giảm	-7.06016
▁dựng	-7.06384
▁tra	-7.06408
▁tp	-7.07157
▁trẻ	-7.0721
▁ăn	-7.0797
▁giờ	-7.08452
▁dịch	-7.08493
▁khoảng	-7.08925
▁kiến	-7.08941
▁quy	-7.0969
▁khiến	-7.09725
▁đặc	-7.09742
▁chí	-7.10212
▁bắt	-7.10352
▁hoàn	-7.10663
▁trận	-7.1162
▁bàn	-7.13289
▁chiếc	-7.13455
▁vậy	-7.13535
▁biệt	-7.13783
▁khó	-7.13809
▁tốt	-7.14017
▁giúp	-7.14509
▁phố	-7.14758
▁đánh	-7.15094
▁đông	-7.15236
▁tích	-7.15748
▁nghệ	-7.15838
▁đơn	-7.16148
▁tay	-7.16387
▁đổi	-7.173
▁8	-7.17548
▁biểu	-7.17603
▁đoàn	-7.17817
▁quyền	-7.17977
▁đất	-7.18314
▁7	-7.18465
▁mua	-7.18511
▁phạm	-7.18969
▁thêm	-7.19129
▁mang	-7.1966
▁đều	-7.20336
▁hồ	-7.20646
▁loại	-7.20714
▁tượng	-7.20731
▁sách	-7.21034
▁tiến	-7.21482
▁000	-7.21856
▁dùng	-7.22057
▁chị	-7.22076
▁kế	-7.22598
▁cổ	-7.22772
▁tàu	-7.2308
▁chuyển	-7.2321
▁vấn	-7.23401
▁giữa	-7.24121
▁mức	-7.24763
▁tiếng	-7.25559
▁phụ	-7.25916
▁ta	-7.25965
▁nguyên	-7.26089
▁phục	-7.26098
▁chế	-7.26243
▁sức	-7.26304
▁vệ	-7.26424
▁ca	-7.26821
▁giáo	-7.27722
▁đẹp	-7.27742
▁bóng	-7.27939
▁bố	-7.27959
▁truyền	-7.28134
▁tìm	-7.28249
▁hải	-7.28373
▁chi	-7.2878
▁chương	-7.28982
▁từng	-7.29126
▁lập	-7.29237
▁dẫn	-7.29462
▁nghị	-7.30047
▁nhau	-7.30068
▁gây	-7.30112
▁lúc	-7.304
▁muốn	-7.30525
▁mẹ	-7.30543
▁cứu	-7.31037
▁diện	-7.31923
▁ứng	-7.32374
▁sân	-7.32393
▁t	-7.32926
▁nhật	-7.33321
▁thân	-7.33841
▁gì	-7.3394
▁lời	-7.34153
▁kiểm	-7.34316
▁dù	-7.34445
▁bay	-7.35077
▁hoa	-7.3512
▁đạt	-7.35322
▁luật	-7.36334
▁trợ	-7.36388
▁sao	-7.36804
▁viện	-7.37129
▁trí	-7.37505
▁nhiệm	-7.37539
▁quản	-7.37935
▁tên	-7.3821
▁ngay	-7.38463
▁biển	-7.38602
▁xem	-7.3911
▁thay	-7.4036
▁bao	-7.40448
▁hướng	-7.40755
▁so	-7.40857
▁hết	-7.40889
▁ngân	-7.40952
▁rồi	-7.40996
▁chứng	-7.41035
▁lợi	-7.41286
▁cá	-7.41679
▁hoặc	-7.41768
▁giám	-7.42005
▁hộ	-7.42475
m	-7.42525
▁thắng	-7.43296
▁r	-7.43775
▁chuyện	-7.43909
▁vốn	-7.4443
▁dài	-7.44806
▁nhập	-7.44806
▁chuyên	-7.44819
▁hòa	-7.45158
▁huyện	-7.45495
▁lịch	-7.45596
▁hoàng	-7.45751
▁chung	-7.45904
▁bởi	-7.46035
▁châu	-7.46207
▁giữ	-7.46339
▁tranh	-7.46687
▁thuộc	-7.47131
▁cuối	-7.47188
▁y	-7.47293
▁mỗ	-7.47478
▁c	-7.47533
▁kiện	-7.47628
▁gặp	-7.47646
▁cái	-7.48013
▁bỏ	-7.4894
▁nơi	-7.48974
▁xử	-7.49334
▁cáo	-7.49348
▁vi	-7.49481
▁mọi	-7.49554
▁tiết	-7.49927
▁giả	-7.49928
▁mắt	-7.50028
▁tử	-7.50163
▁nguồn	-7.50231
19	-7.50277
▁chia	-7.5033
hẳng	-7.50353
▁đô	-7.50608
▁phủ	-7.50921
▁20	-7.51766
▁chọn	-7.51766
▁phong	-7.51909
▁ngành	-7.52157
▁phim	-7.52166
▁biến	-7.52979
▁nhóm	-7.53246
▁thái	-7.53269
▁đức	-7.53274
▁gái	-7.53393
▁luôn	-7.53542
▁tấn	-7.53771
▁mục	-7.54896
▁ba	-7.54906
▁vật	-7.5493
▁khả	-7.55414
▁danh	-7.55607
▁xác	-7.55962
▁k	-7.56186
▁kể	-7.56261
▁0	-7.56802
▁nạn	-7.57102
▁mở	-7.57584
▁mất	-7.57741
▁mạng	-7.57752
▁sang	-7.57797
▁liệu	-7.58192
▁thuật	-7.58263
▁usd	-7.58313
▁vùng	-7.58609
▁thích	-7.58735
▁phó	-7.58904
▁vòng	-7.59416
▁hồi	-7.59529
▁phân	-7.59582
▁tịch	-7.59775
▁nổi	-7.60184
▁tuần	-7.60546
▁nhỏ	-7.60551
▁đáng	-7.60782
▁khá	-7.60835
▁hôm	-7.61039
ng	-7.6154
▁vận	-7.62177
▁cạnh	-7.62215
▁chồng	-7.62861
▁tương	-7.62929
▁vũ	-7.63246
▁tây	-7.63255
▁lãnh	-7.63835
▁phía	-7.64484
▁nó	-7.64701
▁chơi	-7.64873
▁sắc	-7.65023
▁nhạc	-7.65172
▁tướng	-7.65403
▁ký	-7.65414
▁m	-7.65623
▁vợ	-7.65646
▁h	-7.66508
▁hậu	-7.66789
▁bài	-7.67017
▁tất	-7.67044
▁hạn	-7.6716
▁hoạch	-7.67264
▁mùa	-7.67739
▁12	-7.67769
▁du	-7.67821
▁trả	-7.67865
n	-7.67995
▁nga	-7.68277
▁vô	-7.68404
▁khí	-7.68429
▁tối	-7.68539
▁ngoại	-7.68576
▁chân	-7.68821
▁chiều	-7.69088
▁kim	-7.69187
▁đủ	-7.69334
▁ít	-7.69346
▁hỗ	-7.69467
▁nữa	-7.69598
▁đời	-7.70261
▁ai	-7.70377
▁bắc	-7.70702
▁đá	-7.71264
▁hồng	-7.71375
▁chống	-7.7143
▁cửa	-7.71537
▁bé	-7.71845
h	-7.72153
▁đặt	-7.72324
▁khăn	-7.72464
▁xuống	-7.72659
▁hữu	-7.7296
▁hàn	-7.73098
▁phí	-7.7313
▁ấy	-7.73851
▁nông	-7.7396
▁11	-7.74348
▁vàng	-7.74467
▁sơn	-7.74562
▁đoạn	-7.74691
▁màu	-7.75355
▁yếu	-7.75788
▁trần	-7.75806
▁dương	-7.75913
▁lao	-7.76015
▁lấy	-7.76207
▁cực	-7.76327
▁n	-7.76335
▁lan	-7.76441
▁chuẩn	-7.76621
▁cố	-7.76969
▁s	-7.77264
▁riêng	-7.774
▁lưu	-7.77466
▁cụ	-7.77662
▁trò	-7.77889
▁ngọc	-7.78154
▁khoa	-7.7817
▁mẫu	-7.78393
▁đóng	-7.78409
▁góp	-7.78729
▁trực	-7.79043
▁di	-7.79088
▁15	-7.79543
▁lê	-7.79692
▁cung	-7.79712
▁long	-7.79809
▁tải	-7.79813
▁nhằm	-7.80152
▁xảy	-7.80165
▁nhanh	-7.80482
▁biên	-7.80488
▁mặc	-7.80664
▁đảm	-7.80786
▁đêm	-7.809
▁hưởng	-7.81153
▁30	-7.8128
▁cứ	-7.81304
▁trái	-7.81432
▁phiên	-7.81589
▁ghi	-7.81739
▁nghiệm	-7.81949
▁quảng	-7.82067
▁dưới	-7.8214
▁càng	-7.82372
▁vn	-7.826
▁nhìn	-7.82737
▁áo	-7.82931
▁gọi	-7.8347
▁sẻ	-7.83503
▁ninh	-7.83755
▁rộng	-7.83888
▁huy	-7.83967
▁câu	-7.84001
▁quận	-7.84006
▁đúng	-7.84149
▁cộng	-7.84176
▁bước	-7.84299
▁thiện	-7.84937
▁duy	-7.84943
▁nghĩa	-7.84951
▁thư	-7.85177
▁tinh	-7.8545
▁ủy	-7.85514
▁hỏi	-7.85922
▁tố	-7.86169
▁khẩu	-7.86305
▁tuyển	-7.8679
▁buổi	-7.86924
▁đa	-7.87094
▁thật	-7.8729
▁căn	-7.87305
▁phút	-7.87348
▁đốc	-7.87451
▁đầy	-7.87511
▁thuận	-7.87579
▁hcm	-7.87998
▁trạng	-7.88306
▁đôi	-7.88652
▁thiếu	-7.88842
▁áp	-7.89836
▁xét	-7.90141
▁đàn	-7.91116
▁đồ	-7.91433
▁dành	-7.91571
▁cường	-7.91835
▁gồm	-7.91996
▁lòng	-7.9249
▁v	-7.92689
▁ấn	-7.92831
▁da	-7.93081
▁thoại	-7.93415
▁ngôi	-7.93418
▁vọng	-7.93472
▁kỹ	-7.93558
▁dung	-7.9362
▁nâng	-7.93629
▁chết	-7.9381
▁chạy	-7.93893
▁luận	-7.94043
▁cục	-7.94161
▁phép	-7.94165
▁đăng	-7.9423
▁lễ	-7.94546
▁cây	-7.94647
▁đảo	-7.94806
▁phá	-7.95041
▁vai	-7.95257
▁tân	-7.95301
▁dễ	-7.95485
▁hiểu	-7.96214
▁phối	-7.96355
▁hương	-7.96368
▁2013	-7.96377
▁độc	-7.96919
▁dn	-7.96974
▁quý	-7.97339
▁thuốc	-7.9763
▁dục	-7.9766
▁lộ	-7.97681
▁đào	-7.97728
▁kỷ	-7.97904
▁phản	-7.98235
▁á	-7.98319
▁thần	-7.98523
▁trai	-7.99057
▁lĩnh	-7.99244
▁19	-7.99446
▁nghiên	-7.99944
▁đứng	-7.99986
▁thảo	-8.00019
▁chú	-8.00516
▁nằm	-8.01324
▁lệ	-8.01768
▁trách	-8.01882
▁tưởng	-8.02423
▁mô	-8.03434
▁thủy	-8.03509
▁ngờ	-8.03687
▁trao	-8.04787
▁dầu	-8.0545
▁môn	-8.05676
▁tuyến	-8.06086
▁phiếu	-8.06134
▁nghĩ	-8.06162
▁tuyên	-8.06199
▁linh	-8.06208
▁quang	-8.06211
▁phóng	-8.06483
▁hát	-8.06564
▁niên	-8.06596
▁lo	-8.06627
▁hlv	-8.06693
▁suất	-8.06984
▁xúc	-8.07394
▁phú	-8.07658
▁vượt	-8.07796
▁thuế	-8.08307
▁đẩy	-8.08413
▁cán	-8.08793
▁xa	-8.09323
▁hạ	-8.09533
▁cải	-8.09562
▁khán	-8.09941
▁ubnd	-8.09979
▁tín	-8.10307
▁nền	-8.10516
▁chịu	-8.10991
▁màn	-8.11403
▁bác	-8.11699
▁sơ	-8.11731
▁hiệp	-8.11869
▁16	-8.12007
▁nợ	-8.12178
▁môi	-8.12304
▁khỏi	-8.12625
▁âm	-8.12918
▁siêu	-8.13317
▁mại	-8.13383
▁14	-8.13558
▁bảng	-8.13618
▁chấp	-8.13673
▁khỏe	-8.13891
▁xin	-8.14324
▁kiếm	-8.14566
▁sư	-8.14831
▁nghề	-8.14865
▁song	-8.15019
▁17	-8.15049
▁phúc	-8.1506
▁khoản	-8.1512
▁a	-8.15196
▁lương	-8.16473
▁lớp	-8.16599
▁lâu	-8.16656
▁toán	-8.1675
▁vui	-8.16947
▁nguy	-8.16954
▁nghe	-8.17067
▁đỏ	-8.17337
▁18	-8.17358
▁tội	-8.17627
▁xuyên	-8.18318
▁hút	-8.18464
▁100	-8.18481
▁đảng	-8.18541
▁vài	-8.18674
▁d	-8.19039
▁đà	-8.1932
▁họp	-8.20169
▁is	-8.20531
▁21	-8.20561
▁thúc	-8.21203
▁bức	-8.21441
▁hãng	-8.21526
▁thấp	-8.21743
▁chiếm	-8.2183
▁giống	-8.22377
▁dấu	-8.22624
▁2015	-8.22724
▁vẻ	-8.22851
▁tốc	-8.22963
▁13	-8.22997
▁thất	-8.23044
▁kéo	-8.23236
▁giấy	-8.23534
▁bí	-8.2354
▁khởi	-8.23601
▁nặng	-8.23765
▁gửi	-8.24451
▁dòng	-8.24846
▁quán	-8.25084
▁ukraine	-8.25162
▁thiên	-8.25173
▁hiểm	-8.25515
▁xuân	-8.25593
▁chắc	-8.25849
▁nhờ	-8.26008
▁phi	-8.26028
▁miền	-8.2653
▁mong	-8.26552
▁triều	-8.26589
▁ma	-8.27135
▁soát	-8.27175
▁ưu	-8.27829
▁cử	-8.28324
▁tai	-8.28331
▁kích	-8.28339
▁sâu	-8.28832
▁âu	-8.28922
▁tặng	-8.29159
▁trương	-8.29179
▁hùng	-8.29557
▁nhớ	-8.30022
▁trì	-8.3024
▁viết	-8.30243
▁phù	-8.30906
▁phường	-8.31515
▁hại	-8.31566
▁giai	-8.31757
▁tái	-8.32248
▁giang	-8.32416
▁lai	-8.33055
hậm	-8.33352
▁cháu	-8.33524
▁hạng	-8.34063
▁mai	-8.34176
▁tầng	-8.34208
▁nghi	-8.34347
▁tuấn	-8.34388
▁vay	-8.34876
▁sớm	-8.35001
▁giành	-8.35092
▁tòa	-8.35175
▁tỏ	-8.35318
▁tiện	-8.35346
▁dũng	-8.35607
▁tức	-8.35739
▁nghèo	-8.35845
▁ô	-8.35894
▁ổn	-8.36118
▁thăm	-8.36184
▁làng	-8.36388
▁chuyến	-8.3662
▁xanh	-8.37195
▁thưởng	-8.37202
▁món	-8.37251
▁yên	-8.383
▁may	-8.38433
▁niệm	-8.38545
▁cư	-8.38769
▁phạt	-8.39262
▁binh	-8.40023
▁chăm	-8.40486
▁mối	-8.40497
▁khối	-8.40557
▁50	-8.40566
▁trắng	-8.40713
▁cân	-8.40737
▁khúc	-8.40873
▁lâm	-8.41505
▁đe	-8.41635
▁ánh	-8.42034
▁nghiêm	-8.42092
▁khắc	-8.42244
▁sỹ	-8.42324
▁lạc	-8.43159
▁bổ	-8.43172
▁hạnh	-8.43323
▁quay	-8.43622
▁trời	-8.43714
▁cha	-8.43804
▁cánh	-8.43878
▁đau	-8.44523
▁đáp	-8.44788
▁nóng	-8.44834
▁luyện	-8.44992
▁tiểu	-8.45052
▁bầu	-8.45088
▁uống	-8.4522
▁cập	-8.45597
▁tỉ	-8.45677
ãy	-8.45894
▁lạ	-8.46055
▁chợ	-8.46607
▁thẩm	-8.4676
▁la	-8.46858
▁xếp	-8.47247
▁nhiễm	-8.47404
▁thử	-8.47557
▁thôn	-8.47651
▁lựa	-8.47685
▁chỉnh	-8.47986
▁thí	-8.48114
▁đâu	-8.48116
▁khảo	-8.48319
▁cấu	-8.48324
▁buộc	-8.48385
▁quen	-8.48547
▁nuôi	-8.48583
▁quần	-8.487
▁ebola	-8.48743
▁nhu	-8.48832
▁mộ	-8.49326
▁loạt	-8.49551
▁lửa	-8.496
▁vinh	-8.49646
▁quanh	-8.49769
▁cháy	-8.498
▁họa	-8.50228
▁sông	-8.50281
▁chữa	-8.50352
▁khám	-8.51357
▁chỗ	-8.51426
▁chấn	-8.5149
▁thừa	-8.51974
▁60	-8.52266
▁thơ	-8.52371
▁đón	-8.52415
▁nối	-8.52422
▁sắp	-8.52437
▁đài	-8.52778
▁nổ	-8.53087
▁cướp	-8.53117
▁thú	-8.53174
▁nghỉ	-8.5333
▁khủng	-8.53454
▁bày	-8.53511
▁mã	-8.53709
▁tránh	-8.53887
▁sai	-8.54058
▁dưỡng	-8.54065
▁máu	-8.54133
▁cận	-8.54235
▁chụp	-8.54353
▁trải	-8.5449
▁ngồi	-8.5472
▁tạm	-8.55748
▁suốt	-8.55829
▁nhẹ	-8.55914
▁gắn	-8.55916
▁thầy	-8.55948
▁nhiệt	-8.56162
▁pha	-8.56368
▁tô	-8.56458
▁lược	-8.56535
g	-8.56908
▁tờ	-8.57101
▁đàm	-8.57185
▁chờ	-8.5751
▁lẽ	-8.58229
▁đổ	-8.58361
▁ly	-8.5843
▁cũ	-8.58545
▁mắc	-8.59041
s	-8.59073
▁thua	-8.59135
2	-8.59182
▁thổ	-8.59188
▁arsenal	-8.59204
▁xấu	-8.59479
▁thuê	-8.59923
▁thao	-8.60021
▁chắn	-8.60351
▁hôn	-8.60387
▁25	-8.60647
▁biện	-8.60908
▁the	-8.6103
▁ngại	-8.6123
a	-8.6125
▁chứ	-8.61364
▁thác	-8.61818
▁khổ	-8.62023
▁tộc	-8.62147
▁nha	-8.6215
▁thẳng	-8.62418
▁chóng	-8.62673
▁lệnh	-8.62731
▁quê	-8.62908
▁500	-8.63458
▁cưới	-8.63498
▁nhấn	-8.63499
▁cặp	-8.63512
▁tầm	-8.63528
▁sóc	-8.63814
▁mưa	-8.63986
▁man	-8.64028
▁quỹ	-8.6413
▁l	-8.64629
▁hy	-8.64797
▁video	-8.64869
▁chàng	-8.65018
▁cậu	-8.65029
▁cà	-8.6522
▁sửa	-8.65278
▁phê	-8.6535
▁mật	-8.65628
▁lái	-8.66046
▁khánh	-8.66064
▁vững	-8.66068
▁dạng	-8.66129
▁bại	-8.66136
▁sung	-8.66182
▁giác	-8.66216
▁kém	-8.66245
▁cầm	-8.66452
▁xung	-8.66653
▁lãi	-8.66663
▁thiệt	-8.66703
▁tuyệt	-8.6691
▁đột	-8.66911
▁p	-8.67034
▁sợ	-8.6731
▁ngủ	-8.67323
▁hài	-8.67413
▁hưng	-8.67509
▁40	-8.67521
▁trụ	-8.67556
▁giản	-8.68132
▁ngắn	-8.68134
▁rút	-8.68165
▁nỗ	-8.68252
▁bật	-8.6827
▁tận	-8.68374
▁ương	-8.68392
▁dạy	-8.68423
▁mời	-8.68592
▁ước	-8.69043
▁niềm	-8.69099
▁lỗi	-8.69233
▁thiệu	-8.6945
▁đương	-8.69784
▁coi	-8.69812
▁vĩnh	-8.70398
▁sóng	-8.70581
▁dư	-8.70811
▁bánh	-8.71106
▁22	-8.71124
u	-8.71203
▁hấp	-8.71511
▁suy	-8.71609
▁thụ	-8.71686
▁24	-8.71714
▁kiểu	-8.72696
▁hầu	-8.72932
▁gương	-8.73216
▁điển	-8.73329
▁dây	-8.73613
▁đám	-8.73681
▁trú	-8.73737
▁liệt	-8.73836
▁dáng	-8.74076
▁sa	-8.74205
▁tim	-8.74893
▁băng	-8.75473
▁thoát	-8.75566
▁tôn	-8.75669
▁tóc	-8.75761
▁mấy	-8.7583
▁kịp	-8.75922
▁ích	-8.75956
▁cam	-8.76032
▁dần	-8.76038
▁trấn	-8.76313
▁ủng	-8.76793
▁truy	-8.77146
▁200	-8.77158
▁đen	-8.77161
▁tồn	-8.77284
▁thuyền	-8.77361
▁kẻ	-8.77491
▁cp	-8.77519
▁thỏa	-8.77576
▁trăm	-8.77675
▁ngăn	-8.77724
▁lá	-8.77764
▁x	-8.78008
▁cười	-8.78089
▁lượt	-8.78121
▁đọc	-8.78172
▁bắn	-8.78387
▁sàng	-8.78699
▁cắt	-8.78791
▁2012	-8.78998
▁cấm	-8.79022
▁lục	-8.79139
▁đua	-8.79191
▁mê	-8.79342
▁vân	-8.7981
▁đt	-8.79819
▁rơi	-8.79834
▁to	-8.79926
▁cảng	-8.802
▁đứa	-8.80302
▁mừng	-8.80778
▁núi	-8.80983
▁chặt	-8.81068
▁tấm	-8.81445
▁tạp	-8.81481
▁thượng	-8.82393
▁khuyến	-8.8248
▁súng	-8.82533
▁đòi	-8.82679
▁hơi	-8.8281
▁trồng	-8.82882
▁chữ	-8.82965
▁lưới	-8.83245
▁dàng	-8.83325
▁tá	-8.83413
▁23	-8.83457
▁mái	-8.83932
▁chở	-8.84292
▁cựu	-8.84553
▁thăng	-8.84936
▁chục	-8.8499
▁iphone	-8.8515
1	-8.85153
▁kính	-8.85157
▁đích	-8.85167
▁vong	-8.85191
▁league	-8.8581
▁can	-8.86073
▁địch	-8.86133
▁túy	-8.86211
▁phổ	-8.86693
▁pháo	-8.86816
▁tung	-8.86987
▁chelsea	-8.87054
▁gốc	-8.87182
▁dịp	-8.87257
▁chứa	-8.87916
▁rời	-8.88022
▁giọng	-8.88222
▁khóa	-8.88511
▁rừng	-8.8883
▁bạc	-8.88992
▁vương	-8.89319
▁vé	-8.89624
▁cuốn	-8.89926
▁nắm	-8.90038
▁bè	-8.90362
▁lắng	-8.90431
▁mẽ	-8.90582
▁sn	-8.90925
▁kê	-8.9096
▁hạt	-8.91069
▁nhắc	-8.91073
▁nghìn	-8.9109
▁ngược	-8.91166
▁nét	-8.91357
▁sàn	-8.91361
t	-8.91506
▁gắng	-8.922
▁tắc	-8.9229
▁real	-8.92441
▁lối	-8.92483
▁hào	-8.92706
▁cú	-8.92896
▁xu	-8.93046
▁sài	-8.93275
▁trưng	-8.93307
▁đỡ	-8.93422
▁chào	-8.93597
▁phán	-8.9366
▁quà	-8.93777
▁thôi	-8.93942
▁phận	-8.94004
▁huấn	-8.94043
▁lạnh	-8.94144
▁sữa	-8.94179
▁chiếu	-8.94473
▁ràng	-8.94672
▁sạch	-8.94735
▁nhuận	-8.95315
▁chút	-8.95336
▁i	-8.95468
▁chậm	-8.95579
▁phan	-8.95664
▁nàng	-8.95818
▁trúc	-8.96
▁thịt	-8.96011
▁thách	-8.96031
▁hong	-8.96278
▁đh	-8.96416
▁đợt	-8.96545
▁váy	-8.96666
▁apple	-8.96705
▁dứt	-8.97048
▁xinh	-8.97125
▁miễn	-8.97528
▁khấu	-8.97567
▁dừng	-8.97709
▁góc	-8.97749
▁thẻ	-8.98005
▁tươi	-8.98194
▁clip	-8.98397
o	-8.98678
▁giàu	-8.98817
▁khoán	-8.98847
▁syria	-8.99132
▁sạn	-8.99216
▁ngừng	-8.99236
▁đoán	-8.99542
▁kêu	-8.99622
▁lẫn	-8.99624
▁thuyết	-8.99665
▁kịch	-9.00368
▁gió	-9.00441
▁g	-9.00526
▁gòn	-9.00753
▁kong	-9.00855
▁ngang	-9.0104
▁nửa	-9.01451
▁bờ	-9.016
▁rau	-9.01642
▁mơ	-9.01861
▁tri	-9.01924
▁xong	-9.01936
▁dữ	-9.02653
▁bò	-9.02704
▁thai	-9.03055
▁bão	-9.03143
▁in	-9.03206
▁thầu	-9.03697
▁trộm	-9.0417
▁hoài	-9.04342
▁dựa	-9.04448
▁tệ	-9.04641
▁ngữ	-9.04796
▁liền	-9.04992
▁nêu	-9.04992
▁huống	-9.05056
▁trào	-9.05633
▁hằng	-9.05669
▁nỗi	-9.05703
y	-9.05724
▁2011	-9.0578
▁gỡ	-9.0617
▁giết	-9.06281
▁hề	-9.06296
▁lắm	-9.06346
▁bào	-9.06363
▁nhảy	-9.06545
▁tỏa	-9.0698
▁ngàn	-9.07642
▁ngũ	-9.07675
▁300	-9.07736
▁hâm	-9.08397
▁chặn	-9.0844
3	-9.08452
▁đèn	-9.08604
▁trinh	-9.08687
▁city	-9.08802
▁đồn	-9.08815
▁kiên	-9.08823
▁bạch	-9.09349
▁đợi	-9.09499
▁buôn	-9.09616
▁sút	-9.09954
▁xăng	-9.10251
▁buồn	-9.103
▁kèm	-9.10628
▁đáo	-9.10944
▁35	-9.11129
▁hè	-9.11199
▁ronaldo	-9.11239
▁lẻ	-9.11274
▁ẩn	-9.11279
▁đỗ	-9.11386
▁đừng	-9.1154
▁km	-9.1199
▁ts	-9.12115
▁facebook	-9.12153
▁khung	-9.12173
▁iraq	-9.12238
▁khắp	-9.12449
▁ngôn	-9.12544
▁ga	-9.12714
▁mãi	-9.129
▁ng	-9.13066
▁bối	-9.13204
▁e	-9.13475
▁tĩnh	-9.13958
▁bến	-9.14219
▁căng	-9.14404
▁q	-9.14449
▁sắt	-9.1446
▁thải	-9.14574
▁mềm	-9.14767
▁hủy	-9.15176
▁70	-9.15252
▁cơn	-9.15299
▁van	-9.15546
▁đẳng	-9.15585
▁tường	-9.1561
▁chạm	-9.15682
▁nguyện	-9.15753
▁khuôn	-9.15963
▁bây	-9.15976
▁khoe	-9.16186
▁xứ	-9.16212
▁ngô	-9.16397
▁fan	-9.16894
▁gói	-9.16897
▁mạc	-9.17
▁mạch	-9.17333
▁nộp	-9.17485
▁tù	-9.17618
▁bền	-9.17832
▁đuổi	-9.18548
▁tùng	-9.18575
▁túi	-9.18825
▁hẹn	-9.18922
▁kông	-9.19026
▁ung	-9.20186
▁dao	-9.20309
▁kênh	-9.20332
▁loan	-9.20624
▁nhĩ	-9.20736
▁dọa	-9.20836
▁trạm	-9.20912
▁huyền	-9.21015
▁quên	-9.21021
▁lãm	-9.21121
▁ép	-9.21373
▁mắn	-9.21404
▁gà	-9.21481
▁26	-9.21602
▁làn	-9.2161
▁ngã	-9.21674
▁bạo	-9.21688
▁uy	-9.21693
▁hứng	-9.21705
▁com	-9.2171
▁hẳn	-9.21754
▁90	-9.22016
▁gợi	-9.22193
▁vết	-9.22297
▁hoảng	-9.2235
▁khích	-9.22485
▁rượu	-9.22814
▁27	-9.22875
▁đỉnh	-9.22944
▁bữa	-9.23022
▁kháng	-9.23028
▁28	-9.23177
▁bang	-9.23342
▁gấp	-9.23388
▁lào	-9.23438
▁vỡ	-9.23465
▁29	-9.23994
▁bãi	-9.24239
▁dị	-9.24684
▁già	-9.24809
▁trà	-9.24918
▁kia	-9.2515
▁đoạt	-9.25177
▁phấn	-9.25336
▁gỗ	-9.25443
▁2010	-9.25483
▁bùi	-9.25861
▁gtvt	-9.26299
▁sứ	-9.26488
▁hiến	-9.26541
▁nhi	-9.26581
▁trông	-9.26919
▁đạn	-9.27105
▁khen	-9.27143
▁ví	-9.27227
▁80	-9.27433
▁kiều	-9.2768
e	-9.277
30	-9.27911
▁duyên	-9.28061
▁ngọt	-9.28174
▁hiếu	-9.28334
▁ngư	-9.28349
▁đinh	-9.28574
▁ngập	-9.28584
▁khiển	-9.28949
▁điệu	-9.28997
▁top	-9.29038
▁bậc	-9.29133
▁f	-9.29143
▁tiềm	-9.29298
▁kiệm	-9.29354
▁đập	-9.29383
▁ngon	-9.29514
▁clb	-9.29524
▁45	-9.29919
▁bom	-9.30367
▁củ	-9.30508
▁giảng	-9.30535
▁trích	-9.30619
▁ghế	-9.30697
▁thập	-9.31003
▁kho	-9.31015
▁tiêm	-9.31093
▁duyệt	-9.31255
▁ấm	-9.31793
▁bó	-9.31839
▁trừ	-9.31855
▁tiếc	-9.32077
▁tụ	-9.32103
▁cty	-9.32131
▁ống	-9.32137
▁chấm	-9.3239
▁phượng	-9.32476
▁eu	-9.32576
▁liverpool	-9.32648
▁tphcm	-9.32793
▁nắng	-9.32821
▁cản	-9.33406
▁đãi	-9.33451
▁tán	-9.3373
▁bá	-9.33813
▁lãng	-9.34036
c	-9.34157
▁tràn	-9.34248
▁cơm	-9.34461
▁phước	-9.34497
▁ôm	-9.34499
▁sốt	-9.34739
▁singapore	-9.34935
▁mũi	-9.35012
▁loạn	-9.35089
▁camera	-9.35288
▁xóm	-9.35671
▁rối	-9.35671
▁vườn	-9.3576
▁bốn	-9.35884
▁huỳnh	-9.35936
▁lỗ	-9.36124
▁madrid	-9.36262
▁đặng	-9.36325
▁kg	-9.36549
▁tnhh	-9.36648
▁31	-9.36649
▁cờ	-9.3668
▁đạp	-9.36887
▁hộp	-9.37195
▁tt	-9.37273
▁đốt	-9.37337
▁ipad	-9.37426
▁tùy	-9.37621
▁sổ	-9.37668
▁khẩn	-9.37908
▁index	-9.38029
▁ngụ	-9.39002
▁gd	-9.39126
▁huyết	-9.39489
▁thảm	-9.39569
▁phức	-9.39581
▁trật	-9.39765
▁vũng	-9.3982
▁thận	-9.40011
▁nhượng	-9.40012
▁đền	-9.40106
▁messi	-9.40507
▁jong	-9.40574
▁thụy	-9.40777
▁hảo	-9.41004
▁dâu	-9.4102
▁euro	-9.41066
▁400	-9.41168
▁kín	-9.41348
▁rác	-9.41427
▁rẻ	-9.4154
▁thọ	-9.41605
▁ơn	-9.4164
▁dậy	-9.41658
▁cột	-9.41726
▁quỳnh	-9.4194
▁xưa	-9.42097
▁lộc	-9.42231
▁hiền	-9.42319
▁trại	-9.42507
▁dược	-9.42539
▁nh	-9.42675
▁bồi	-9.42694
▁tang	-9.42963
▁trúng	-9.42989
▁thiểu	-9.43269
▁đấy	-9.43398
▁nhắn	-9.43408
▁smartphone	-9.43428
▁dường	-9.43651
▁ngầm	-9.43683
▁vietnam	-9.43689
▁khóc	-9.43772
▁dày	-9.43843
▁samsung	-9.44099
▁hồn	-9.44129
▁ngưỡng	-9.44131
▁cứng	-9.44265
▁sắm	-9.44485
▁lành	-9.44736
▁hiếm	-9.44809
▁hứa	-9.4497
▁pin	-9.45192
▁ha	-9.45219
▁show	-9.45235
▁bia	-9.453
▁new	-9.45338
▁32	-9.45661
▁vời	-9.45667
▁giáp	-9.4587
▁dụ	-9.45919
▁mùi	-9.45959
▁chu	-9.46052
▁giỏi	-9.4606
▁mưu	-9.46111
▁thúy	-9.46599
▁su	-9.46734
▁lừa	-9.46866
▁giam	-9.47
▁thù	-9.47015
▁chối	-9.47031
▁chúc	-9.47042
▁dinh	-9.47237
▁rào	-9.4744
▁sôi	-9.47575
▁tháo	-9.4774
▁cai	-9.47766
▁sunrise	-9.4786
▁đậu	-9.47927
▁trùng	-9.48041
▁trốn	-9.48109
▁huế	-9.48298
▁đâm	-9.48363
▁de	-9.48507
▁nhiêu	-9.48529
▁huynh	-9.4871
▁cương	-9.48732
▁chốt	-9.49034
d	-9.49143
▁rạng	-9.49207
▁bếp	-9.49273
▁dám	-9.49507
▁tông	-9.49718
▁lam	-9.49739
▁hoang	-9.4976
▁than	-9.50077
▁vắng	-9.50153
▁xương	-9.50255
▁news	-9.50275
▁hot	-9.50307
▁pv	-9.50347
▁cát	-9.50388
▁treo	-9.50397
▁ro	-9.50398
▁hỏa	-9.50597
▁malaysia	-9.50597
▁miệng	-9.50773
▁ngoái	-9.50906
▁tú	-9.50951
▁online	-9.51356
▁trữ	-9.51422
▁mát	-9.51498
▁táo	-9.51729
▁tứ	-9.51797
▁o	-9.52042
▁my	-9.52054
▁lắp	-9.52118
▁xế	-9.5218
▁lặng	-9.52261
▁dàn	-9.52437
▁khô	-9.53029
▁premier	-9.5334
▁xứng	-9.53415
▁phái	-9.53442
▁un	-9.53469
▁đậm	-9.53693
▁thép	-9.54295
▁virus	-9.54332
▁chảy	-9.54727
▁bê	-9.54827
x	-9.54879
▁nhí	-9.54931
▁hung	-9.55014
▁thang	-9.55302
▁trưa	-9.55368
▁phỏng	-9.55439
▁gọn	-9.55456
▁tật	-9.5562
▁chiêu	-9.55764
▁lô	-9.55818
▁chuyền	-9.55871
▁nghiện	-9.56017
▁loài	-9.56052
▁vỏ	-9.56052
▁giấu	-9.56487
▁chánh	-9.56838
▁gạo	-9.56853
▁tròn	-9.56963
▁chẽ	-9.57169
▁2016	-9.5737
▁bụng	-9.57474
▁phẫu	-9.5751
▁lưng	-9.57516
▁va	-9.57695
▁internet	-9.57804
▁hoan	-9.58195
▁myanmar	-9.58246
▁thả	-9.58409
▁cãi	-9.58543
▁thoải	-9.58617
▁game	-9.59434
▁android	-9.59437
▁giày	-9.59453
▁mệnh	-9.59512
▁windows	-9.59624
▁rủi	-9.59669
▁đ	-9.59985
▁răng	-9.60419
km	-9.60526
▁lầm	-9.60567
▁ruột	-9.60985
▁2009	-9.60992
▁tam	-9.61041
▁cẩm	-9.61099
▁lúa	-9.61366
▁não	-9.61369
▁hỏng	-9.61631
▁chín	-9.61738
▁kì	-9.61819
▁thpt	-9.61862
▁google	-9.62053
▁vua	-9.62061
▁nấu	-9.62129
▁rửa	-9.62129
▁đan	-9.62151
▁tốn	-9.62422
21	-9.63302
▁ch	-9.63434
▁trăng	-9.63646
▁nhánh	-9.63679
▁mảnh	-9.63722
▁tàng	-9.64182
▁giây	-9.64188
▁cup	-9.64314
▁xâm	-9.64427
▁tháp	-9.64581
▁bồ	-9.64613
▁lò	-9.6468
▁bọn	-9.64806
▁689	-9.64823
▁lậu	-9.64857
▁thước	-9.64858
▁leo	-9.64861
▁nhịp	-9.64898
▁non	-9.65242
▁đam	-9.65329
▁co	-9.65448
▁trầm	-9.65813
▁hàm	-9.65841
▁600	-9.65875
▁kurd	-9.65889
▁bù	-9.66198
▁quyến	-9.66214
▁mực	-9.66249
▁lính	-9.66291
▁giật	-9.66329
▁mệt	-9.6649
▁nhũng	-9.66655
▁xô	-9.66667
▁bùng	-9.66872
▁bông	-9.66884
▁xóa	-9.66933
▁ẩm	-9.6694
▁mourinho	-9.67215
▁ngực	-9.67223
▁hnx	-9.67298
▁nhé	-9.6748
▁tan	-9.67568
▁trứng	-9.67624
▁wenger	-9.67824
▁tôm	-9.68005
▁rà	-9.68147
▁viễn	-9.68193
▁béo	-9.68239
▁hư	-9.68411
▁túc	-9.6857
▁điệp	-9.68723
▁bột	-9.69091
▁nhung	-9.69141
▁canh	-9.69225
▁khoáng	-9.69296
▁giấc	-9.69299
▁chừng	-9.69306
▁dâm	-9.69471
▁rũ	-9.69548
▁01	-9.69574
▁tổn	-9.70014
▁cắp	-9.70349
▁lang	-9.71106
▁thở	-9.71175
▁nai	-9.71255
▁2008	-9.71276
▁tiệc	-9.71307
▁đắt	-9.71345
▁che	-9.7158
▁lũ	-9.71594
▁chủng	-9.71639
▁hiển	-9.71851
▁tảng	-9.71862
▁tàn	-9.721
▁niêm	-9.7214
▁barca	-9.72191
▁vtc	-9.72364
▁săn	-9.7247
▁viêm	-9.72476
▁36	-9.7248
▁web	-9.727
▁sốc	-9.72884
▁mỏi	-9.72923
▁cổng	-9.73072
▁chuỗi	-9.73349
▁lọt	-9.73478
▁vov	-9.73482
▁diệt	-9.73524
5	-9.73651
▁mây	-9.73693
▁reuters	-9.73819
▁cất	-9.73919
▁thịnh	-9.73972
▁bốc	-9.74154
▁air	-9.74485
▁chó	-9.74494
▁tắm	-9.74817
▁cỡ	-9.74972
▁vang	-9.75136
▁dắt	-9.75259
▁vẽ	-9.75299
▁ác	-9.75309
▁lọc	-9.75433
▁hầm	-9.75477
▁mạn	-9.75511
▁gaal	-9.75521
▁ngự	-9.75667
▁dính	-9.75694
▁thạch	-9.75708
▁dọc	-9.75739
▁ái	-9.76023
▁indonesia	-9.76047
▁ngắm	-9.76224
▁hối	-9.7637
▁tắt	-9.76545
▁chăn	-9.76693
▁tả	-9.76895
▁đo	-9.76939
▁mù	-9.7698
▁iii	-9.77246
▁thánh	-9.77341
▁đeo	-9.77385
▁triệt	-9.77606
▁brazil	-9.7774
▁world	-9.77924
8	-9.78104
▁bám	-9.78238
k	-9.78401
▁sáu	-9.78509
▁mi	-9.78536
▁thùy	-9.78614
▁san	-9.7886
▁thoái	-9.79006
▁cốt	-9.79127
▁putin	-9.79371
▁cống	-9.80037
▁quỷ	-9.80104
▁thuẫn	-9.80152
▁rắn	-9.80288
▁donetsk	-9.80381
▁bỉ	-9.80441
▁nhàng	-9.80537
▁lây	-9.80567
▁yết	-9.80751
▁thờ	-9.80782
▁khoác	-9.8089
▁mc	-9.80902
b	-9.81044
▁2020	-9.81101
▁khuyên	-9.81261
▁sánh	-9.81265
▁rỡ	-9.81448
▁nhãn	-9.81549
▁bớt	-9.81777
▁na	-9.81795
▁giường	-9.81915
▁trống	-9.82035
▁tu	-9.82067
▁asiad	-9.82197
▁mỏng	-9.82246
▁australia	-9.8262
▁ân	-9.82687
▁thơm	-9.82791
▁yến	-9.82957
▁37	-9.83016
▁say	-9.8316
▁thuần	-9.8359
kg	-9.83737
▁vả	-9.83843
▁150	-9.83942
▁tuyết	-9.83998
▁david	-9.84141
▁thiệp	-9.84334
▁vĩ	-9.84572
▁phiến	-9.84623
▁th	-9.84832
▁lệch	-9.8497
▁hô	-9.84987
▁mau	-9.85204
▁tuân	-9.8525
▁ho	-9.85272
▁chinh	-9.85308
âu	-9.85431
▁al	-9.85479
▁xi	-9.85589
▁khôi	-9.85592
▁nút	-9.85688
▁lồ	-9.85821
▁bảy	-9.85882
▁ttxvn	-9.85979
▁cỏ	-9.86022
▁ngộ	-9.86118
▁trọn	-9.86289
▁ngạc	-9.86375
▁mãn	-9.8642
▁afp	-9.86713
▁cụm	-9.87144
▁mỏ	-9.87213
▁gánh	-9.87307
▁kh	-9.8759
▁ròng	-9.87719
▁khát	-9.87755
▁khâu	-9.87856
▁trộn	-9.87999
▁mốc	-9.88005
▁vươn	-9.88079
▁bi	-9.8828
▁ấp	-9.88283
▁lee	-9.88326
▁nụ	-9.88442
▁galaxy	-9.88649
▁bích	-9.88912
▁men	-9.89034
▁ven	-9.89132
▁vướng	-9.89202
▁mét	-9.89204
▁asean	-9.89252
▁giận	-9.89353
▁lít	-9.89371
▁chua	-9.89388
▁bổng	-9.89425
▁inch	-9.89429
▁mu	-9.89491
▁khiếu	-9.89571
▁khống	-9.89771
▁38	-9.90001
▁33	-9.90003
▁honda	-9.90012
▁chúa	-9.90337
▁800	-9.90513
▁khớp	-9.90571
▁trục	-9.90653
▁lí	-9.90666
▁cẩn	-9.90736
▁đai	-9.91098
▁34	-9.91297
▁chùa	-9.91341
▁gdp	-9.91351
▁móc	-9.91652
▁ném	-9.91722
▁bế	-9.91734
▁bề	-9.9181
▁cự	-9.92021
▁thùng	-9.92041
▁truyện	-9.92116
▁ngừa	-9.9217
▁john	-9.925
▁champions	-9.92584
▁website	-9.92636
▁plus	-9.92956
▁maria	-9.9302
▁csgt	-9.93106
▁london	-9.93159
▁barcelona	-9.9316
▁sót	-9.93264
▁ngọn	-9.93357
▁bận	-9.9337
iêm	-9.93576
▁vẹn	-9.93895
▁dạ	-9.94036
▁phật	-9.94213
▁nhựa	-9.94266
▁york	-9.94297
▁thạnh	-9.9443
▁vây	-9.94482
▁mv	-9.94575
▁múa	-9.94585
▁cđ	-9.94682
▁soạn	-9.94725
p	-9.95107
▁ảo	-9.95124
▁lông	-9.9568
▁vạn	-9.95756
▁lão	-9.95817
▁im	-9.95856
▁album	-9.9639
▁xưởng	-9.96409
▁vội	-9.9641
7	-9.96458
▁dĩ	-9.96551
▁bát	-9.96604
▁700	-9.96708
▁microsoft	-9.96789
▁chìm	-9.96806
▁ctcp	-9.96898
▁trôi	-9.97279
▁costa	-9.97336
▁mộc	-9.97818
▁mến	-9.97832
▁nobel	-9.97884
▁bỏng	-9.9834
▁úc	-9.98545
▁miếng	-9.98989
l	-9.99261
▁lăng	-9.99389
▁ổ	-10.0001
▁hi	-10.0013
▁nhạy	-10.0016
▁hẹp	-10.0033
▁mỡ	-10.0039
▁xoay	-10.0039
▁rực	-10.0056
▁ức	-10.0067
▁xách	-10.0073
▁tráng	-10.0085
▁graechen	-10.0112
▁bong	-10.0128
▁43	-10.0138
▁mạo	-10.0142
4	-10.015
▁thợ	-10.0163
▁dịu	-10.0167
▁42	-10.0184
▁nhan	-10.0186
▁75	-10.0189
▁00	-10.0193
▁thâm	-10.0215
▁bụi	-10.0233
▁khứ	-10.0236
▁ii	-10.0239
▁ưa	-10.0257
▁z	-10.0277
▁mini	-10.028
▁55	-10.0293
▁utd	-10.0331
▁vitamin	-10.0342
▁tha	-10.035
▁khéo	-10.0353
▁hò	-10.0373
▁ám	-10.0394
▁ốc	-10.0408
▁cài	-10.042
ha	-10.0442
▁tám	-10.0443
▁nề	-10.0449
▁united	-10.0459
▁nồng	-10.0459
▁liveshow	-10.0482
▁vải	-10.0484
▁dội	-10.0488
▁thô	-10.0491
▁khói	-10.05
▁rồng	-10.0507
▁chim	-10.0507
▁chặng	-10.0523
▁mì	-10.0525
▁mượn	-10.053
▁đầm	-10.0547
▁2007	-10.0555
▁buýt	-10.0576
▁khuyết	-10.0577
▁đụng	-10.0625
▁tách	-10.0643
▁liga	-10.0685
▁kiev	-10.0685
▁đắc	-10.0697
▁ngợi	-10.0697
▁cđv	-10.0715
▁lứa	-10.0721
▁đựng	-10.0733
▁dã	-10.075
▁64	-10.0784
▁ngào	-10.08
▁hổ	-10.0809
▁gã	-10.0811
00	-10.0826
▁cay	-10.084
▁west	-10.0843
▁đĩa	-10.086
▁btc	-10.0873
▁lũy	-10.0881
▁paris	-10.0885
▁đế	-10.0894
▁65	-10.0916
▁kiệt	-10.0948
▁tết	-10.0951
▁trịnh	-10.0952
▁39	-10.0953
▁diệu	-10.0959
▁vợt	-10.0971
▁lùi	-10.0984
▁ngãi	-10.0997
▁obama	-10.1008
▁tiễn	-10.1009
▁mầm	-10.1015
▁đói	-10.1017
▁nhẫn	-10.1021
▁hỗn	-10.1041
▁tọa	-10.1046
▁cong	-10.106
▁lấp	-10.1071
▁hôi	-10.1097
▁argentina	-10.1114
▁kem	-10.112
▁đắk	-10.1133
▁hoành	-10.116
▁hở	-10.1161
▁nguyệt	-10.1171
▁tand	-10.1176
▁uyên	-10.1178
▁diễm	-10.1178
▁09	-10.1209
▁mười	-10.1215
▁muối	-10.1228
▁mày	-10.124
▁bọc	-10.1241
▁dệt	-10.1247
▁hagl	-10.1254
▁muộn	-10.1279
▁nhnn	-10.1285
▁gối	-10.1292
▁nát	-10.1292
▁kobani	-10.1298
▁dâng	-10.1304
▁hđqt	-10.1305
▁thự	-10.131
▁hắn	-10.1337
▁sen	-10.1337
gb	-10.1343
▁đắp	-10.135
▁04	-10.1354
▁trâm	-10.1362
▁điền	-10.1363
▁đoan	-10.1427
▁ghép	-10.1447
▁trội	-10.1472
▁milan	-10.1479
▁nở	-10.1479
▁trừng	-10.1484
▁xả	-10.1505
▁móng	-10.151
▁gan	-10.1519
▁j	-10.1522
▁bỗng	-10.1531
▁philippines	-10.1531
▁phu	-10.1534
▁đống	-10.1546
▁lỡ	-10.1551
▁51	-10.1557
▁khe	-10.1579
▁48	-10.159
▁gìn	-10.1595
▁đành	-10.1601
▁bhxh	-10.1603
▁mũ	-10.1612
▁ngạch	-10.1616
▁vtv	-10.163
▁chip	-10.1657
▁park	-10.1663
▁côn	-10.1671
▁đẻ	-10.1678
▁trọ	-10.1686
▁dập	-10.1698
▁mảng	-10.1704
▁bút	-10.1717
▁08	-10.1742
▁sợi	-10.1751
▁welbeck	-10.1763
▁heo	-10.177
▁vđv	-10.1776
▁hose	-10.181
▁sập	-10.184
▁xưng	-10.185
▁dồn	-10.1852
▁250	-10.1861
▁2006	-10.1872
▁everton	-10.1877
▁liều	-10.1898
▁dọn	-10.1898
▁campuchia	-10.1904
▁canada	-10.1904
▁pccc	-10.1904
▁quyên	-10.1911
▁ôtô	-10.1918
▁tuệ	-10.1918
▁khoảnh	-10.1918
▁diego	-10.1925
▁nexus	-10.1925
▁rooney	-10.1952
▁dốc	-10.1952
▁chênh	-10.2007
▁xá	-10.2028
▁tủ	-10.2035
▁of	-10.204
▁girl	-10.2052
▁41	-10.2068
▁đáy	-10.2069
▁ios	-10.2072
▁thó	-10.2082
▁63	-10.2108
▁đuôi	-10.211
▁son	-10.2115
▁bón	-10.2126
▁bơi	-10.2157
▁li	-10.216
▁viettel	-10.2173
▁nảy	-10.218
▁vóc	-10.218
▁lấn	-10.2187
▁csđt	-10.2194
▁47	-10.2199
▁pc	-10.2207
▁2004	-10.2231
▁chán	-10.2232
▁qh	-10.2247
▁lộn	-10.2256
▁tour	-10.2279
▁iran	-10.2285
▁washington	-10.2313
▁lân	-10.2325
▁tạ	-10.2329
▁ruộng	-10.2334
▁lật	-10.2342
▁mẻ	-10.2342
▁dỡ	-10.2349
▁liêm	-10.2351
▁gạch	-10.2364
▁cắm	-10.237
▁mò	-10.2378
▁05	-10.239
▁dạo	-10.2422
▁loa	-10.2428
▁khuẩn	-10.2445
r	-10.2467
▁nhì	-10.2487
▁nho	-10.2514
▁sexy	-10.2521
▁rãi	-10.2524
▁cáp	-10.2529
▁85	-10.2531
▁trùm	-10.2575
▁tno	-10.2588
▁fabregas	-10.26
▁airlines	-10.2608
▁thưa	-10.2621
▁chai	-10.2628
▁úy	-10.2629
▁lợn	-10.2629
▁old	-10.2637
▁trân	-10.2637
er	-10.2655
▁44	-10.2682
▁49	-10.2685
▁manh	-10.2694
▁note	-10.2701
▁2000	-10.2711
▁lề	-10.2735
▁vỉa	-10.2755
▁mồ	-10.2765
▁hòn	-10.2765
▁pgs	-10.2806
▁1954	-10.2807
▁tống	-10.2816
▁cậy	-10.2821
▁mm	-10.283
▁cưỡng	-10.2858
▁đằng	-10.2866
▁nhạt	-10.2866
▁đspl	-10.2873
▁kobane	-10.2888
▁sướng	-10.2888
▁lỏng	-10.2904
▁nại	-10.2905
hiếp	-10.2914
▁mờ	-10.2945
▁bắp	-10.2968
▁sương	-10.2971
▁bách	-10.2973
▁mộng	-10.2987
▁tre	-10.2987
▁khép	-10.3001
▁52	-10.3005
6	-10.302
▁lắc	-10.3024
▁chuột	-10.3032
▁lôi	-10.3039
▁quãng	-10.3047
▁quái	-10.305
▁ư	-10.3057
▁italia	-10.3057
▁tiệm	-10.307
▁120	-10.3082
▁99	-10.3087
▁phùng	-10.31
▁điên	-10.3104
▁02	-10.3107
▁gs	-10.3119
▁rể	-10.3132
▁dở	-10.3133
▁falcao	-10.3146
▁thoáng	-10.3162
▁nứt	-10.3195
▁moscow	-10.32
▁oanh	-10.3213
▁mổ	-10.3216
▁nhầm	-10.3231
▁đùa	-10.3232
▁cóc	-10.3242
▁phe	-10.3251
▁sim	-10.3255
▁rộn	-10.3256
▁đê	-10.3275
▁nướng	-10.3286
▁qđ	-10.3303
▁www	-10.3309
▁vở	-10.3311
▁hãi	-10.3317
▁54	-10.3328
▁oan	-10.3335
▁46	-10.3337
▁showbiz	-10.334
▁dò	-10.3343
▁ngơi	-10.3352
▁tựu	-10.3353
▁huệ	-10.3388
đ	-10.3392
▁xà	-10.3392
▁2005	-10.3415
▁cốc	-10.3424
▁trafford	-10.3427
▁hước	-10.3451
▁ngoan	-10.3461
▁chém	-10.3475
▁tím	-10.3477
▁bội	-10.3486
▁ong	-10.3516
▁nấm	-10.3522
▁bv	-10.3528
▁vnd	-10.3533
▁mắm	-10.3538
▁thcs	-10.3538
▁sony	-10.3549
▁gas	-10.3551
▁chôn	-10.3554
▁kcn	-10.3562
▁manchester	-10.357
▁sụt	-10.3579
▁giãn	-10.3589
▁mọc	-10.3595
▁ql	-10.3616
▁nhắm	-10.3619
▁phím	-10.3636
▁chanh	-10.3646
▁nato	-10.366
▁rèn	-10.3662
▁bayern	-10.3668
▁nhã	-10.3671
▁thấu	-10.3675
▁htc	-10.3676
▁hụt	-10.3676
▁khơi	-10.3677
▁bể	-10.3683
▁rạp	-10.3692
▁neo	-10.3707
▁kỉ	-10.3708
▁hiếp	-10.3727
▁hcv	-10.3741
▁đính	-10.3748
▁scandal	-10.3773
▁đúc	-10.3773
▁ham	-10.3792
▁hưu	-10.3834
▁tràng	-10.3835
▁quét	-10.3872
▁măng	-10.3872
▁tràm	-10.3907
▁suối	-10.3922
▁vck	-10.3922
▁israel	-10.393
▁ngựa	-10.3933
▁lở	-10.3939
▁ri	-10.3977
▁tụng	-10.3978
▁gũi	-10.398
▁chuộng	-10.398
▁rắc	-10.3989
▁mông	-10.3992
▁67	-10.3995
▁cước	-10.3997
▁bks	-10.4005
▁luân	-10.4013
▁chê	-10.4014
▁ơi	-10.4017
▁bấm	-10.4024
▁nạ	-10.4035
▁thắt	-10.4039
▁ồn	-10.404
▁tq	-10.4041
▁htx	-10.4047
▁gò	-10.4059
▁62	-10.4069
▁95	-10.4073
▁56	-10.408
▁khoai	-10.4086
▁chăng	-10.4093
▁eo	-10.4096
▁ki	-10.4106
▁nếp	-10.4123
▁gục	-10.4123
▁hố	-10.4131
▁juventus	-10.4131
▁khang	-10.4135
▁khoan	-10.4139
▁nhậu	-10.414
▁balotelli	-10.4148
▁84	-10.4152
▁rịa	-10.4157
▁huân	-10.4165
▁gián	-10.417
▁bùn	-10.4182
10	-10.421
▁thằng	-10.4234
▁hang	-10.4235
▁taxi	-10.4254
▁gb	-10.4266
▁ngón	-10.4268
▁poroshenko	-10.4268
▁guillaume	-10.4277
▁james	-10.4277
▁thổi	-10.4284
▁đứt	-10.4286
▁cúp	-10.4291
▁roma	-10.431
▁xạ	-10.4316
▁léo	-10.432
▁đồi	-10.4324
▁pl	-10.4325
▁blackberry	-10.4328
hoảng	-10.4342
▁phiền	-10.4355
▁đớn	-10.4363
▁hận	-10.4363
▁gea	-10.4365
▁rung	-10.4377
▁thắc	-10.4382
▁gãy	-10.4391
▁xao	-10.4394
▁láng	-10.4399
▁thầm	-10.4407
▁53	-10.4415
▁italy	-10.4415
▁kĩ	-10.443
▁jessica	-10.4459
▁gắt	-10.446
▁phun	-10.4467
▁vịnh	-10.4468
▁jennifer	-10.4477
▁tottenham	-10.4485
▁luồng	-10.4486
▁quế	-10.4528
▁nđ	-10.4533
▁ozil	-10.4538
▁trượt	-10.4556
▁cửu	-10.4589
▁nhưỡng	-10.4609
▁900	-10.461
▁bơm	-10.4622
▁03	-10.4624
▁nghiêng	-10.4649
▁chiêm	-10.4655
▁trỗi	-10.4663
▁lùng	-10.4664
cm	-10.4669
▁ớt	-10.4681
▁bẩn	-10.4685
▁vấp	-10.47
▁phanh	-10.4703
▁bar	-10.4712
▁fdi	-10.4717
▁mẫn	-10.4735
▁atletico	-10.4753
▁rủ	-10.4766
▁nã	-10.4769
▁tần	-10.4771
▁tv	-10.4774
▁fpt	-10.4796
▁dừa	-10.4816
mm	-10.4819
▁hs	-10.4833
▁neymar	-10.4834
▁ranh	-10.4857
▁xích	-10.4862
▁băn	-10.4888
▁khoăn	-10.4917
▁má	-10.4935
v	-10.4938
45	-10.4969
▁qđnd	-10.4981
▁email	-10.4981
▁mụn	-10.4991
▁bàng	-10.4999
▁cuồng	-10.5037
▁tựa	-10.5039
▁ào	-10.5039
▁66	-10.504
▁hoại	-10.5046
▁one	-10.5065
▁thấm	-10.5074
▁lưỡng	-10.5074
▁vượng	-10.5083
▁cua	-10.5085
▁asem	-10.5093
▁khanh	-10.5114
▁58	-10.512
▁màng	-10.5138
▁gay	-10.5155
▁lữ	-10.5161
▁tẩy	-10.5206
▁kí	-10.5206
▁sạc	-10.5211
▁dải	-10.5216
▁hân	-10.5224
▁sành	-10.5237
ập	-10.524
▁lăn	-10.5251
▁ngần	-10.5253
▁vắc	-10.5301
▁72	-10.5342
▁dời	-10.5367
▁hoãn	-10.5377
▁hd	-10.538
▁vành	-10.5384
▁tr	-10.5392
▁gác	-10.5396
▁xăm	-10.5406
▁suarez	-10.5415
▁2003	-10.5461
▁ê	-10.5471
▁atgt	-10.5473
▁cởi	-10.5474
▁57	-10.5491
20	-10.5496
▁liberia	-10.5522
▁cắn	-10.5551
▁hnm	-10.5574
▁ap	-10.5606
▁model	-10.5619
▁le	-10.5619
▁mặn	-10.5642
▁06	-10.5643
▁xí	-10.5646
▁chật	-10.5699
▁cntt	-10.5699
▁út	-10.571
▁thắn	-10.5717
▁louis	-10.5718
▁soi	-10.572
▁khôn	-10.572
▁bì	-10.573
▁lột	-10.5741
▁ram	-10.5744
▁ssi	-10.5746
▁61	-10.5757
▁nhở	-10.579
▁1990	-10.58
▁ti	-10.5823
▁brom	-10.583
▁khiêm	-10.5842
▁69	-10.5847
▁lầu	-10.5859
▁83	-10.5891
▁đè	-10.5894
▁bizlive	-10.592
▁chẩn	-10.593
▁lót	-10.593
▁hđnd	-10.594
▁lui	-10.5945
▁110	-10.5961
▁dưa	-10.5962
▁dán	-10.598
▁cạn	-10.5997
▁ốm	-10.6013
▁phế	-10.6013
17	-10.6029
▁77	-10.603
▁miêu	-10.6053
▁cn	-10.6068
▁lốp	-10.6094
▁bđs	-10.6135
▁me	-10.6162
▁ao	-10.6169
▁chè	-10.6171
▁led	-10.6178
▁min	-10.6182
▁bhyt	-10.6208
▁chuối	-10.6208
▁mịn	-10.621
▁hái	-10.622
▁xỉ	-10.6229
▁chả	-10.6237
▁125	-10.6239
▁buông	-10.624
▁châm	-10.624
▁bấy	-10.6247
▁sởi	-10.6251
▁đọng	-10.6253
▁xk	-10.626
▁tê	-10.6265
▁nhường	-10.6272
▁trạch	-10.6282
▁no	-10.6283
▁87	-10.6287
▁lội	-10.6287
▁xắn	-10.6292
▁nhơn	-10.6293
▁xông	-10.6297
▁ghen	-10.6306
▁st	-10.632
▁gom	-10.6336
▁82	-10.6336
▁phổi	-10.6344
▁liêu	-10.6345
▁mh	-10.637
▁ngột	-10.637
▁nghịch	-10.6371
▁se	-10.6374
▁mercedes	-10.6377
▁as	-10.6386
▁68	-10.6405
▁olympic	-10.6416
▁ni	-10.6417
▁cm	-10.6418
▁xơ	-10.6436
▁ngỡ	-10.6441
▁nàn	-10.6447
▁mèo	-10.6463
▁len	-10.6464
▁rỉ	-10.6471
▁oscar	-10.6481
▁lát	-10.6483
▁khải	-10.6485
▁nhặt	-10.6505
▁khiếp	-10.6512
▁mía	-10.6528
▁tpo	-10.6529
▁khuất	-10.6529
▁liễu	-10.6538
▁pakistan	-10.6559
nh	-10.6566
▁92	-10.6573
▁hp	-10.661
▁dạn	-10.6612
▁ph	-10.6631
▁thám	-10.6646
▁xperia	-10.6646
▁young	-10.6649
▁mr	-10.6651
▁http	-10.6666
▁khái	-10.6667
▁factor	-10.671
▁tồi	-10.6713
▁gam	-10.6723
▁lường	-10.6745
▁bái	-10.6753
▁tỏi	-10.6766
▁phở	-10.6767
▁voi	-10.6803
▁bộc	-10.6824
▁daily	-10.6832
▁76	-10.6833
▁vs	-10.6852
▁tò	-10.6855
▁kíp	-10.6867
▁michael	-10.6877
▁ngâm	-10.6878
▁catp	-10.6878
▁bưu	-10.689
▁kề	-10.6893
▁bđbp	-10.69
▁88	-10.6914
▁đắm	-10.6922
▁rải	-10.6925
▁xôn	-10.6933
▁who	-10.6945
▁qu	-10.6949
▁seoul	-10.6967
▁ceo	-10.6968
▁hollywood	-10.6979
▁lạt	-10.6982
▁sáp	-10.7001
▁jmg	-10.7013
▁hit	-10.704
▁kẹt	-10.7047
▁vy	-10.7047
▁nan	-10.7057
▁giọt	-10.7058
▁rạch	-10.7058
▁band	-10.7061
▁ôn	-10.7064
▁73	-10.707
▁đắng	-10.7071
▁74	-10.7076
▁07	-10.7076
▁mí	-10.7083
▁cadn	-10.7093
▁cr	-10.7104
▁dẹp	-10.7126
▁thủng	-10.7131
▁chửi	-10.7138
▁ả	-10.7139
▁dông	-10.7151
▁sm	-10.7154
▁gươm	-10.7161
▁điêu	-10.7242
▁tablet	-10.7276
▁đắn	-10.7298
▁sjc	-10.73
▁bs	-10.7309
▁texas	-10.7323
▁nạp	-10.7324
▁villa	-10.7333
▁vú	-10.7333
▁toyota	-10.7334
▁thỉnh	-10.7336
▁đòn	-10.7343
▁86	-10.7346
▁vã	-10.7384
▁59	-10.7399
▁tokyo	-10.7405
▁gốm	-10.7417
▁mtv	-10.743
▁lướt	-10.744
▁giàn	-10.7443
ing	-10.7446
▁ghé	-10.745
▁trễ	-10.7452
▁hạm	-10.7466
▁psg	-10.7476
▁lặn	-10.7486
▁khê	-10.7498
▁lận	-10.75
▁nồi	-10.75
9	-10.7515
▁78	-10.7519
▁alex	-10.7521
▁gi	-10.7522
▁81	-10.7532
▁luis	-10.7541
▁râu	-10.755
▁federer	-10.7559
▁đệm	-10.7565
▁bank	-10.7566
▁hé	-10.7582
▁and	-10.7587
▁cúng	-10.7591
▁71	-10.7593
▁xát	-10.7598
▁lạng	-10.7598
▁nxb	-10.76
▁sụp	-10.7619
▁times	-10.7622
uýt	-10.7626
▁khoang	-10.7627
▁xót	-10.7631
▁thon	-10.7635
▁trù	-10.7644
▁cưng	-10.7652
▁bưởi	-10.7655
▁bale	-10.7655
▁angela	-10.7656
▁lơ	-10.7664
▁gậy	-10.7667
▁buồng	-10.7677
▁lồng	-10.768
▁nắp	-10.7682
▁khao	-10.7693
▁đệ	-10.7698
▁pa	-10.7702
▁lau	-10.7703
▁dãy	-10.771
▁79	-10.7715
▁tà	-10.7719
▁mòn	-10.7722
▁mttq	-10.7729
▁nsnn	-10.774
▁phơi	-10.7741
▁ngất	-10.7751
▁dối	-10.7765
▁thèm	-10.7777
▁metro	-10.7777
▁trâu	-10.7777
▁2017	-10.7844
▁thiêng	-10.7849
▁oda	-10.7851
▁lẫy	-10.7863
▁mốt	-10.7875
▁đạm	-10.7876
▁idol	-10.7878
▁hao	-10.788
▁xôi	-10.7883
▁martin	-10.7883
▁dnnn	-10.7887
úp	-10.789
▁vuông	-10.79
▁bo	-10.7902
▁chọc	-10.7924
▁hóc	-10.7937
▁ben	-10.7944
▁đả	-10.7944
▁nn	-10.7947
▁nốt	-10.7949
▁lung	-10.7953
hói	-10.7956
▁ráp	-10.7962
▁chen	-10.7983
▁mồi	-10.7993
▁91	-10.8006
▁nô	-10.8023
▁lún	-10.8038
▁130	-10.8047
▁mác	-10.8059
▁1995	-10.8062
▁set	-10.8066
▁xen	-10.8071
▁rẫy	-10.8074
▁bồn	-10.8075
▁cristiano	-10.8087
▁el	-10.8108
▁vớt	-10.8113
▁nâu	-10.8123
▁chép	-10.8125
▁lộng	-10.8127
▁games	-10.8135
▁container	-10.8137
▁đuối	-10.8137
▁nới	-10.815
▁tặc	-10.8151
▁munich	-10.8163
▁dại	-10.8176
▁vạch	-10.8189
▁tóm	-10.8201
▁twitter	-10.8239
▁lhq	-10.8252
▁vặt	-10.8252
▁nina	-10.8253
▁fi	-10.8263
▁ancelotti	-10.8265
▁ctck	-10.8265
▁nhát	-10.8278
▁túng	-10.8284
▁rộ	-10.8295
▁bô	-10.8302
▁thới	-10.8317
▁chui	-10.8321
▁quách	-10.8324
▁hẻm	-10.8329
▁mexico	-10.8329
▁nhâm	-10.833
▁gu	-10.8342
▁khuya	-10.8345
▁nén	-10.8359
▁xám	-10.8366
▁phì	-10.8376
▁nương	-10.8394
▁aguero	-10.8407
▁lưỡi	-10.8407
▁djokovic	-10.8433
▁rệt	-10.8459
▁tơ	-10.8459
▁kè	-10.8474
▁dặn	-10.8485
▁thìa	-10.8491
▁vladimir	-10.8498
▁ukraina	-10.8498
▁khiêu	-10.8501
▁mata	-10.8525
▁bbc	-10.8525
▁đôn	-10.8538
▁bẫy	-10.8538
▁nhàn	-10.8539
▁lặp	-10.8564
▁rập	-10.8573
▁oxy	-10.8605
▁kép	-10.8618
▁lanh	-10.8623
▁tao	-10.8625
▁ngà	-10.8628
▁kiềm	-10.8644
▁casillas	-10.8644
▁dỗ	-10.8647
▁evn	-10.8655
▁showroom	-10.8657
▁nhược	-10.8661
▁ngài	-10.8668
▁rẽ	-10.8671
▁chinhph	-10.8677
▁180	-10.8683
▁thomas	-10.8684
▁thắp	-10.8684
▁giặt	-10.8697
▁trán	-10.8706
▁sanchez	-10.8711
▁sạt	-10.8711
▁mường	-10.8711
▁lánh	-10.8714
▁nk	-10.8728
▁tngt	-10.8738
▁bmw	-10.8739
▁nhọn	-10.8752
▁audi	-10.876
▁89	-10.8768
▁đặn	-10.8776
▁khốc	-10.8792
▁choáng	-10.8805
▁sườn	-10.8813
▁mail	-10.8817
▁trăn	-10.883
▁nghiệt	-10.8832
▁vic	-10.8853
▁giềng	-10.8873
▁nhộn	-10.8885
▁lắk	-10.8887
▁1994	-10.8887
▁hiv	-10.8888
▁khía	-10.8891
▁sgk	-10.8901
▁ptnt	-10.8914
▁lụt	-10.8928
▁loki	-10.8942
▁nhôm	-10.8957
15	-10.8957
▁mix	-10.8962
▁ngây	-10.8983
▁cọc	-10.8984
▁2002	-10.8987
▁nôn	-10.9
▁hoi	-10.9014
▁à	-10.9023
▁tấu	-10.9024
▁quặng	-10.9024
▁chiên	-10.9037
▁super	-10.9039
▁oz	-10.9042
▁nlđo	-10.9053
▁chốn	-10.9064
▁snsd	-10.908
▁nuối	-10.908
▁98	-10.9084
▁2001	-10.9087
▁ea	-10.9089
▁vịt	-10.909
▁persie	-10.9108
▁1997	-10.9108
50	-10.9113
▁quầy	-10.9122
▁ẩu	-10.9122
▁nokia	-10.9164
▁ạ	-10.9195
▁trắc	-10.9206
▁vọt	-10.922
▁thạc	-10.923
▁nám	-10.9249
▁duncan	-10.9262
▁350	-10.928
▁dortmund	-10.9291
▁hq	-10.93
▁xẻ	-10.9308
▁quát	-10.9316
▁aston	-10.9319
▁gạt	-10.932
▁bơ	-10.9332
▁mark	-10.9355
▁ngưng	-10.936
▁chiết	-10.9362
▁đèo	-10.9364
▁vứt	-10.9365
▁cồn	-10.9375
▁group	-10.9377
▁wi	-10.9377
▁os	-10.9389
▁serbia	-10.9405
▁festival	-10.9405
▁dl	-10.9423
▁phụng	-10.9438
▁ùn	-10.9445
▁bừng	-10.9448
▁rong	-10.9461
▁sếp	-10.9463
▁nòng	-10.9463
▁96	-10.9482
▁dồ	-10.9506
▁benzema	-10.9506
▁dép	-10.9521
▁jose	-10.9521
▁ngoạn	-10.9535
▁khoái	-10.9535
▁dưng	-10.954
▁xào	-10.9552
▁roy	-10.9555
▁cúc	-10.9557
▁vác	-10.9557
▁đbscl	-10.9564
▁galatasaray	-10.9594
▁tivi	-10.9594
▁tụt	-10.9603
▁run	-10.9604
▁nsưt	-10.9608
▁hye	-10.9615
▁elly	-10.9654
▁iv	-10.9674
▁chìa	-10.9683
▁140	-10.9685
mp	-10.9705
▁êm	-10.9707
f	-10.9707
▁miện	-10.971
▁hcđ	-10.9712
ứt	-10.9713
▁ráo	-10.9714
▁vu	-10.9716
▁rò	-10.9721
▁mươi	-10.9741
▁file	-10.9755
▁vietcombank	-10.9756
▁1991	-10.9757
▁you	-10.9757
▁báu	-10.9765
▁giã	-10.9769
▁gầm	-10.9771
▁siết	-10.9772
▁óc	-10.9773
▁sun	-10.9784
▁ji	-10.9793
▁mập	-10.9809
▁triết	-10.9816
▁qui	-10.9818
▁xiii	-10.9819
▁sir	-10.9831
▁slovakia	-10.9846
▁plo	-10.9848
▁ghét	-10.9863
▁táng	-10.987
▁mt	-10.9871
▁phẳng	-10.9872
▁trơn	-10.9878
▁live	-10.9894
▁bôi	-10.9904
▁up	-10.9909
▁gdvn	-10.9922
▁ngẫu	-10.9922
▁lđ	-10.9923
▁w	-10.9925
▁lg	-10.994
▁xoắn	-10.9952
▁còi	-10.9962
▁inter	-10.9965
ỗi	-10.9965
▁kẹo	-10.9967
▁jeans	-10.9984
▁giòn	-10.9988
▁đếm	-10.9997
▁đtqg	-10.9998
▁đấm	-10.9999
▁đạc	-11.0013
▁chéo	-11.0028
▁gót	-11.0028
▁hat	-11.0032
▁thản	-11.0037
enny	-11.0049
▁97	-11.0049
▁dj	-11.0057
on	-11.0067
▁ren	-11.0072
▁160	-11.008
▁sừng	-11.0105
▁cháo	-11.011
▁phô	-11.0114
▁keane	-11.012
▁voice	-11.012
▁thềm	-11.0124
▁1993	-11.0152
▁rốt	-11.0167
▁sex	-11.0167
▁bạt	-11.0168
▁nghênh	-11.0182
an	-11.0189
▁xài	-11.0219
usd	-11.0224
▁sterling	-11.0229
▁thiêu	-11.023
▁monaco	-11.0244
▁ntm	-11.0245
▁imf	-11.0262
▁hốt	-11.0264
▁240	-11.0281
▁go	-11.0294
▁laptop	-11.0323
▁nhức	-11.0323
▁pro	-11.0324
▁mac	-11.0325
▁sx	-11.0326
▁hn	-11.0341
▁đùi	-11.0357
ch	-11.0364
▁ngỏ	-11.0371
▁vff	-11.0371
▁xê	-11.0375
▁miss	-11.0384
▁hoạn	-11.0387
▁hãm	-11.0402
▁miura	-11.0402
▁vietinbank	-11.0418
▁wifi	-11.0418
▁afghanistan	-11.0434
▁dai	-11.0436
▁rách	-11.0441
▁bồng	-11.0442
na	-11.045
▁trêu	-11.045
▁intel	-11.0451
▁thoa	-11.0454
ra	-11.0454
▁tui	-11.0455
▁cám	-11.0465
▁ngặt	-11.0466
▁luhan	-11.0482
▁ngàng	-11.0486
line	-11.0496
▁chùm	-11.0498
▁canxi	-11.0514
▁lụa	-11.053
▁văng	-11.0533
▁cấy	-11.0535
▁thục	-11.0538
▁ủ	-11.0546
▁1988	-11.0547
▁sierra	-11.0562
▁rổ	-11.0565
▁đun	-11.0566
▁nhị	-11.0572
▁cào	-11.0577
▁hức	-11.0578
▁93	-11.0581
▁mìn	-11.0587
▁1989	-11.0611
▁bóp	-11.0614
▁paul	-11.0617
▁big	-11.0632
▁1000	-11.0645
▁vamc	-11.066
▁né	-11.0667
▁won	-11.0676
▁nhục	-11.0676
▁etf	-11.069
▁miếu	-11.0692
▁axit	-11.0694
▁lumia	-11.0709
arsene	-11.071
▁xoa	-11.0715
▁kệ	-11.0716
▁xh	-11.0717
▁đkvđ	-11.0725
▁cap	-11.0733
▁chuông	-11.0742
▁shb	-11.0742
▁1996	-11.0759
▁kerry	-11.076
▁cò	-11.0765
▁serie	-11.0773
háo	-11.0777
▁sâm	-11.0778
▁bin	-11.0784
▁đu	-11.0788
▁đới	-11.0791
▁teen	-11.0793
▁tước	-11.0794
▁ướt	-11.0808
▁rô	-11.0815
▁muôn	-11.0822
▁nlđ	-11.0824
▁rụng	-11.0824
▁rubella	-11.084
▁đtck	-11.0841
▁net	-11.0846
▁tem	-11.0847
▁yamaha	-11.0857
▁1975	-11.0858
▁leone	-11.0864
▁california	-11.089
▁tctd	-11.0891
▁1992	-11.0892
▁nhăn	-11.0905
▁barack	-11.0907
▁khương	-11.0907
▁vnpt	-11.0907
▁lđlđ	-11.0924
▁mài	-11.0932
▁youtube	-11.0941
▁emirates	-11.0941
▁nđt	-11.0951
▁tịnh	-11.0958
▁ford	-11.096
▁tn	-11.0962
▁cand	-11.0972
▁ntk	-11.0991
▁blues	-11.0993
▁spa	-11.0995
▁chót	-11.0997
▁ac	-11.1006
▁xuôi	-11.1008
▁1999	-11.101
▁viếng	-11.1025
▁tấp	-11.1029
▁lu	-11.1031
▁gầy	-11.1042
▁bóc	-11.1048
▁star	-11.1057
▁hazard	-11.1059
▁nguội	-11.1059
▁slna	-11.1059
▁mạ	-11.1068
▁bidv	-11.1076
▁peter	-11.1076
▁mãnh	-11.1077
▁hét	-11.1078
▁nhang	-11.1091
▁bilbao	-11.1093
▁quật	-11.111
▁ngưu	-11.112
▁220	-11.1128
▁aff	-11.1136
▁94	-11.1144
▁fc	-11.1155
▁robert	-11.1156
▁vietjet	-11.1161
▁nhọc	-11.1161
▁cù	-11.1163
▁khedira	-11.1178
▁qatar	-11.1195
▁hán	-11.1197
▁dào	-11.1213
us	-11.1227
▁cuba	-11.1228
▁1980	-11.1231
▁lách	-11.125
▁bẩm	-11.1266
ấy	-11.1279
▁thắm	-11.1282
▁gai	-11.1285
▁rodgers	-11.1316
▁họng	-11.1352
▁si	-11.1359
▁nộ	-11.1368
▁xay	-11.1368
▁ru	-11.1378
▁suzuki	-11.1386
▁trick	-11.1387
▁bìa	-11.1398
▁sea	-11.1403
▁gân	-11.1404
▁náo	-11.1406
▁chợt	-11.1409
en	-11.1423
▁khuê	-11.1423
▁ndh	-11.1425
▁bún	-11.1427
▁tạt	-11.1443
▁cph	-11.1452
▁450	-11.1453
▁cớ	-11.1456
▁tưng	-11.1473
▁nhuộm	-11.1474
▁exo	-11.1475
▁ván	-11.149
▁tị	-11.1491
▁royce	-11.1492
▁silva	-11.1492
▁massage	-11.1492
▁giằng	-11.151
▁1998	-11.1511
▁los	-11.152
▁jean	-11.1527
▁karaoke	-11.1527
▁usb	-11.1528
▁petro	-11.1542
▁xấp	-11.1546
sao	-11.1557
▁chèo	-11.1565
▁lũng	-11.1567
▁grand	-11.1579
▁uốn	-11.158
▁hoán	-11.1581
▁vách	-11.1591
▁tát	-11.1598
▁qpr	-11.1599
▁chén	-11.1599
▁viền	-11.1617
▁resort	-11.1633
iệt	-11.1646
▁tạng	-11.1648
▁lọ	-11.165
▁hull	-11.1653
▁nadal	-11.1653
▁seung	-11.1653
▁cỗ	-11.166
▁đọ	-11.1679
▁vingroup	-11.1689
▁bạ	-11.1703
▁xé	-11.1712
▁rolls	-11.1725
▁tia	-11.1735
▁ưng	-11.1738
▁rao	-11.1742
▁mario	-11.1743
▁protein	-11.1743
▁cuộn	-11.1743
▁palestine	-11.1743
▁súc	-11.1743
▁china	-11.1757
▁palace	-11.1761
▁tẩu	-11.1762
▁incheon	-11.178
▁ngậm	-11.1798
▁han	-11.18
▁gen	-11.1805
▁bridge	-11.1806
▁saigon	-11.1817
▁1982	-11.1835
▁kẽ	-11.1837
▁abe	-11.1848
▁xướng	-11.1853
▁logo	-11.1854
▁ồ	-11.1867
▁lụy	-11.1871
▁hotgirl	-11.1871
▁quyển	-11.1872
▁tốp	-11.1885
▁sport	-11.1894
▁sưng	-11.1905
▁quỳ	-11.1908
▁enrique	-11.1908
▁peugeot	-11.1908
▁cạp	-11.1927
▁cdc	-11.1928
▁fifa	-11.1945
▁mả	-11.1957
▁ct	-11.1961
▁sẹo	-11.1963
▁del	-11.1978
▁gấu	-11.1982
▁bực	-11.1983
▁center	-11.1983
▁land	-11.199
▁valencia	-11.2001
▁vắt	-11.2003
▁eye	-11.2024
▁1986	-11.2025
▁passport	-11.2038
▁jones	-11.2038
▁diệp	-11.2038
▁rớt	-11.2039
▁đúp	-11.2039
▁trác	-11.2053
▁sh	-11.2054
▁sv	-11.2056
▁quạt	-11.2057
▁nể	-11.2062
▁sam	-11.2064
âm	-11.2074
▁desire	-11.2076
▁ướp	-11.2076
▁lotte	-11.2076
▁nhịn	-11.2081
▁mắng	-11.2089
▁xì	-11.2092
▁vỗ	-11.2094
▁pique	-11.2095
▁open	-11.2095
▁hcb	-11.2095
▁nến	-11.2095
ne	-11.212
▁nguyen	-11.2124
▁keo	-11.2168
▁doc	-11.2169
al	-11.217
▁plaza	-11.217
▁kiêu	-11.217
▁pop	-11.2171
▁chay	-11.2186
▁rock	-11.2188
▁snapdragon	-11.2189
▁collagen	-11.2189
▁thêu	-11.219
▁mỉ	-11.22
▁am	-11.2205
▁hăng	-11.2208
▁rước	-11.221
▁ttg	-11.221
▁nm	-11.222
▁chì	-11.2227
▁giò	-11.2228
▁khỏa	-11.2246
▁kok	-11.227
▁dang	-11.2272
▁danny	-11.2285
▁vòm	-11.2286
▁lều	-11.2289
▁lạp	-11.2292
▁gừng	-11.2304
▁2030	-11.2304
▁xịt	-11.2323
▁belarus	-11.2323
▁ủi	-11.2336
▁kazakhstan	-11.2361
▁luke	-11.2381
▁chải	-11.2381
▁radar	-11.2386
▁nuốt	-11.24
▁gặt	-11.24
▁giếng	-11.2419
▁mỳ	-11.242
▁2018	-11.2422
▁hyun	-11.2436
▁phao	-11.2438
▁lamborghini	-11.2439
▁đục	-11.2439
▁lừng	-11.244
hay	-11.2441
▁type	-11.2449
▁chdcnd	-11.2458
▁wayne	-11.2459
▁nd	-11.2461
▁oai	-11.2462
▁jung	-11.2464
▁boy	-11.2478
▁nản	-11.2498
▁series	-11.25
▁hee	-11.2505
▁eric	-11.2515
▁bernabeu	-11.2517
▁tản	-11.2536
▁gàng	-11.2537
▁bẻ	-11.2539
▁bén	-11.2544
▁mượt	-11.2556
▁southampton	-11.2556
▁ghê	-11.2576
▁dẻo	-11.2577
▁thối	-11.2578
▁benz	-11.2582
▁nhóc	-11.2596
▁hông	-11.2607
▁for	-11.2608
▁sỏi	-11.2617
▁post	-11.2624
▁thốt	-11.2636
▁kha	-11.2639
▁pvn	-11.2644
▁phẫn	-11.2655
▁khiết	-11.2656
▁red	-11.2672
▁phone	-11.2675
▁vaccine	-11.2676
▁cọ	-11.2694
▁nghẽn	-11.2695
▁chan	-11.2702
▁thòi	-11.2718
▁taylor	-11.2736
dđt	-11.2739
▁csb	-11.274
▁sầu	-11.2776
▁nấy	-11.278
▁nick	-11.2781
▁daniel	-11.2782
▁zing	-11.279
▁tbktsg	-11.2796
▁séc	-11.2796
▁vạ	-11.2799
▁tí	-11.2799
▁kt	-11.28
▁yoga	-11.2837
ắp	-11.2837
▁golf	-11.2857
▁nhuyễn	-11.2857
▁cẩu	-11.2877
▁flash	-11.2897
▁nức	-11.2897
▁1984	-11.2899
▁bã	-11.291
▁ngán	-11.2918
▁masters	-11.2918
▁miên	-11.2922
▁ireland	-11.2938
▁sydney	-11.2938
▁fed	-11.294
▁atm	-11.2941
▁nà	-11.2958
▁luộc	-11.2959
▁chuồng	-11.2959
▁tăm	-11.296
▁nọ	-11.2961
▁khan	-11.2967
▁kìm	-11.297
▁đốn	-11.298
▁ngả	-11.2994
▁giôm	-11.3
▁sọ	-11.3007
▁lenovo	-11.302
▁ferrari	-11.302
▁dallas	-11.302
▁heroin	-11.3021
▁trệ	-11.3027
▁lờ	-11.303
▁lén	-11.3048
▁chà	-11.305
▁flc	-11.3062
▁ttvn	-11.3063
▁170	-11.3067
▁nóc	-11.3076
▁wb	-11.3087
▁giáng	-11.31
▁agribank	-11.3103
▁stamford	-11.3103
▁tb	-11.3112
▁fa	-11.3115
es	-11.3121
▁colombia	-11.3124
▁lionel	-11.3124
▁kbc	-11.3125
▁sấu	-11.3145
▁piêu	-11.3145
co	-11.3145
▁crystal	-11.3166
▁thạo	-11.3166
▁nepal	-11.3187
▁unesco	-11.3187
▁liêng	-11.3191
▁hổng	-11.3205
▁bxh	-11.321
▁dè	-11.3218
▁nigeria	-11.3229
▁cesc	-11.3229
▁cành	-11.3235
▁nang	-11.3235
▁diva	-11.3246
▁hường	-11.3251
▁berlin	-11.3253
▁dì	-11.3266
▁motor	-11.3281
▁joe	-11.3282
▁thà	-11.3291
▁app	-11.3314
12	-11.3317
▁ngửa	-11.3335
▁xnk	-11.3356
▁patrick	-11.3357
▁két	-11.3357
▁búa	-11.3358
▁128	-11.336
▁kyo	-11.3388
▁côi	-11.3406
▁lay	-11.3413
▁rùa	-11.3423
▁nêm	-11.3423
▁chớ	-11.3428
▁rã	-11.3434
▁il	-11.3438
▁xòe	-11.3442
▁khốn	-11.3443
▁tx	-11.3448
▁cối	-11.346
▁chướng	-11.3463
▁laser	-11.3464
▁wall	-11.3465
▁got	-11.3469
dautu	-11.3485
▁kền	-11.349
▁kiêng	-11.3527
íu	-11.3537
▁tđc	-11.3548
▁ạt	-11.3553
▁xảo	-11.3554
▁photo	-11.3566
▁vh	-11.3572
▁vksnd	-11.3572
▁nhậm	-11.3572
▁1945	-11.358
▁trói	-11.3594
▁vùi	-11.3596
▁xít	-11.3598
▁murray	-11.3615
▁toát	-11.3616
▁tmcp	-11.3619
▁blind	-11.3637
▁sét	-11.3638
▁chảo	-11.364
▁ầm	-11.3643
▁cưa	-11.3652
▁270	-11.3655
in	-11.366
▁phàn	-11.3668
▁giỏ	-11.3671
▁toan	-11.3681
▁scotland	-11.3681
▁levante	-11.3681
▁nhiễu	-11.3682
▁canon	-11.3685
▁tuyền	-11.3689
▁baghdad	-11.3693
▁ghz	-11.3695
▁bịt	-11.3698
▁techcombank	-11.3703
▁gieo	-11.3704
▁vidal	-11.3704
▁tý	-11.3704
▁lựu	-11.3704
▁bu	-11.3708
▁115	-11.3718
▁alves	-11.3726
▁chiểu	-11.3726
▁vest	-11.3727
▁thuở	-11.3729
▁kon	-11.3734
▁shi	-11.3736
▁shop	-11.3771
▁victoria	-11.3817
▁mp	-11.3827
thương	-11.3841
▁ttck	-11.386
▁re	-11.3879
▁trèo	-11.3882
▁xù	-11.3883
▁like	-11.3903
▁ria	-11.3904
▁halloween	-11.3904
▁hwang	-11.3905
▁simon	-11.3921
▁be	-11.3926
▁mb	-11.3931
vn	-11.3946
▁dubai	-11.395
▁mobile	-11.3953
cc	-11.397
▁courtois	-11.3972
▁penalty	-11.3972
▁hít	-11.3974
▁gt	-11.398
▁zealand	-11.3995
▁marketing	-11.3995
ếm	-11.4
▁pho	-11.4004
▁mobifone	-11.4018
▁venezuela	-11.4018
▁nghẹn	-11.4018
▁tw	-11.4022
▁jin	-11.4029
▁guinea	-11.4041
▁mazda	-11.4042
▁tưới	-11.4042
▁rảnh	-11.4043
▁nhủ	-11.4052
▁đò	-11.4061
▁quấy	-11.4064
▁chói	-11.4066
▁cấn	-11.4067
▁ngụy	-11.4072
▁link	-11.4074
▁nude	-11.4075
▁juan	-11.4087
▁ngó	-11.4094
▁pixel	-11.4108
▁megapixel	-11.4109
▁merkel	-11.4132
▁vietnamnet	-11.4133
▁tttm	-11.4133
▁750	-11.4136
▁saudi	-11.414
▁đũa	-11.4156
▁sờ	-11.4156
▁cu	-11.4161
▁105	-11.417
▁bới	-11.4181
▁sấy	-11.4184
▁blue	-11.4199
▁trổ	-11.4202
▁rầm	-11.4204
▁320	-11.4205
z	-11.4211
▁george	-11.4226
▁ếch	-11.4258
▁sắn	-11.4293
▁giặc	-11.4295
▁sưa	-11.4297
▁ngơ	-11.4308
▁ơ	-11.4309
▁vcci	-11.4319
▁mép	-11.4319
▁1987	-11.4319
▁ron	-11.4326
▁soo	-11.4338
▁herrera	-11.4342
▁quấn	-11.4342
▁xáo	-11.4347
▁ounce	-11.4364
▁day	-11.4365
▁talent	-11.4366
▁hủ	-11.4374
▁dong	-11.4378
▁bú	-11.4386
▁iceland	-11.4389
▁rạn	-11.4395
ro	-11.4404
▁trãi	-11.4413
▁360	-11.4415
▁nq	-11.4421
▁nón	-11.4428
ẫu	-11.4443
▁thy	-11.4443
▁nhtm	-11.4447
▁love	-11.4456
▁đẫm	-11.4461
▁lốc	-11.4462
▁mẹo	-11.4468
▁nhái	-11.4489
▁vòi	-11.449
▁bọ	-11.4507
▁108	-11.4514
▁thun	-11.4525
▁international	-11.4532
▁vờ	-11.4542
▁cnn	-11.4545
▁ktđ	-11.4548
▁ghe	-11.4553
▁getty	-11.4557
▁pu	-11.4571
▁lhp	-11.4576
▁ấu	-11.4581
▁wales	-11.4581
▁watch	-11.4607
▁tom	-11.4616
▁chích	-11.4618
▁estonia	-11.4629
▁khắt	-11.4629
▁robot	-11.4634
▁ka	-11.4656
▁jack	-11.4656
el	-11.4666
▁mah	-11.467
▁bundesliga	-11.4678
▁điềm	-11.4678
▁phác	-11.4679
▁jang	-11.4681
tđt	-11.4686
▁ferguson	-11.4702
▁xy	-11.471
▁andrea	-11.4722
▁quất	-11.4722
▁tbn	-11.4723
▁petrolimex	-11.4726
▁khử	-11.4727
▁chớp	-11.4727
▁chk	-11.473
▁tảo	-11.4734
▁pvs	-11.4738
ấp	-11.475
▁giục	-11.4751
▁doãn	-11.4752
▁hệt	-11.4755
▁ế	-11.4772
le	-11.4776
▁váng	-11.4783
▁toure	-11.4797
▁class	-11.48
▁khoát	-11.48
▁sầm	-11.4802
ẩn	-11.4805
▁quýt	-11.4806
▁ve	-11.4808
▁angel	-11.4812
▁nhằn	-11.4823
▁asus	-11.4825
▁hun	-11.4847
▁kop	-11.4866
▁cày	-11.487
▁190	-11.4888
▁hả	-11.489
▁rỗi	-11.4894
▁airbus	-11.4899
▁gtgt	-11.4899
▁marino	-11.49
▁tum	-11.4902
▁alan	-11.4906
▁phông	-11.4908
▁nhỉ	-11.4918
▁bệ	-11.4919
▁xoài	-11.4949
▁yangon	-11.4949
▁wilshere	-11.4974
▁yemen	-11.4974
▁phiêu	-11.4975
▁chuộc	-11.4975
▁tắn	-11.4999
▁lampard	-11.4999
▁alexis	-11.5
ườm	-11.5006
▁cd	-11.5008
▁đbqh	-11.5025
▁ruồi	-11.5025
▁nhện	-11.5025
▁rơm	-11.5026
▁132	-11.5028
▁bentley	-11.505
▁nsnd	-11.505
▁lười	-11.505
▁dạt	-11.5058
▁bênh	-11.5061
▁bot	-11.5065
▁pham	-11.5065
▁alexander	-11.5075
▁nỉ	-11.5075
▁bikini	-11.5101
▁ngạt	-11.5101
40	-11.5106
▁giơ	-11.5126
▁solo	-11.5132
▁camp	-11.5149
▁cằm	-11.5152
▁kali	-11.5153
▁next	-11.5155
▁taw	-11.5163
ed	-11.5171
▁home	-11.5175
▁azerbaijan	-11.5177
▁manuel	-11.5177
▁nhồi	-11.5177
oc	-11.5189
▁ngời	-11.5194
▁ictnews	-11.5203
▁bit	-11.521
▁royal	-11.5211
man	-11.5223
▁rafael	-11.523
▁steve	-11.5249
▁lẩu	-11.5254
▁hacker	-11.5254
▁1970	-11.5258
▁tua	-11.5259
▁style	-11.5279
▁kroos	-11.528
▁albania	-11.528
▁sergi	-11.5283
▁noo	-11.5283
▁dê	-11.5291
▁thốn	-11.5305
▁dance	-11.5306
▁uae	-11.5307
▁ngẩn	-11.5307
▁green	-11.5321
▁core	-11.533
▁uruguay	-11.5332
▁rót	-11.5346
▁hag	-11.5351
▁nghé	-11.5354
▁bst	-11.5357
▁street	-11.5358
▁sô	-11.5372
▁cs	-11.5382
▁gerrard	-11.5384
▁vá	-11.5384
▁cech	-11.5385
▁pep	-11.5385
▁geun	-11.5395
▁luyến	-11.541
▁chốc	-11.5411
▁cược	-11.5411
▁1981	-11.5411
▁230	-11.5412
▁mít	-11.5415
▁thề	-11.5423
w	-11.5427
▁ngùi	-11.5436
▁justin	-11.5437
▁ỏi	-11.5438
▁sào	-11.5439
▁cafe	-11.5445
▁micro	-11.5461
▁khỉ	-11.5463
▁bluetooth	-11.5463
▁status	-11.5463
▁smart	-11.5464
▁viet	-11.5464
▁full	-11.5487
▁đàng	-11.5498
▁thửa	-11.5502
▁taliban	-11.5516
▁ipo	-11.5516
▁chằng	-11.5516
▁pdf	-11.5516
▁pvd	-11.5529
ắt	-11.5539
▁imac	-11.5542
▁single	-11.5543
▁bọt	-11.5545
▁on	-11.5558
▁hiên	-11.5558
q	-11.5559
▁annabelle	-11.5569
▁xavi	-11.5569
▁dặm	-11.5569
▁acb	-11.5573
▁vnđ	-11.5589
▁nhm	-11.5593
▁concept	-11.5594
▁lugansk	-11.5595
▁mesut	-11.5595
▁đỉa	-11.5596
▁bosque	-11.5596
▁msx	-11.5596
▁moon	-11.5608
▁ngoisao	-11.5622
▁swift	-11.5622
▁1985	-11.5624
▁boeing	-11.5649
▁chậu	-11.5649
▁sà	-11.5655
▁play	-11.5655
▁gmail	-11.5676
▁ramos	-11.5679
▁rễ	-11.5691
▁visa	-11.5701
gareth	-11.5714
▁tòng	-11.5716
▁nhào	-11.5723
▁stress	-11.573
▁oppo	-11.573
▁1983	-11.5733
▁sửu	-11.5744
▁asian	-11.5744
▁kids	-11.5745
▁tủi	-11.5745
▁đao	-11.5757
▁keangnam	-11.5757
th	-11.578
▁sar	-11.5785
▁té	-11.5787
▁nếm	-11.5789
▁ray	-11.5794
14	-11.5803
▁175	-11.5807
▁khoanh	-11.5809
▁it	-11.5816
▁răn	-11.5838
▁cừ	-11.5838
▁aids	-11.584
▁adam	-11.584
▁cúm	-11.5841
▁kẽm	-11.5848
▁210	-11.5858
▁luxembourg	-11.5866
▁juve	-11.5866
▁365	-11.5877
▁tpp	-11.5884
▁vét	-11.589
▁khoắn	-11.5892
ly	-11.5892
▁eibar	-11.5894
▁kẹp	-11.5894
▁1972	-11.5895
▁tgđ	-11.5895
▁hạch	-11.59
▁marco	-11.5903
▁instagram	-11.5921
▁rưỡi	-11.5921
▁sảo	-11.5922
▁thiều	-11.5923
▁ah	-11.5923
350	-11.5939
▁rodriguez	-11.5949
▁mậu	-11.5949
▁chang	-11.596
▁jo	-11.5964
▁khuấy	-11.5967
▁ốp	-11.6005
▁vina	-11.6008
▁fbi	-11.6017
▁kun	-11.6021
▁gđ	-11.6029
▁sturridge	-11.6032
▁điếu	-11.6036
▁2019	-11.6054
▁chris	-11.6056
▁gpmb	-11.6061
▁out	-11.6065
▁giời	-11.6067
▁td	-11.6081
▁white	-11.6084
▁rùng	-11.6088
▁rụi	-11.6088
▁nghiền	-11.6088
▁1978	-11.6094
▁menu	-11.6104
▁ngoặt	-11.6116
▁harry	-11.6118
▁chập	-11.6118
▁line	-11.612
▁zheng	-11.6121
▁xoang	-11.6126
▁gv	-11.6141
▁basel	-11.6142
▁sedan	-11.6145
▁thiền	-11.6145
▁store	-11.6146
no	-11.615
▁ngao	-11.6152
▁tụy	-11.6156
▁lawrence	-11.6173
▁ngắt	-11.6174
son	-11.6174
▁bangkok	-11.6201
▁tro	-11.6202
▁trút	-11.621
▁ko	-11.6218
▁gaza	-11.623
▁rét	-11.6231
▁cội	-11.6238
▁ngóng	-11.6242
▁rợn	-11.626
▁start	-11.6264
▁vec	-11.6265
▁gang	-11.6285
▁chile	-11.6312
▁entertainment	-11.6315
▁porsche	-11.6315
▁lavrov	-11.6315
▁ludogorets	-11.6315
▁café	-11.6315
▁chọi	-11.6315
▁henry	-11.6344
▁angeles	-11.6344
▁lửng	-11.6344
▁cụt	-11.6364
▁103	-11.6369
▁vongfong	-11.6373
ml	-11.6374
▁bầy	-11.6374
▁derby	-11.6402
▁uất	-11.6428
▁saint	-11.6429
▁uefa	-11.6431
▁thiêm	-11.6435
▁hu	-11.6438
▁shaw	-11.6454
▁xoáy	-11.6459
▁nhốt	-11.646
▁mâm	-11.6467
▁bai	-11.6468
▁úp	-11.6473
▁nhả	-11.6483
▁1968	-11.649
▁kình	-11.6491
▁rio	-11.65
▁vung	-11.6502
▁bung	-11.6502
▁bus	-11.6504
▁gl	-11.6504
▁vẫy	-11.6518
▁nung	-11.6523
▁mẩn	-11.6524
▁hanh	-11.6528
▁khố	-11.6531
▁qaeda	-11.6547
▁retina	-11.6547
▁busan	-11.6547
▁brad	-11.655
▁ách	-11.6557
▁súp	-11.6557
▁reo	-11.6564
▁modiano	-11.6577
▁khét	-11.6577
▁malala	-11.6577
▁gật	-11.6577
▁mủ	-11.658
▁vgp	-11.6606
▁650	-11.6609
▁tel	-11.6615
25	-11.6618
ần	-11.6659
▁antt	-11.6671
▁media	-11.6674
ghz	-11.6676
▁đăk	-11.6689
▁lollipop	-11.6695
ta	-11.6699
▁id	-11.6701
▁tkv	-11.6701
▁quí	-11.6707
▁ngứa	-11.6725
▁nhấp	-11.6726
▁dầm	-11.6726
▁shs	-11.6731
pyi	-11.6734
▁thính	-11.6761
▁wang	-11.6765
▁nhai	-11.6774
▁cavani	-11.6785
▁1964	-11.6786
▁nành	-11.6798
ong	-11.6807
▁steven	-11.6811
mg	-11.6811
▁yanbi	-11.6815
▁guardian	-11.6815
▁vuốt	-11.6815
▁scic	-11.6815
▁office	-11.6816
▁yeon	-11.6821
▁phen	-11.6843
▁diesel	-11.6845
▁lùm	-11.6847
▁sòng	-11.6848
▁290	-11.6851
▁135	-11.6873
▁lượn	-11.6874
▁lopez	-11.6876
▁jolie	-11.6876
▁diên	-11.6876
▁ngục	-11.6885
▁tỉa	-11.6893
▁ib	-11.6901
▁bloomberg	-11.6906
▁university	-11.6906
▁anfield	-11.6908
▁then	-11.692
▁vơ	-11.6926
▁102	-11.6934
▁henderson	-11.6936
▁kpop	-11.6937
▁iker	-11.6937
▁vcb	-11.6955
▁vãn	-11.6973
▁modi	-11.6974
▁hen	-11.6996
▁ngấm	-11.6998
▁kelly	-11.6998
▁280	-11.7009
▁tho	-11.7016
▁gắm	-11.7029
▁cameron	-11.7029
▁1979	-11.703
▁khinh	-11.7034
▁muỗng	-11.706
▁chát	-11.706
▁mig	-11.7079
▁tab	-11.7083
▁test	-11.711
▁moskva	-11.7121
▁uzbekistan	-11.7121
▁nghẹt	-11.7121
▁kiếp	-11.7122
▁1960	-11.7125
▁blog	-11.7133
▁htv	-11.7147
▁hc	-11.7148
▁260	-11.7149
▁quyện	-11.7154
▁chạp	-11.7184
▁osce	-11.7184
▁vt	-11.7199
ấn	-11.7209
▁thê	-11.721
▁ngẫm	-11.7215
▁gội	-11.7215
▁lóc	-11.7216
▁ngòi	-11.7219
▁all	-11.7219
▁woo	-11.722
▁bp	-11.7231
▁chat	-11.724
▁ttđb	-11.7247
▁quậy	-11.7278
▁qualcomm	-11.7278
▁xiong	-11.7279
▁mầu	-11.7279
▁break	-11.7279
▁730	-11.7281
▁phà	-11.7289
▁williams	-11.7291
▁cúi	-11.7297
▁richard	-11.7308
▁vụn	-11.7309
▁hđxx	-11.731
▁1971	-11.7311
▁thâu	-11.7313
▁xua	-11.7327
▁dracula	-11.7342
▁ajax	-11.7342
▁124	-11.7352
▁ub	-11.7359
da	-11.7362
▁quẩn	-11.7374
▁trailer	-11.7374
▁touch	-11.7375
▁rán	-11.7377
▁jae	-11.7377
▁ls	-11.7379
▁vơi	-11.7385
hệch	-11.7397
▁vincom	-11.7405
▁brunei	-11.7405
▁dtts	-11.7405
▁brenda	-11.7406
▁vun	-11.7435
▁rượt	-11.7437
▁gộp	-11.7437
▁terry	-11.7441
▁novosti	-11.747
▁bulgaria	-11.747
▁1976	-11.7471
▁101	-11.7476
▁gold	-11.7479
▁109	-11.749
▁lư	-11.7494
▁hart	-11.7499
▁ryan	-11.7501
▁ankara	-11.7503
▁vip	-11.7524
▁áng	-11.7524
▁đái	-11.7529
▁guardiola	-11.7534
▁iniesta	-11.7534
▁junior	-11.7534
▁der	-11.7534
▁johnson	-11.7535
▁river	-11.7544
▁hanoi	-11.7553
▁libya	-11.7567
▁chàm	-11.7576
▁550	-11.7577
▁dr	-11.7582
▁svđ	-11.7585
▁william	-11.7586
▁hãn	-11.7593
▁noi	-11.7593
▁henning	-11.7599
▁cqđt	-11.7599
▁phớt	-11.76
▁104	-11.7607
▁calo	-11.7607
▁mirror	-11.7632
▁1974	-11.7633
▁mương	-11.7633
▁andrew	-11.7634
▁tít	-11.7637
▁át	-11.7639
▁hsg	-11.7639
▁smartwatch	-11.7665
▁giầy	-11.7665
▁cuốc	-11.7665
▁giêng	-11.7667
ậm	-11.7679
▁lon	-11.7699
▁nhảnh	-11.7699
▁suv	-11.7704
▁eun	-11.7709
▁ke	-11.7719
▁koscielny	-11.7731
▁napoli	-11.7731
▁amazon	-11.7731
▁pô	-11.7748
▁cốm	-11.7758
▁express	-11.7765
▁liu	-11.7774
▁lim	-11.7786
▁alonso	-11.7797
▁black	-11.7798
rót	-11.7822
▁suôn	-11.7829
▁south	-11.783
▁christian	-11.783
▁tuột	-11.7833
▁bẩy	-11.7833
▁107	-11.7839
▁time	-11.7844
▁cover	-11.7849
▁vnm	-11.7855
▁đtdđ	-11.7864
▁phồng	-11.7865
▁trồ	-11.7869
▁mao	-11.7893
▁xú	-11.7896
▁hyundai	-11.7897
▁forbes	-11.7897
▁von	-11.7899
▁pen	-11.7924
▁tony	-11.7934
ia	-11.7935
▁andy	-11.7937
▁mỉm	-11.7941
yn	-11.7946
▁nập	-11.7946
▁dragon	-11.7963
▁tỳ	-11.7965
▁tẩm	-11.7967
▁1950	-11.7972
▁yếm	-11.7973
13	-11.7975
▁hờ	-11.7985
▁hk	-11.7988
▁ksnd	-11.799
▁pleiku	-11.7999
▁vertu	-11.7999
▁lẫm	-11.7999
▁ivanovic	-11.7999
▁méo	-11.7999
▁gala	-11.8002
▁blade	-11.8003
▁rơ	-11.8012
▁khẽ	-11.8033
▁chầu	-11.8033
▁cabin	-11.8033
ông	-11.8043
▁carlo	-11.8048
▁serge	-11.8065
▁dí	-11.8066
▁yaya	-11.8068
▁radio	-11.8069
▁mo	-11.8083
▁nou	-11.8083
▁mart	-11.8088
▁jordan	-11.81
▁pyong	-11.8101
▁loét	-11.8101
▁cnht	-11.8102
▁selena	-11.8102
▁tạc	-11.8113
▁nano	-11.8134
▁schalke	-11.8135
▁tass	-11.8136
▁charles	-11.8137
▁voan	-11.8137
▁toa	-11.8168
▁hiddink	-11.817
▁moyes	-11.817
▁taekwondo	-11.817
▁113	-11.8189
▁sacombank	-11.8204
▁hoay	-11.8205
▁body	-11.8205
▁ngu	-11.8216
▁beckham	-11.8239
▁crimea	-11.8239
▁lte	-11.824
▁bầm	-11.8245
▁lã	-11.8246
▁carbon	-11.8273
▁ocean	-11.8274
▁hợi	-11.8274
▁thuột	-11.8283
▁lú	-11.8286
▁ngọ	-11.8297
▁vallecano	-11.8309
▁giăng	-11.8309
▁telegraph	-11.8309
▁sưởi	-11.8309
▁bill	-11.831
▁fashion	-11.831
▁isis	-11.8312
ie	-11.8322
▁sảng	-11.8328
▁106	-11.8339
▁dằn	-11.8342
▁etihad	-11.8344
▁tép	-11.8345
▁anbar	-11.8346
▁đác	-11.8353
▁nissan	-11.8379
▁robben	-11.8379
▁nickname	-11.8379
▁khmer	-11.8379
▁ngách	-11.8381
▁fta	-11.8382
▁cạo	-11.8385
▁xíu	-11.8388
▁chư	-11.8388
▁yonhap	-11.8415
▁đực	-11.8415
▁lầy	-11.8415
▁peru	-11.8416
▁gập	-11.8419
▁đố	-11.8421
▁nhàm	-11.8426
▁sảnh	-11.8428
▁abu	-11.844
▁yang	-11.8447
▁bừa	-11.845
▁croatia	-11.845
▁motorola	-11.845
▁thuyên	-11.845
▁dứa	-11.845
▁1973	-11.8451
▁rê	-11.8469
▁lgbt	-11.8474
ẳng	-11.8483
▁vinalines	-11.8486
▁kts	-11.8494
▁tẻ	-11.8502
▁nách	-11.8522
▁vision	-11.8523
▁1969	-11.8523
▁úng	-11.8525
▁pvc	-11.8531
ts	-11.8532
▁oh	-11.8542
▁dk	-11.8551
▁gạc	-11.8554
▁garcia	-11.8557
▁bvsc	-11.8558
▁kris	-11.8559
▁frank	-11.856
▁chòi	-11.8561
▁house	-11.8562
▁vút	-11.8563
▁dế	-11.8566
▁pr	-11.8571
▁newcastle	-11.8593
▁sỡ	-11.8593
▁business	-11.8593
▁poster	-11.8597
ay	-11.8598
▁pay	-11.8599
▁dẫ	-11.8611
▁phil	-11.8611
▁wei	-11.8613
▁hybrid	-11.8629
▁nhoáng	-11.8629
▁fuso	-11.8629
▁rúng	-11.8632
▁asia	-11.8653
▁ôi	-11.8663
▁loãng	-11.8665
▁sharapova	-11.8665
▁ipu	-11.8666
▁gary	-11.8667
▁fpts	-11.8673
▁ngổ	-11.8674
▁yosemite	-11.8702
▁lady	-11.8702
▁carlos	-11.8704
▁trá	-11.8709
▁nu	-11.8719
▁năn	-11.8738
▁mcnair	-11.8738
▁găng	-11.8739
▁afc	-11.8739
▁iso	-11.8742
▁trọt	-11.8747
▁nghĩnh	-11.8749
▁view	-11.875
▁117	-11.8752
▁ec	-11.8758
▁acid	-11.8771
▁selfie	-11.8773
▁330	-11.8775
▁trặc	-11.8775
▁kremlin	-11.8775
▁ngùng	-11.8775
▁gáy	-11.8775
▁racer	-11.8776
▁moto	-11.8777
▁music	-11.8806
▁củi	-11.8806
▁cholesterol	-11.8812
▁sneijder	-11.8812
▁buồm	-11.8812
▁karatedo	-11.8812
▁icloud	-11.8812
▁xộn	-11.8812
▁sục	-11.8812
▁sp	-11.8824
▁trau	-11.8838
▁tuc	-11.8846
▁lép	-11.8849
▁cuống	-11.8849
hễ	-11.8853
▁chao	-11.8854
ka	-11.886
▁capital	-11.8873
▁đhqg	-11.8886
▁sói	-11.8886
▁kate	-11.8888
▁msn	-11.8888
▁bời	-11.8892
▁pan	-11.8898
▁búi	-11.8903
▁nhẹn	-11.8904
▁nần	-11.8906
▁yo	-11.8907
▁america	-11.8915
▁kitkat	-11.8923
▁wto	-11.8923
▁ppp	-11.8923
▁tcty	-11.8924
▁rada	-11.8934
▁dani	-11.8939
▁chèn	-11.8939
29	-11.8947
▁shin	-11.8953
▁cốp	-11.8953
▁evans	-11.8961
▁băm	-11.8965
▁off	-11.8967
▁hpg	-11.8967
▁ton	-11.897
▁king	-11.8971
▁phách	-11.8976
▁rúp	-11.8978
▁bđkh	-11.8998
▁fanpage	-11.8998
▁totti	-11.8999
▁xước	-11.8999
▁hùm	-11.9001
▁en	-11.9008
▁max	-11.9016
▁central	-11.9036
▁arabia	-11.9036
▁mịt	-11.9036
▁720	-11.9043
▁vôi	-11.905
▁tower	-11.9071
▁assad	-11.9073
▁141	-11.9075
▁sặc	-11.9075
▁pitt	-11.9075
▁eden	-11.9077
16	-11.9079
▁mách	-11.9088
▁thỏ	-11.9092
▁phôi	-11.9099
▁januzaj	-11.9111
▁minsk	-11.9111
▁vặn	-11.9111
▁bt	-11.9112
▁gdđt	-11.9113
▁victor	-11.9123
▁arab	-11.9126
▁độn	-11.9142
▁hodgson	-11.9149
▁triền	-11.9149
▁tiệp	-11.915
▁rt	-11.9166
▁pellegrini	-11.9187
▁thẳm	-11.9187
▁1977	-11.9188
▁chắt	-11.9188
▁nem	-11.9189
▁laurent	-11.9194
ạo	-11.9195
▁tax	-11.9222
▁catwalk	-11.9225
▁xuồng	-11.9226
▁nặc	-11.9227
▁thừng	-11.9229
▁bsc	-11.9229
▁dnnvv	-11.9264
▁angelina	-11.9264
▁hummels	-11.9264
▁sunni	-11.9264
▁kobe	-11.9264
▁điểu	-11.9265
▁atp	-11.9265
▁cồng	-11.9271
24	-11.9278
23	-11.928
▁auto	-11.929
▁global	-11.9303
▁rưng	-11.9303
▁610	-11.9306
▁tct	-11.9334
▁stockholm	-11.9341
▁sá	-11.9369
▁ngo	-11.937
▁thán	-11.9374
▁garden	-11.9378
▁carrick	-11.938
▁athletic	-11.938
▁biden	-11.938
▁vinson	-11.938
▁us	-11.9417
▁podolski	-11.9419
▁pogba	-11.9419
70	-11.9424
▁trẻo	-11.9426
▁que	-11.9427
60	-11.9434
▁cộ	-11.9448
▁mui	-11.9451
▁vinhomes	-11.9458
▁khoét	-11.9459
▁xùm	-11.9469
▁card	-11.9496
▁vatican	-11.9498
▁òa	-11.9498
▁perez	-11.9498
▁165	-11.9498
▁rim	-11.9508
▁andre	-11.9513
▁roi	-11.9519
▁phai	-11.9525
▁đán	-11.9537
▁toefl	-11.9537
▁skype	-11.9537
▁tdtt	-11.9537
▁môtô	-11.9537
▁quây	-11.9537
▁nhét	-11.9553
▁còng	-11.9553
▁make	-11.9561
▁rồ	-11.9561
▁admiralty	-11.9577
▁concert	-11.9577
▁vđqg	-11.9577
gọt	-11.9585
▁114	-11.96
▁seo	-11.9607
▁pe	-11.9608
▁ngừ	-11.961
▁bon	-11.9616
▁cáu	-11.9617
▁yahoo	-11.9617
▁malta	-11.9617
▁sky	-11.9623
▁gp	-11.9638
▁tấc	-11.9659
▁tm	-11.9661
kv	-11.9668
▁baby	-11.9678
▁lb	-11.9678
mel	-11.9678
sor	-11.9685
way	-11.9689
▁best	-11.9693
▁lđbđ	-11.9697
▁compact	-11.9697
▁finals	-11.9697
▁reus	-11.9698
▁gps	-11.97
▁trệt	-11.97
▁1946	-11.97
▁mùng	-11.9703
▁gở	-11.972
▁czech	-11.9737
▁jackson	-11.9737
▁hđh	-11.974
▁ak	-11.9744
▁roger	-11.975
▁gr	-11.975
ộc	-11.9777
▁ducati	-11.9778
▁stoltenberg	-11.9778
▁standard	-11.9778
▁jobs	-11.9778
▁nhúng	-11.978
▁gỉ	-11.9819
▁fernando	-11.9819
▁life	-11.982
▁sop	-11.9828
or	-11.9839
today	-11.9841
▁cb	-11.9843
ner	-11.986
ba	-11.9865
▁mễ	-11.987
▁vít	-11.9885
▁ibrahimovic	-11.99
▁kevin	-11.99
▁serena	-11.9901
▁nạt	-11.9908
▁cc	-11.9929
za	-11.9929
▁127	-11.993
▁desktop	-11.9941
▁xoăn	-11.9941
▁đậy	-11.9941
▁guitar	-11.9941
lb	-11.995
ic	-11.9969
▁116	-11.9975
▁eximbank	-11.9983
▁phablet	-11.9983
▁tirole	-11.9983
▁vinacapital	-11.9983
▁minzy	-11.9983
▁cmnd	-11.9983
▁hormone	-11.9984
▁coupe	-11.9985
▁112	-11.9986
▁vo	-12.0017
▁ken	-12.0026
▁riết	-12.0026
▁dơi	-12.003
▁hắt	-12.0032
▁ibm	-12.0033
▁mia	-12.0034
▁nham	-12.0034
▁bull	-12.0036
▁fans	-12.0039
▁giấm	-12.0066
▁szczesny	-12.0066
▁wta	-12.0066
▁cbre	-12.0066
67	-12.0088
▁143	-12.009
▁cv	-12.0102
▁matic	-12.011
▁1080	-12.0114
▁american	-12.0117
▁club	-12.0121
▁ảm	-12.0129
▁đơ	-12.0142
▁nhổ	-12.0145
▁trơ	-12.0145
▁chrome	-12.015
▁mấu	-12.015
▁vhttdl	-12.015
▁kạn	-12.015
▁xỉu	-12.0156
▁rome	-12.0158
▁dmitr	-12.016
▁vế	-12.0189
▁huawei	-12.0192
▁preview	-12.0192
▁ngoãn	-12.0192
▁shinzo	-12.0192
▁xuyến	-12.0192
▁thặng	-12.0192
▁tyler	-12.0195
▁850	-12.0201
▁high	-12.0218
▁muống	-12.0233
▁chicharito	-12.0234
▁lallana	-12.0234
▁abbott	-12.0234
▁macbook	-12.0234
▁bẹp	-12.0235
huyen	-12.0236
▁chổi	-12.0237
▁208	-12.0241
▁sộ	-12.0258
▁khuynh	-12.0277
▁offline	-12.0277
▁toni	-12.0278
▁nhích	-12.0279
sa	-12.0299
▁sami	-12.0314
▁gớm	-12.032
▁ashley	-12.032
▁hsbc	-12.032
é	-12.032
▁dpr	-12.032
▁inno	-12.0321
▁kcna	-12.0329
▁phunu	-12.0335
▁don	-12.034
▁studio	-12.0361
▁blackett	-12.0362
▁sunderland	-12.0362
▁gram	-12.0363
▁1965	-12.0364
▁data	-12.0377
▁zuckerberg	-12.0406
▁ligue	-12.0406
▁tennis	-12.0406
▁rojo	-12.0406
▁dỏm	-12.0406
▁gone	-12.0411
▁hãnh	-12.0412
▁tuông	-12.0412
▁ắc	-12.042
▁lambert	-12.0426
▁đẽ	-12.0438
▁cpu	-12.0443
▁bịch	-12.0447
▁tòi	-12.0448
▁wraith	-12.0449
▁casino	-12.0449
▁brussels	-12.0449
▁rình	-12.045
▁911	-12.0454
22	-12.0457
46	-12.0468
▁lán	-12.0479
▁tơi	-12.0485
▁145	-12.0488
▁turbo	-12.0489
j	-12.0491
▁hấu	-12.0492
▁oezil	-12.0492
▁ferrer	-12.0492
▁nguyền	-12.0493
▁1966	-12.0494
▁bướm	-12.0494
▁121	-12.0494
▁vna	-12.0505
▁maya	-12.051
ột	-12.0518
▁win	-12.0526
▁fellaini	-12.0536
▁mận	-12.0536
▁dột	-12.0539
▁sọc	-12.0539
▁bảnh	-12.0546
▁khay	-12.0551
▁giẫ	-12.0555
ton	-12.0562
▁mè	-12.0568
▁trĩ	-12.0578
▁evfta	-12.058
▁opera	-12.058
▁chambers	-12.058
▁sủa	-12.0584
▁vks	-12.0601
iêng	-12.0607
▁yen	-12.0619
▁nắn	-12.0622
▁kassig	-12.0624
▁phượt	-12.0624
▁trướng	-12.0624
▁trũng	-12.0624
▁chanel	-12.0624
▁bục	-12.0626
▁tớ	-12.0638
▁830	-12.0644
▁ngói	-12.0645
▁fb	-12.0652
▁ana	-12.0655
▁llvt	-12.0668
▁phantom	-12.0668
▁antonio	-12.0668
▁126	-12.0671
▁ngủi	-12.0678
▁ne	-12.0686
▁sửng	-12.0687
▁by	-12.069
▁ths	-12.0696
▁ju	-12.0707
▁ekip	-12.0713
▁carl	-12.0721
▁conte	-12.0721
▁isco	-12.0724
▁hú	-12.0727
▁cang	-12.0736
ốc	-12.0739
hăm	-12.0743
▁tanh	-12.0748
▁harvard	-12.0757
▁gượng	-12.0757
▁alpha	-12.0757
▁mớ	-12.0759
▁ráng	-12.0762
▁choàng	-12.0762
▁nong	-12.0764
▁roberto	-12.0764
▁thót	-12.0765
▁2025	-12.0766
▁jane	-12.0769
▁gào	-12.078
▁doan	-12.0794
▁nilon	-12.08
▁rover	-12.0801
▁yousafzai	-12.0802
▁huyệt	-12.0803
▁dăm	-12.0804
ri	-12.0806
ya	-12.0826
la	-12.0828
▁marc	-12.0833
▁per	-12.0841
▁at	-12.0845
▁walcott	-12.0847
▁infonet	-12.0847
▁tợn	-12.0848
▁sê	-12.085
▁ander	-12.0851
▁kwon	-12.0852
▁bali	-12.0858
▁dream	-12.0864
▁lẻo	-12.0872
▁beat	-12.0872
▁nhờn	-12.0879
▁nê	-12.0882
▁vat	-12.0888
▁cazorla	-12.0892
▁obuchi	-12.0892
▁vinaphone	-12.0892
▁vhtt	-12.0892
▁giở	-12.0893
▁mẩu	-12.0893
▁xiết	-12.0893
▁tậu	-12.0894
▁càn	-12.0894
▁doji	-12.0899
▁ì	-12.09
▁block	-12.0928
▁vụng	-12.0928
▁155	-12.0933
uýp	-12.0933
▁dđdn	-12.0938
▁tnxp	-12.0938
▁nhòa	-12.0938
▁hugo	-12.0938
▁lcd	-12.0938
▁cahill	-12.0938
▁ứ	-12.0939
mb	-12.0959
▁sl	-12.0968
ếch	-12.0969
▁hon	-12.0969
▁chamberlain	-12.0983
▁ambike	-12.0984
▁savill	-12.0998
▁chài	-12.1007
▁exciter	-12.1029
▁modric	-12.1029
▁vnaccs	-12.1029
▁widodo	-12.1029
▁nnptnt	-12.1031
▁căm	-12.1032
▁mall	-12.1034
▁sanh	-12.1036
▁rậm	-12.1038
iễu	-12.104
ùa	-12.1041
ce	-12.1042
re	-12.1057
100	-12.1073
▁latvia	-12.1075
▁nippon	-12.1075
▁146	-12.1076
▁kiko	-12.1076
▁stephen	-12.1079
▁nhác	-12.1079
▁car	-12.1093
land	-12.1097
▁niu	-12.1102
▁túm	-12.1109
▁131	-12.1115
▁jay	-12.1117
os	-12.112
▁vnexpress	-12.1122
▁kaka	-12.1123
▁111	-12.1125
▁lả	-12.1126
▁đấ	-12.1127
▁petr	-12.1153
▁dãi	-12.1158
▁hằn	-12.1167
▁nhựt	-12.1168
▁ươm	-12.1168
▁tndn	-12.1168
▁awards	-12.1169
▁clasico	-12.1169
▁chước	-12.1169
▁rãnh	-12.1169
▁rayo	-12.1174
uông	-12.1175
▁suông	-12.1175
▁ge	-12.1185
▁ket	-12.1205
▁bành	-12.1207
▁brown	-12.1213
▁krông	-12.1215
▁titan	-12.1215
▁uyển	-12.1216
▁dvd	-12.1218
▁gaga	-12.1239
▁zenfone	-12.1262
▁osaka	-12.1262
▁ramsey	-12.1263
▁hotel	-12.1265
▁tày	-12.1266
▁225	-12.1271
▁pla	-12.1283
▁walk	-12.1284
▁ya	-12.1293
▁đỗi	-12.1297
▁cau	-12.1299
▁piano	-12.1309
▁dát	-12.131
▁daley	-12.1312
18	-12.1313
▁vạt	-12.1313
▁wave	-12.1316
▁michel	-12.1319
▁bch	-12.1325
▁sg	-12.1329
▁rap	-12.1334
▁dau	-12.134
▁chicago	-12.1356
▁erdogan	-12.1356
▁mitsubishi	-12.1356
▁starbucks	-12.1357
▁eurozone	-12.1357
▁journal	-12.1357
▁húc	-12.1358
▁rành	-12.136
▁chạc	-12.14
▁north	-12.1404
▁javier	-12.1404
▁sạp	-12.1404
▁xịn	-12.1405
▁camry	-12.1405
▁bhl	-12.1405
▁cska	-12.1406
▁dẳng	-12.1409
▁bặm	-12.1409
▁caq	-12.1417
▁ngớ	-12.1427
▁japan	-12.1439
▁ngố	-12.1445
▁nơ	-12.1446
▁bql	-12.1452
▁charlie	-12.1452
▁tiếu	-12.1452
▁mekong	-12.1452
▁gear	-12.1455
▁kwh	-12.1455
▁trọc	-12.1458
▁hờn	-12.1459
▁bói	-12.149
▁ngợp	-12.1501
▁beta	-12.1516
▁anz	-12.1516
▁cole	-12.1519
▁cia	-12.1543
▁giroud	-12.1548
▁leicester	-12.1548
▁bvtv	-12.1549
▁lem	-12.1554
is	-12.1556
▁xổ	-12.1556
▁anna	-12.1561
▁phả	-12.1562
▁diêm	-12.1575
▁cưu	-12.1575
▁eur	-12.158
▁xỉn	-12.1588
▁chevrolet	-12.1597
▁pnj	-12.1597
▁vespa	-12.1597
▁francisco	-12.1597
▁kathr	-12.1597
▁vcsc	-12.1597
▁jica	-12.1597
▁sd	-12.1598
▁ntnn	-12.1598
▁lút	-12.16
▁lẳng	-12.16
▁930	-12.16
▁dẫm	-12.1608
▁secret	-12.1646
▁romero	-12.1646
▁altis	-12.1646
▁aec	-12.1649
▁eva	-12.1656
▁xệ	-12.166
▁jens	-12.1661
▁kang	-12.1661
▁nasa	-12.1664
▁lố	-12.1688
ar	-12.169
▁vinacomin	-12.1695
▁art	-12.1695
▁sarah	-12.1698
am	-12.1723
▁ita	-12.1741
▁catalan	-12.1744
▁vccorp	-12.1744
▁varane	-12.1744
▁cvđ	-12.1744
▁silicon	-12.1745
▁rỗng	-12.1746
▁nhuong	-12.1748
án	-12.176
▁122	-12.1782
▁phất	-12.1786
▁hànôịmới	-12.1793
▁sapphire	-12.1793
▁swansea	-12.1793
▁milner	-12.1793
▁byung	-12.1793
▁xèo	-12.1794
▁dìu	-12.1797
▁1967	-12.1798
▁đôla	-12.1799
▁sả	-12.182
▁tì	-12.1833
▁ngạn	-12.184
▁hamilton	-12.1843
▁yasuy	-12.1843
▁chiellini	-12.1844
▁niệu	-12.1844
▁hinh	-12.1847
▁made	-12.1847
▁cvt	-12.1848
mah	-12.1863
▁tru	-12.1875
▁178	-12.1893
▁sevilla	-12.1893
▁stylist	-12.1893
▁sonata	-12.1893
▁vlaar	-12.1893
▁fiorentina	-12.1893
▁1962	-12.1895
▁990	-12.1899
▁tvb	-12.1902
▁hagel	-12.1919
▁tae	-12.1919
ỷ	-12.192
▁bèo	-12.193
▁nhũ	-12.1934
▁mồm	-12.1934
▁vãi	-12.194
▁macedonia	-12.1943
▁okinawa	-12.1943
▁settings	-12.1944
▁smith	-12.1944
▁ttxh	-12.1944
▁arena	-12.1946
▁rát	-12.1946
▁chần	-12.1947
to	-12.1962
▁nao	-12.1969
▁148	-12.1981
▁kp	-12.1985
▁julia	-12.1986
▁omega	-12.1994
▁hotboy	-12.1994
▁vcis	-12.1994
▁615	-12.2003
▁bần	-12.2014
st	-12.2017
47	-12.2021
▁ara	-12.2026
55	-12.2027
▁golden	-12.2033
em	-12.2037
▁nôi	-12.2038
▁amsterdam	-12.2045
▁lucas	-12.2045
▁dhg	-12.2046
▁vỹ	-12.2046
▁xtan	-12.2049
▁ốt	-12.2052
▁christophe	-12.2056
▁câm	-12.2061
▁france	-12.2094
▁bianchi	-12.2096
▁frieden	-12.2096
▁yazidi	-12.2096
▁baines	-12.2096
▁giẽ	-12.2096
▁blđ	-12.2097
▁xóc	-12.2097
▁cook	-12.2097
▁ngớt	-12.2098
▁đùng	-12.21
▁novak	-12.2103
▁cl	-12.2103
▁jorge	-12.2104
▁qng	-12.2104
▁mega	-12.2142
▁uss	-12.2144
▁mendes	-12.2147
▁rapper	-12.2147
▁howard	-12.2147
▁thày	-12.215
▁mg	-12.2151
▁ion	-12.2153
▁lich	-12.2154
▁vâng	-12.2155
▁tba	-12.2156
▁teo	-12.2158
▁sỉ	-12.2165
▁129	-12.2165
▁420	-12.2168
▁phom	-12.2191
▁mĩ	-12.2194
▁anthony	-12.2199
▁matteo	-12.2199
▁hungary	-12.2199
▁185	-12.2199
▁mk	-12.2207
▁power	-12.2209
▁ỉ	-12.2216
▁yong	-12.2239
▁bugatti	-12.225
▁miranda	-12.225
▁edition	-12.225
tv	-12.2251
▁tcm	-12.2255
▁đốm	-12.2259
▁340	-12.2261
▁robin	-12.2278
▁5000	-12.2281
▁jan	-12.2285
▁164	-12.2295
▁bửu	-12.2302
▁mathieu	-12.2302
ễu	-12.2306
▁lin	-12.2308
ây	-12.2311
▁đong	-12.2312
▁thiếp	-12.2348
▁ngút	-12.2355
▁miley	-12.2355
▁point	-12.2357
▁hốc	-12.2366
technical	-12.2369
▁981	-12.2378
▁ten	-12.2383
▁amg	-12.2391
▁vò	-12.2394
ma	-12.2395
ad	-12.2399
▁disney	-12.2407
▁bieber	-12.2408
▁pearl	-12.2408
áo	-12.2408
▁nhuệ	-12.2408
▁coca	-12.2409
▁huyên	-12.2409
▁sán	-12.2412
▁mị	-12.2412
▁kl	-12.2418
▁free	-12.2418
▁kèn	-12.2427
▁trớ	-12.245
▁las	-12.2457
▁grace	-12.246
▁sệt	-12.2461
▁sùi	-12.2462
▁donbass	-12.2462
▁yoo	-12.2464
▁night	-12.2466
▁mbh	-12.2471
▁226	-12.2477
hắc	-12.2482
▁gates	-12.2489
▁queen	-12.2493
▁will	-12.2494
▁blanc	-12.2499
▁chừ	-12.2507
ity	-12.2509
▁ferdinand	-12.2514
▁kawasaki	-12.2514
▁mướn	-12.2514
▁giỗ	-12.2514
▁nathan	-12.2514
▁valley	-12.2514
▁images	-12.2515
ảnh	-12.2515
▁ngốc	-12.2516
▁235	-12.2517
▁308	-12.2518
▁chưng	-12.2521
▁we	-12.2536
▁123	-12.2542
▁xx	-12.2547
▁245	-12.2551
▁670	-12.2551
▁171	-12.2554
ls	-12.2557
erry	-12.2557
ắc	-12.2559
▁boston	-12.2567
▁morning	-12.2567
▁ag	-12.2567
▁tnmt	-12.2568
▁philips	-12.2568
▁muỗi	-12.257
▁ĩ	-12.2572
▁thóc	-12.2573
▁kềnh	-12.258
▁nhá	-12.2582
▁195	-12.2596
▁dow	-12.26
cast	-12.2603
hỉnh	-12.2605
▁health	-12.262
▁catalonia	-12.2621
▁kbnn	-12.2621
▁kntc	-12.2621
▁vồng	-12.2625
11	-12.2629
▁town	-12.2629
370	-12.2629
▁box	-12.2632
▁499	-12.2644
▁xui	-12.2653
▁pt	-12.2655
ck	-12.2658
▁he	-12.2667
▁taka	-12.2668
▁399	-12.2669
▁trứ	-12.2672
▁vần	-12.2674
▁lùn	-12.2675
▁barroso	-12.2675
▁medvedev	-12.2675
▁pirlo	-12.2675
▁rousseff	-12.2675
▁ngượng	-12.2675
▁qltt	-12.2675
▁rêu	-12.2679
▁pelle	-12.2681
▁op	-12.2691
▁hời	-12.2693
uala	-12.271
▁beach	-12.2717
▁xốp	-12.2729
▁hoằng	-12.273
▁trầu	-12.2731
▁gồng	-12.2732
▁total	-12.2733
▁uk	-12.2734
▁check	-12.2738
▁cui	-12.2742
▁480	-12.2743
▁nhô	-12.2744
▁code	-12.2746
▁bốt	-12.275
35	-12.2752
▁wa	-12.2753
iệc	-12.2754
▁sin	-12.2755
▁298	-12.2768
▁đổng	-12.2773
▁drive	-12.2777
▁vinatex	-12.2784
▁denim	-12.2784
▁tróc	-12.2784
▁richter	-12.2784
▁diều	-12.2787
▁đtvn	-12.2789
▁kèo	-12.2791
▁sms	-12.2797
▁1930	-12.2797
ko	-12.2803
▁560	-12.2803
▁249	-12.2832
▁dẻ	-12.2838
▁bitcoin	-12.2839
▁gao	-12.2839
▁éo	-12.284
▁ngáo	-12.284
▁click	-12.284
▁múi	-12.2842
54	-12.2859
▁rose	-12.2875
80	-12.2877
▁cah	-12.2878
▁stoke	-12.2894
▁florida	-12.2894
▁nguôi	-12.2894
▁đú	-12.2894
▁giông	-12.2897
▁bỉnh	-12.2899
▁neil	-12.29
▁húng	-12.2901
ney	-12.2921
▁440	-12.2924
▁berahino	-12.295
▁campbell	-12.295
▁pharma	-12.295
▁gerard	-12.295
do	-12.2956
▁ed	-12.2956
▁xoan	-12.2964
▁general	-12.2973
▁202	-12.2974
▁186	-12.2975
vcb	-12.2988
▁vớ	-12.2993
se	-12.2995
▁khơ	-12.2995
▁tề	-12.2999
▁berdych	-12.3005
▁elizabeth	-12.3005
▁ngửi	-12.3005
▁bgk	-12.3005
▁ngát	-12.3006
▁chội	-12.3007
▁lìa	-12.3007
▁insulin	-12.3008
▁1959	-12.3008
▁gờm	-12.3008
0	-12.3011
▁tía	-12.3012
▁khảm	-12.3015
▁btv	-12.3018
as	-12.302
▁458	-12.3026
▁gio	-12.3037
▁156	-12.3047
▁ultra	-12.3051
nd	-12.3058
▁cienco	-12.3062
▁hđlđ	-12.3062
▁emily	-12.3062
▁dượng	-12.3062
▁kcx	-12.3062
▁moser	-12.3063
▁cnlđ	-12.3063
▁chơn	-12.3064
▁ngót	-12.3066
▁road	-12.3069
▁wu	-12.3071
▁wong	-12.3072
▁think	-12.3088
▁ngải	-12.3093
va	-12.3098
▁390	-12.3099
▁vía	-12.3101
▁crai	-12.3117
▁para	-12.3118
▁scott	-12.3119
▁diết	-12.312
▁pvx	-12.313
▁cỏi	-12.3131
▁india	-12.3135
▁gm	-12.3136
▁133	-12.316
▁802	-12.3162
▁ja	-12.3167
▁sến	-12.3174
▁lexus	-12.3175
▁tót	-12.3176
▁sungmin	-12.3176
▁miller	-12.3177
▁rợ	-12.3178
▁travel	-12.3179
▁nhối	-12.3181
▁brent	-12.3194
▁kv	-12.3199
▁gióng	-12.3203
▁rông	-12.3206
▁inc	-12.3211
▁dell	-12.3218
▁yg	-12.3232
itar	-12.3232
▁cưỡi	-12.3232
▁frankfurt	-12.3232
▁giggs	-12.3232
▁kardashian	-12.3232
▁ruby	-12.3232
▁qp	-12.3246
achim	-12.3259
▁412	-12.3259
▁thoi	-12.3261
▁152	-12.3264
▁dv	-12.3271
ủa	-12.328
▁luhansk	-12.3289
▁apache	-12.329
▁lhtn	-12.329
▁panasonic	-12.329
▁yasukuni	-12.329
▁khùng	-12.329
▁gym	-12.329
▁somalia	-12.3291
▁thiago	-12.3291
▁hớ	-12.3308
▁núp	-12.3309
▁chau	-12.3315
▁ree	-12.3315
▁salad	-12.3319
▁om	-12.332
▁cằn	-12.3331
▁fox	-12.334
▁bềnh	-12.3341
▁lượm	-12.3347
▁maximark	-12.3347
▁jeff	-12.3347
▁thét	-12.3348
▁paik	-12.3348
▁mướt	-12.3348
▁verona	-12.3348
▁ips	-12.335
▁joon	-12.335
▁đày	-12.3364
▁carrie	-12.3374
▁hê	-12.3379
▁lì	-12.3393
▁hổi	-12.3393
▁national	-12.3403
▁francis	-12.3405
▁civic	-12.3406
▁vinamilk	-12.3406
▁toshiba	-12.3406
▁lumpur	-12.3406
▁delhi	-12.3406
▁ngợm	-12.3406
▁hẫng	-12.3406
▁bưng	-12.3407
▁fax	-12.3408
▁short	-12.3412
▁rahee	-12.3412
▁roja	-12.3412
▁vlad	-12.3412
▁thong	-12.3416
▁ó	-12.3421
▁quàng	-12.3444
et	-12.3452
▁ắp	-12.3458
▁299	-12.346
▁kangaroo	-12.3464
▁lewandowski	-12.3464
▁bosnia	-12.3464
▁formosa	-12.3464
▁viktor	-12.3464
▁glass	-12.3465
▁rầu	-12.3465
▁rocket	-12.3466
▁mích	-12.3467
▁1953	-12.3467
▁cộm	-12.3473
▁215	-12.3484
▁jp	-12.3491
▁sò	-12.3513
▁sụn	-12.3518
▁biếng	-12.3521
▁crop	-12.3523
▁senkaku	-12.3523
▁snapchat	-12.3523
▁jazz	-12.3523
▁flamini	-12.3523
▁quặc	-12.3523
▁bỡ	-12.3523
▁guốc	-12.3523
▁xiêu	-12.3523
▁leung	-12.3524
▁qlda	-12.3524
▁kén	-12.3525
▁latinh	-12.3525
▁tpbank	-12.3528
▁vin	-12.3537
▁hh	-12.3578
▁cnvclđ	-12.3582
▁ibaraki	-12.3582
▁strootman	-12.3582
▁airways	-12.3582
▁insider	-12.3582
▁garage	-12.3582
▁adb	-12.3583
▁vnmedia	-12.3583
▁logic	-12.3583
05	-12.3584
▁ló	-12.3586
▁1900	-12.3589
83	-12.3596
▁sol	-12.3616
▁pi	-12.3621
▁hởi	-12.3625
▁phồn	-12.364
▁nestlé	-12.3642
▁pvcombank	-12.3642
▁phanfone	-12.3642
▁cherry	-12.3643
▁dĩnh	-12.3646
▁joo	-12.3647
▁sải	-12.366
▁bb	-12.366
▁hill	-12.3664
▁eps	-12.3667
ụt	-12.3684
▁142	-12.3698
▁cặn	-12.3702
▁alba	-12.371
▁hae	-12.3713
▁lens	-12.3713
34	-12.3718
▁thỏi	-12.3719
▁râm	-12.3721
▁134	-12.3728
▁tễ	-12.3733
▁low	-12.3737
▁vib	-12.375
▁edward	-12.376
▁660	-12.376
▁presbyterian	-12.3762
▁xiếc	-12.3762
▁little	-12.3762
▁sùng	-12.3762
▁118	-12.3763
▁danang	-12.3764
▁1949	-12.3765
▁vp	-12.3775
▁rain	-12.3791
▁cut	-12.3797
▁ia	-12.3802
▁310	-12.3803
▁bợ	-12.3807
▁abc	-12.3821
▁margin	-12.3822
▁project	-12.3822
▁baltic	-12.3822
▁neuer	-12.3822
▁siberia	-12.3822
▁xhtt	-12.3822
▁macau	-12.3823
▁ailen	-12.3823
▁blogger	-12.3827
▁hỷ	-12.3828
▁chiêng	-12.3831
▁ppi	-12.3832
▁430	-12.3846
▁romania	-12.3847
▁hall	-12.3852
go	-12.3853
itco	-12.3868
▁630	-12.387
▁sững	-12.3883
▁gỏi	-12.3883
▁luxury	-12.3884
▁múc	-12.3884
▁nấc	-12.3885
▁epa	-12.3886
sen	-12.3887
▁205	-12.3897
▁usa	-12.3901
92	-12.3902
▁đóa	-12.3915
▁nhớt	-12.3919
▁mike	-12.3939
▁kata	-12.394
▁viglacera	-12.3945
▁vênh	-12.3945
▁morgan	-12.3945
▁ngầu	-12.3945
▁comment	-12.3945
▁nheo	-12.3945
▁kkt	-12.3947
tags	-12.3954
▁rôm	-12.3955
at	-12.3956
▁370	-12.3961
▁nv	-12.3973
▁ye	-12.3973
▁jun	-12.3979
▁dimitrov	-12.3979
▁ming	-12.398
▁lấ	-12.399
sky	-12.3993
▁matt	-12.3999
▁999	-12.4005
▁sur	-12.4005
▁dropbox	-12.4006
▁espanyol	-12.4006
▁marcelo	-12.4007
▁zhang	-12.4007
▁sẫm	-12.4007
▁lợp	-12.4007
▁xói	-12.401
▁dan	-12.4013
▁rèm	-12.4014
▁sần	-12.4016
▁3008	-12.4024
▁8002	-12.4032
▁kdc	-12.4039
▁trợn	-12.4042
idol	-12.4049
▁tc	-12.405
▁136	-12.4064
▁mic	-12.4067
▁ballad	-12.4068
▁gplx	-12.4068
▁ltd	-12.4069
▁hẻo	-12.407
▁paper	-12.407
▁hol	-12.407
▁tpcp	-12.4071
▁ố	-12.4078
▁bush	-12.4079
▁book	-12.4081
▁lồi	-12.4084
▁052	-12.4092
ov	-12.4099
ms	-12.4107
▁3000	-12.4111
▁bùa	-12.4112
▁corp	-12.4114
li	-12.4118
▁ok	-12.412
▁karim	-12.4124
▁hernandez	-12.4131
▁lithium	-12.4131
▁toulouse	-12.4131
▁chocolate	-12.4131
▁nhỡ	-12.4131
▁pierson	-12.4131
▁size	-12.4132
▁cookies	-12.4132
▁soái	-12.4134
▁vata	-12.4136
▁master	-12.4139
▁nấp	-12.4141
▁dùi	-12.4144
▁wan	-12.4146
▁508	-12.4166
▁phui	-12.4172
▁ndt	-12.4173
ca	-12.4179
▁380	-12.4192
▁himalaya	-12.4192
▁gazprom	-12.4194
▁microsd	-12.4194
▁hdbank	-12.4194
▁chuốt	-12.4194
▁tiin	-12.4195
▁lịm	-12.4195
▁1961	-12.4196
▁bolivia	-12.4198
▁hấn	-12.4203
▁https	-12.4205
▁truất	-12.4206
▁080	-12.4208
▁248	-12.4208
▁bvh	-12.4229
ct	-12.4233
▁168	-12.4243
tt	-12.4244
▁po	-12.4248
▁nặn	-12.4255
▁bướu	-12.4257
▁oktoberfest	-12.4257
▁bremen	-12.4257
▁dailymail	-12.4257
▁valdes	-12.4257
▁amber	-12.4257
▁nfc	-12.4258
um	-12.4259
▁chảnh	-12.4259
200	-12.426
▁tã	-12.4263
▁sáo	-12.4265
▁162	-12.4282
▁hũ	-12.4306
▁ck	-12.4315
ơ	-12.4319
▁ổi	-12.4319
▁takumi	-12.4321
▁vanuatu	-12.4321
▁scmp	-12.4321
▁becks	-12.4321
▁rục	-12.4322
▁đna	-12.4324
▁mpx	-12.4327
▁dỗi	-12.433
ino	-12.4341
est	-12.4341
▁khóm	-12.4353
▁hop	-12.4371
▁176	-12.4373
▁khít	-12.4377
99	-12.4379
▁chưởng	-12.4385
▁hawaii	-12.4386
▁kesha	-12.4386
▁nháy	-12.4387
ti	-12.4389
▁giàng	-12.4392
▁hới	-12.4399
▁801	-12.4415
▁dunga	-12.4423
▁dha	-12.4434
▁sports	-12.4436
▁te	-12.4446
▁pacific	-12.4449
▁kyoto	-12.445
▁gù	-12.445
▁santos	-12.4451
▁mịch	-12.4451
▁haivl	-12.4451
▁vama	-12.4451
▁săm	-12.4453
▁gts	-12.446
▁đb	-12.446
▁ad	-12.4462
▁congo	-12.4483
me	-12.4484
▁sma	-12.4494
▁cola	-12.4494
▁tđ	-12.4498
ước	-12.4506
▁sara	-12.4514
▁ielts	-12.4514
▁billboard	-12.4514
▁mikel	-12.4515
▁nẻo	-12.4517
▁jr	-12.4517
▁ctv	-12.4522
▁nạc	-12.4523
ion	-12.4529
▁eos	-12.453
đtv	-12.4531
▁161	-12.4536
▁mode	-12.4544
▁koke	-12.4544
▁275	-12.4551
ho	-12.4562
▁milo	-12.4569
▁tuất	-12.4577
▁pedro	-12.458
▁marseille	-12.458
▁qbv	-12.458
▁gomez	-12.458
▁đằm	-12.458
▁opmart	-12.4581
▁chột	-12.4581
▁vxl	-12.4581
▁toái	-12.4584
▁khỉnh	-12.4586
▁bết	-12.4601
▁chae	-12.4602
▁líu	-12.4607
▁lock	-12.4614
▁255	-12.462
▁138	-12.4622
▁777	-12.4624
▁lyon	-12.4624
▁step	-12.4631
63	-12.4642
▁nghê	-12.4644
▁draxler	-12.4645
▁sassuolo	-12.4645
▁renzi	-12.4646
▁html	-12.4646
▁toản	-12.4646
▁sakai	-12.4646
▁lđlđvn	-12.4646
ể	-12.4647
▁khế	-12.4647
▁tuồng	-12.4647
ải	-12.465
▁audio	-12.4653
▁org	-12.4664
▁vụt	-12.4667
▁805	-12.4669
▁thuấn	-12.4669
▁324	-12.4669
▁artur	-12.4673
▁bịa	-12.4684
ley	-12.4687
hr	-12.4692
▁ali	-12.4693
▁950	-12.47
▁adrian	-12.4712
▁mướp	-12.4712
▁christine	-12.4712
▁harper	-12.4712
▁aeon	-12.4712
▁lđtbxh	-12.4712
▁ngạo	-12.4714
▁phình	-12.4715
orussia	-12.4718
▁580	-12.4731
▁199	-12.4753
▁183	-12.4777
▁coutinho	-12.4778
▁hattrick	-12.4778
▁satyarthi	-12.4778
▁fashionista	-12.4778
▁arteta	-12.4778
▁gameshow	-12.4779
▁kiền	-12.4779
▁bđg	-12.478
▁chun	-12.478
▁gpu	-12.4781
▁1963	-12.4782
▁xii	-12.4783
▁ey	-12.4784
hạnh	-12.479
▁tủy	-12.479
▁duẩn	-12.4792
▁ù	-12.4796
▁hiu	-12.4799
▁gara	-12.4799
▁149	-12.4802
gr	-12.4811
▁gil	-12.4822
▁tevez	-12.4845
▁senegal	-12.4846
▁cafeland	-12.4846
▁ksd	-12.4846
▁sporting	-12.4846
▁1947	-12.4851
▁bệt	-12.4851
icente	-12.4873
pe	-12.4886
▁157	-12.4886
▁gạ	-12.4894
2014	-12.4904
▁oán	-12.491
▁luồn	-12.4911
▁ninja	-12.4913
▁jamie	-12.4913
▁volkswagen	-12.4913
▁attp	-12.4913
▁trầ	-12.4928
▁amy	-12.4939
ki	-12.4946
▁stefan	-12.4954
▁590	-12.4965
▁lỏ	-12.4966
ff	-12.4969
▁bở	-12.4975
▁139	-12.4979
ầm	-12.4979
▁hamburg	-12.4981
▁lloris	-12.4981
▁vắcxin	-12.4981
▁upcom	-12.4981
▁ngẩm	-12.4982
▁cadie	-12.4983
▁evo	-12.4983
▁bashar	-12.4984
▁nọc	-12.4986
▁back	-12.4987
▁highlight	-12.4988
▁team	-12.499
▁hòm	-12.499
▁thỏm	-12.4992
▁ói	-12.4994
▁ip	-12.4995
▁sina	-12.5001
▁vén	-12.5016
▁quầng	-12.5017
▁crown	-12.5028
▁huê	-12.503
▁ivan	-12.503
▁ht	-12.5032
▁389	-12.5046
▁dền	-12.5047
▁lẻn	-12.5047
▁nhún	-12.5049
▁mertesacker	-12.505
▁hực	-12.505
▁giun	-12.5051
▁hèn	-12.5051
▁lăm	-12.5051
▁chày	-12.5054
▁sạm	-12.5054
▁key	-12.5062
▁gon	-12.5068
▁599	-12.5068
52	-12.5087
▁tk	-12.5102
▁890	-12.5107
▁with	-12.5114
nt	-12.5115
hoạt	-12.5116
▁bravo	-12.5119
▁orion	-12.5119
▁nhúc	-12.5119
de	-12.512
▁rít	-12.5123
▁óng	-12.5129
ằng	-12.5131
▁khcn	-12.5145
▁girls	-12.5145
▁đanh	-12.5155
▁hui	-12.5162
▁fire	-12.5187
▁chuck	-12.5188
▁veyron	-12.5188
▁điếc	-12.5188
▁raqqa	-12.5188
▁quẩy	-12.5188
▁hươu	-12.5188
▁vừng	-12.5189
▁lình	-12.5189
▁cật	-12.519
▁nệm	-12.519
▁mrcc	-12.519
▁sergey	-12.5192
▁cừu	-12.5192
▁thớt	-12.5193
▁lóng	-12.5194
▁mary	-12.5195
▁265	-12.5198
ium	-12.52
▁phàm	-12.5201
▁nnt	-12.5212
▁soc	-12.5214
▁ừ	-12.5217
▁ttgt	-12.5236
▁ns	-12.5237
▁119	-12.5237
▁rú	-12.5239
▁mó	-12.5242
▁lừ	-12.5251
▁nẻ	-12.5258
▁hongkong	-12.5258
▁huntelaar	-12.5258
▁blazer	-12.5258
▁jason	-12.5258
▁vựa	-12.5258
▁nhút	-12.5259
▁1958	-12.526
▁1956	-12.526
▁cpi	-12.5261
▁153	-12.5263
▁adn	-12.5263
▁héc	-12.5263
▁hsx	-12.5263
▁event	-12.5264
▁lhpn	-12.5272
▁mats	-12.5273
▁suk	-12.5281
▁hỉnh	-12.5281
▁tran	-12.5289
▁loang	-12.5293
▁lane	-12.5296
tr	-12.5324
ến	-12.5325
vf	-12.5325
▁tehran	-12.5328
▁raymond	-12.5328
▁itunes	-12.5328
▁austin	-12.5329
▁mửa	-12.5329
▁banking	-12.5334
▁this	-12.5336
▁emma	-12.5342
68	-12.5347
▁nháo	-12.5349
▁yoon	-12.5361
te	-12.5371
▁rè	-12.5374
▁dụm	-12.5386
▁mila	-12.5388
▁tag	-12.5394
▁jim	-12.5398
▁mignolet	-12.5399
▁stuttgart	-12.5399
▁quẹt	-12.5399
▁ama	-12.5399
▁hitler	-12.5399
▁nicolas	-12.54
▁bậy	-12.54
▁tomas	-12.5401
▁oman	-12.5402
▁đờn	-12.5402
▁ny	-12.5403
▁buk	-12.5406
▁thx	-12.541
▁hero	-12.5415
▁144	-12.5417
▁icon	-12.5466
ga	-12.547
▁dempsey	-12.5471
▁tmđt	-12.5471
▁deportivo	-12.5471
▁blancos	-12.5471
▁luiz	-12.5472
▁bctc	-12.5472
▁pepe	-12.5473
▁baden	-12.5476
▁abs	-12.5479
▁bvs	-12.5488
▁rôn	-12.5492
▁yu	-12.5494
▁au	-12.5507
▁hari	-12.552
nm	-12.5525
ey	-12.5527
ex	-12.5529
▁benjamin	-12.5543
▁drogba	-12.5543
▁leverkusen	-12.5543
▁taeyeon	-12.5543
▁rcz	-12.5543
▁navas	-12.5543
▁allen	-12.5543
▁georgia	-12.5543
▁goal	-12.5543
▁giễu	-12.5545
▁xéo	-12.5548
ur	-12.5551
▁vios	-12.5552
▁anne	-12.5562
so	-12.5563
▁jen	-12.5571
▁gov	-12.5574
▁vol	-12.5575
▁mou	-12.5583
▁209	-12.5587
uổi	-12.5598
▁phốt	-12.5607
▁lằn	-12.5609
▁ds	-12.5614
▁alaska	-12.5615
▁armenia	-12.5615
▁germain	-12.5615
▁nasdaq	-12.5615
▁schurrle	-12.5615
▁suboi	-12.5615
▁biếu	-12.5615
▁samud	-12.5615
▁europa	-12.5616
▁phiệt	-12.5616
▁uav	-12.5617
▁234	-12.5617
▁phào	-12.5618
hqs	-12.562
▁ivy	-12.5621
▁ace	-12.5623
▁mbs	-12.5623
▁sc	-12.5626
set	-12.5633
ron	-12.5639
▁1920	-12.5641
▁204	-12.5652
▁or	-12.5661
▁design	-12.5673
▁hermès	-12.5688
▁vietgap	-12.5688
▁bangladesh	-12.5688
▁cooper	-12.5688
▁vienna	-12.5688
▁dặt	-12.5689
▁boots	-12.569
▁francois	-12.5691
▁nuột	-12.5691
▁cnch	-12.5692
▁hsc	-12.5696
▁ivs	-12.5697
▁nbc	-12.57
▁nộm	-12.5713
▁256	-12.5729
▁kb	-12.5734
mi	-12.5739
dier	-12.5747
▁morales	-12.5762
▁peskov	-12.5762
▁aaron	-12.5762
▁carrera	-12.5762
▁sctv	-12.5762
▁joseph	-12.5762
▁kenya	-12.5762
▁sticker	-12.5763
▁phiện	-12.5763
▁pkk	-12.5765
▁490	-12.5772
▁pá	-12.5777
▁phàng	-12.578
▁192	-12.5781
ac	-12.5784
▁880	-12.5786
▁vãng	-12.5799
27	-12.5804
▁vồ	-12.5826
▁motors	-12.5829
▁137	-12.5832
▁catalunya	-12.5836
▁corolla	-12.5836
▁nutifood	-12.5836
▁yểm	-12.5836
▁cardigan	-12.5836
▁manila	-12.5836
▁cbcs	-12.5836
▁leonardo	-12.5836
▁bauxite	-12.5836
▁gcn	-12.5837
▁sảy	-12.5837
▁viii	-12.5838
▁apec	-12.5838
▁nba	-12.5844
▁cbcnv	-12.5845
▁305	-12.5853
▁mào	-12.5867
▁pak	-12.5875
90	-12.5878
▁roman	-12.5894
▁158	-12.5902
rby	-12.5904
▁iris	-12.5907
▁mayweather	-12.591
▁wikipedia	-12.591
▁luống	-12.591
▁benelli	-12.591
▁happy	-12.5911
▁muller	-12.5911
▁pizza	-12.5911
▁náu	-12.5911
▁tiki	-12.5913
▁today	-12.5944
49	-12.595
▁great	-12.5963
▁050	-12.5965
▁bel	-12.597
lan	-12.5972
▁ce	-12.5973
▁lẽo	-12.598
▁mcdonald	-12.5984
▁hiphop	-12.5986
▁nvidia	-12.5986
▁yatsenyuk	-12.5986
▁simeone	-12.5986
▁bruce	-12.5986
▁electronics	-12.5986
▁hunter	-12.5987
▁nậu	-12.5987
▁khiêng	-12.5988
▁mls	-12.5994
▁fe	-12.5998
▁idc	-12.6022
▁ps	-12.6023
▁385	-12.6039
▁bổn	-12.6058
▁kashmir	-12.6061
▁mohamed	-12.6061
▁nishikori	-12.6061
▁phũ	-12.6061
▁nouvo	-12.6062
▁xwb	-12.6062
▁school	-12.6062
▁mọng	-12.6064
▁atc	-12.6065
▁xỏ	-12.6065
▁daniela	-12.6068
▁safari	-12.6069
▁nín	-12.607
86	-12.6071
be	-12.6073
▁bấ	-12.6078
▁ice	-12.6083
▁lác	-12.6099
▁good	-12.6104
▁825	-12.6108
▁find	-12.6116
▁460	-12.612
▁want	-12.6127
▁221	-12.6128
▁luông	-12.6129
▁vietstock	-12.6134
▁càphê	-12.6138
▁jakarta	-12.6138
▁vuitton	-12.6138
▁đhđcđ	-12.6138
▁burnley	-12.6138
▁eriksen	-12.6138
▁ubtvqh	-12.6138
▁geneva	-12.6138
▁cđcs	-12.6138
▁zarra	-12.6138
▁philippe	-12.6138
▁ihi	-12.6139
▁thướt	-12.6139
▁xình	-12.6139
▁nbb	-12.6139
▁cause	-12.614
▁hững	-12.6141
▁bird	-12.6164
▁1955	-12.6166
▁sana	-12.617
▁saga	-12.6184
▁format	-12.6197
di	-12.621
▁hussein	-12.6215
▁ắng	-12.6215
▁tthc	-12.6215
▁hollande	-12.6215
▁pastel	-12.6215
▁rosberg	-12.6215
▁beauty	-12.6215
▁187	-12.6222
26	-12.6222
▁jon	-12.6231
ss	-12.6233
▁223	-12.624
▁dơ	-12.6242
▁mw	-12.6243
▁yi	-12.6254
▁trịa	-12.6259
lin	-12.6267
▁giỡn	-12.6292
▁kvitova	-12.6292
▁malacca	-12.6292
▁sấm	-12.6292
▁chartered	-12.6292
▁busquets	-12.6292
▁feet	-12.6292
▁ngưởng	-12.6292
▁moóc	-12.6294
▁hack	-12.6296
▁tsn	-12.6298
▁yuri	-12.6306
▁nua	-12.6318
▁hí	-12.6324
▁raul	-12.6327
hừng	-12.6329
1000	-12.6334
haco	-12.6357
▁mariah	-12.6358
▁rốn	-12.6368
▁walter	-12.6368
▁ft	-12.6369
▁miến	-12.6369
▁201	-12.637
▁benfica	-12.637
▁handmade	-12.637
▁gibbs	-12.637
▁onecontact	-12.637
▁nết	-12.6371
▁xới	-12.6371
▁ạch	-12.6372
▁mút	-12.6374
▁fao	-12.6375
▁eyes	-12.6378
▁jonatha	-12.6379
▁151	-12.6383
▁thệ	-12.6385
▁psak	-12.6392
▁hip	-12.6401
▁đù	-12.6425
▁620	-12.6438
▁chuồn	-12.6447
▁lisbon	-12.6449
▁vẹo	-12.6449
▁hkbike	-12.6449
▁mosul	-12.6449
▁joko	-12.6449
▁xiaomi	-12.6449
▁natri	-12.6449
▁lahm	-12.6449
▁hvg	-12.645
hóm	-12.645
▁duệ	-12.6451
▁vr	-12.6461
▁nghén	-12.6463
▁vánh	-12.647
▁fair	-12.6471
▁đản	-12.6472
▁porto	-12.6473
▁925	-12.6479
▁213	-12.6486
▁đát	-12.6513
▁classic	-12.6515
▁690	-12.652
▁ngông	-12.6526
▁nghè	-12.6527
▁mclaren	-12.6528
▁shihao	-12.6528
▁cnbc	-12.6528
▁teresa	-12.6528
▁sxkd	-12.6528
▁sirius	-12.6529
▁lily	-12.6529
▁ypg	-12.653
▁malaga	-12.6532
▁nhấm	-12.6533
▁237	-12.6535
▁jonas	-12.6543
▁gel	-12.6558
▁end	-12.6561
▁khàn	-12.6561
▁232	-12.6565
▁esp	-12.6572
▁fu	-12.6581
▁bít	-12.6589
▁lự	-12.659
▁nakamura	-12.6608
▁vinpearl	-12.6608
▁lđtb	-12.6608
▁seabank	-12.6608
▁revolution	-12.6608
▁neves	-12.6609
▁credit	-12.6609
▁vinashin	-12.6609
▁trề	-12.661
den	-12.661
▁doping	-12.6613
mizu	-12.6614
▁1940	-12.6619
▁218	-12.6619
51	-12.6624
▁talk	-12.6629
lo	-12.6638
▁325	-12.664
▁tie	-12.6646
▁pg	-12.6647
▁246	-12.6655
▁sxh	-12.6656
▁520	-12.6661
▁pad	-12.6663
▁are	-12.6666
▁đay	-12.6673
ary	-12.6686
▁vắn	-12.6687
▁krystal	-12.6689
▁sociedad	-12.6689
▁boxing	-12.6689
▁shopping	-12.6689
▁dậu	-12.669
▁gdck	-12.669
▁loew	-12.669
▁loát	-12.669
▁stop	-12.6691
▁control	-12.6692
▁hqc	-12.6693
ù	-12.6693
▁nsa	-12.6697
fi	-12.67
dong	-12.67
ssel	-12.6701
up	-12.6704
▁phích	-12.6712
▁bả	-12.6719
▁mon	-12.6726
▁sú	-12.6735
▁xiên	-12.6742
▁gán	-12.6753
vnđ	-12.6754
▁470	-12.6759
▁cứa	-12.6764
▁xhcn	-12.6765
▁estrogen	-12.677
▁wuerttemberg	-12.677
▁england	-12.677
▁melbourne	-12.677
▁đươc	-12.677
▁snowden	-12.677
▁ubkt	-12.677
▁vettel	-12.677
▁villarreal	-12.677
▁phăng	-12.6771
▁chôm	-12.6771
▁eid	-12.6771
▁shiite	-12.6771
▁hindu	-12.6772
▁636	-12.6772
▁acv	-12.6774
▁family	-12.6774
▁ccb	-12.6775
▁trụi	-12.6788
▁harris	-12.6788
▁valeri	-12.679
ke	-12.6796
▁thơi	-12.6802
▁piề	-12.6811
ano	-12.6834
▁olivi	-12.6847
▁vè	-12.6852
▁ecuador	-12.6852
▁funring	-12.6852
▁lithuania	-12.6852
▁tardelli	-12.6852
▁buffon	-12.6852
▁claire	-12.6852
▁ppc	-12.6853
▁hilton	-12.6853
▁harley	-12.6853
▁xabi	-12.6854
▁iron	-12.6854
▁week	-12.6856
▁vcg	-12.6857
▁salon	-12.6859
▁randy	-12.6862
▁184	-12.6863
▁172	-12.6864
▁narend	-12.6869
▁181	-12.6896
▁182	-12.6913
ine	-12.692
▁atlanta	-12.6935
▁horizon	-12.6935
▁kailash	-12.6935
▁thẹn	-12.6935
▁yanukovych	-12.6935
▁mastercard	-12.6935
▁torres	-12.6935
▁fit	-12.6935
▁ebay	-12.6935
▁guinness	-12.6935
▁sabah	-12.6935
▁telecom	-12.6936
▁aveo	-12.6936
▁newton	-12.6936
▁ssd	-12.6937
▁1944	-12.6937
▁ipod	-12.6937
▁sofa	-12.6939
▁sharp	-12.694
▁nhăng	-12.6945
▁player	-12.6947
▁brian	-12.695
▁care	-12.6953
▁kit	-12.696
tor	-12.696
▁that	-12.6968
yip	-12.6969
▁xp	-12.697
▁251	-12.6973
▁thía	-12.6976
star	-12.6979
▁siri	-12.6982
▁tone	-12.6985
▁bc	-12.6991
▁khóe	-12.7015
▁word	-12.7017
▁monsoon	-12.7018
▁untold	-12.7018
▁igor	-12.7018
▁94301	-12.7018
▁vpbank	-12.7018
▁vogue	-12.7019
▁fury	-12.7019
▁room	-12.7027
▁alumin	-12.7036
▁veo	-12.704
▁bính	-12.704
▁214	-12.7046
tb	-12.7048
▁hù	-12.7055
▁nôm	-12.706
▁188	-12.7071
cg	-12.7076
▁570	-12.7079
▁ml	-12.709
▁nhạ	-12.7095
▁dũ	-12.7098
▁gả	-12.7099
▁number	-12.71
74	-12.7102
▁lewis	-12.7102
▁slovenia	-12.7102
▁blhs	-12.7102
▁bulger	-12.7102
▁limited	-12.7102
▁weibo	-12.7102
▁phèo	-12.7102
▁spurs	-12.7102
▁cilic	-12.7103
▁nòi	-12.7103
▁gút	-12.7103
▁rìa	-12.7103
▁tằm	-12.7105
▁242	-12.7111
▁midi	-12.7112
▁241	-12.7125
illy	-12.7147
▁chef	-12.715
▁oi	-12.7172
gi	-12.7173
ll	-12.7178
▁xd	-12.7179
▁đáu	-12.7185
▁melanie	-12.7187
▁rakitic	-12.7187
▁methadone	-12.7187
▁ubmttq	-12.7187
▁bobby	-12.7187
▁martinez	-12.7187
▁katy	-12.7187
▁paolo	-12.7187
▁chievo	-12.7187
▁hênh	-12.719
▁hạc	-12.7191
▁hớn	-12.7195
▁xẻo	-12.7195
▁philip	-12.7203
iều	-12.7209
▁chiu	-12.7218
▁marie	-12.7218
▁tl	-12.7233
▁nhen	-12.7235
▁hàu	-12.7236
▁512	-12.724
▁chịt	-12.724
ăm	-12.727
▁kompany	-12.7272
▁poltorak	-12.7272
▁sigurdsson	-12.7272
▁phộng	-12.7272
▁tomboy	-12.7272
baut	-12.7272
▁cocktail	-12.7273
▁gucci	-12.7273
▁allegri	-12.7273
▁vegas	-12.7273
▁bgtvt	-12.7273
▁jaguar	-12.7273
▁xẩm	-12.7274
▁ntd	-12.7274
▁kilo	-12.7275
▁vát	-12.7279
▁vhg	-12.7279
▁hamas	-12.728
▁prayut	-12.7283
▁britt	-12.7288
▁xở	-12.7297
▁cheng	-12.7308
▁war	-12.7308
▁680	-12.7312
▁phèn	-12.7316
▁193	-12.7319
▁820	-12.7323
▁vali	-12.7332
▁410	-12.7335
▁lòi	-12.7336
▁216	-12.734
▁198	-12.7346
▁beyonce	-12.7359
▁ethiopia	-12.7359
▁mazzarri	-12.7359
▁ttatgt	-12.7359
▁zakharchenko	-12.7359
▁zidane	-12.7359
▁khiễng	-12.7359
▁motiti	-12.7359
▁photoshop	-12.7359
▁playboy	-12.7359
▁ronaldinho	-12.7359
▁wushu	-12.7359
▁elche	-12.7359
▁cyrus	-12.7359
▁hót	-12.7359
▁khờ	-12.736
▁159	-12.7361
▁lupin	-12.7361
▁perry	-12.7361
▁lốt	-12.7362
▁page	-12.7363
▁154	-12.7367
tel	-12.7367
▁sk	-12.7371
▁táp	-12.7383
▁594	-12.7388
▁pk	-12.7398
hkqt	-12.7403
▁grande	-12.7405
▁bđ	-12.7405
▁540	-12.7406
han	-12.7406
▁cat	-12.7409
▁lisa	-12.7411
85	-12.7417
▁albert	-12.7423
▁206	-12.744
▁prime	-12.7445
▁anderlecht	-12.7446
▁bouchard	-12.7446
▁people	-12.7446
▁channel	-12.7446
▁quới	-12.7446
▁bự	-12.7446
▁vdsc	-12.7446
▁quăng	-12.7446
▁nylon	-12.7446
▁gabi	-12.7446
▁suyễn	-12.7447
▁vẩy	-12.7448
▁rẩy	-12.7449
▁korea	-12.7452
▁jet	-12.7459
▁dual	-12.7468
▁147	-12.747
▁az	-12.7471
gs	-12.7473
150	-12.7488
▁karl	-12.7489
ai	-12.7517
▁dominic	-12.7526
▁download	-12.7533
▁dấm	-12.7533
▁phnom	-12.7533
▁natuna	-12.7533
▁ontake	-12.7533
▁massachusetts	-12.7533
▁xoong	-12.7533
▁ôxy	-12.7534
▁dioxin	-12.7534
▁vẹt	-12.7534
▁pxs	-12.7535
▁sapa	-12.7535
▁nghiến	-12.7536
▁chóc	-12.7553
▁qx	-12.756
▁form	-12.756
▁je	-12.756
▁grazia	-12.7575
▁1800	-12.759
500	-12.7591
▁ổng	-12.7593
cho	-12.7596
pa	-12.7607
▁910	-12.761
▁mành	-12.7613
▁tể	-12.7621
▁higuain	-12.7622
▁keefe	-12.7622
▁selecao	-12.7622
▁msbs	-12.7622
▁sapharco	-12.7622
▁đhcđ	-12.7622
▁liew	-12.7622
▁tskh	-12.7622
▁thụt	-12.7624
▁klf	-12.7624
▁sẩy	-12.7625
▁miết	-12.7626
▁cọp	-12.7626
▁bigc	-12.7627
▁ms	-12.7627
▁625	-12.7627
▁274	-12.763
▁your	-12.7631
▁rs	-12.7636
tin	-12.764
▁tròng	-12.7641
▁163	-12.7663
▁212	-12.7665
▁uẩn	-12.7668
▁169	-12.7671
▁kw	-12.7675
▁now	-12.7681
kov	-12.7688
bank	-12.7694
▁rả	-12.7694
▁food	-12.77
▁wo	-12.7701
▁system	-12.771
▁birmingham	-12.7711
▁koeman	-12.7711
▁surface	-12.7711
▁shinoda	-12.7711
▁joshua	-12.7711
▁guồng	-12.7711
▁arập	-12.7711
▁hdmi	-12.7711
▁mongkok	-12.7711
▁modern	-12.7712
▁emdep	-12.7713
▁venus	-12.7714
▁oa	-12.7715
▁alfred	-12.7717
▁rớ	-12.7717
▁4000	-12.7723
▁ú	-12.7728
▁wun	-12.773
▁kq	-12.7735
▁285	-12.7735
▁bẽ	-12.7738
▁194	-12.777
▁bayer	-12.7785
▁167	-12.7787
▁hột	-12.7789
▁chò	-12.7798
io	-12.7798
▁mão	-12.7799
▁maritime	-12.7801
▁alcacer	-12.7801
▁cadillac	-12.7801
▁marilyn	-12.7801
▁masakazu	-12.7801
▁platini	-12.7801
▁wilson	-12.7801
▁mikhai	-12.7801
▁ohio	-12.7801
▁gilles	-12.7801
▁lysenko	-12.7801
▁scenic	-12.7801
▁mailisa	-12.7802
▁diệm	-12.7802
▁ecb	-12.7803
▁ricoh	-12.7803
▁delta	-12.7803
iwi	-12.7804
▁pắc	-12.7804
ry	-12.7809
▁mariana	-12.781
▁dior	-12.7811
▁174	-12.7811
▁bươn	-12.7812
▁sinai	-12.7816
▁kheo	-12.7819
▁nhảm	-12.782
▁thò	-12.782
▁dc	-12.7824
▁há	-12.783
ve	-12.7832
▁sri	-12.7844
▁cris	-12.7847
ty	-12.7849
32	-12.7851
▁maxi	-12.7851
▁trump	-12.7855
▁lọi	-12.7856
rịch	-12.7864
ria	-12.7875
▁fort	-12.788
ek	-12.7883
▁ota	-12.7884
▁mal	-12.7886
▁ngác	-12.7888
▁nhặn	-12.789
▁cruz	-12.7891
▁dzeko	-12.7892
▁geletey	-12.7892
▁jagielka	-12.7892
▁minamino	-12.7892
▁nhcsxh	-12.7892
▁piaggio	-12.7892
▁vietravel	-12.7892
▁nỡ	-12.7892
▁ngáy	-12.7893
▁glazer	-12.7893
▁ptth	-12.7895
▁nhòm	-12.7895
▁sủng	-12.7897
▁177	-12.7898
▁wen	-12.7902
ang	-12.7916
▁295	-12.7925
▁dòi	-12.7927
▁pri	-12.7931
ồi	-12.7937
▁mồng	-12.7958
▁043	-12.7974
▁575	-12.7981
▁chùn	-12.7982
▁fat	-12.7982
▁shanghai	-12.7984
▁adobe	-12.7984
▁poggiali	-12.7984
▁riềng	-12.7984
▁jetstar	-12.7984
▁watson	-12.7984
▁testosterone	-12.7984
▁kosovo	-12.7984
▁abramovich	-12.7984
▁thoắt	-12.7984
▁lille	-12.7984
▁trading	-12.7986
▁chùng	-12.7986
▁ncb	-12.7986
▁rằm	-12.7986
▁hích	-12.7986
▁diêu	-12.7987
▁đờm	-12.7988
▁phủi	-12.7991
▁biếm	-12.7992
▁chow	-12.7996
▁920	-12.7996
tp	-12.7998
98	-12.7999
▁244	-12.8001
▁cọng	-12.8009
▁giê	-12.8012
▁614	-12.8023
▁lukas	-12.803
▁530	-12.8033
▁090	-12.8044
▁224	-12.8051
▁research	-12.8057
▁goo	-12.8062
▁đk	-12.8063
▁har	-12.8073
▁almeria	-12.8076
▁amoled	-12.8076
▁angola	-12.8076
▁etienne	-12.8076
▁hannover	-12.8076
▁ashton	-12.8076
ô	-12.8077
▁logistics	-12.8077
▁lỳ	-12.8077
▁shoot	-12.8077
▁hssv	-12.8077
▁nhạn	-12.8077
▁rởm	-12.8077
▁nhẩm	-12.8078
▁zhou	-12.8079
▁trĩu	-12.808
▁marca	-12.808
show	-12.8083
▁boot	-12.8087
▁tbt	-12.8089
▁vnr	-12.8112
▁nhói	-12.8127
ps	-12.8127
press	-12.8129
▁304	-12.8136
ặng	-12.8136
▁tánh	-12.814
▁npc	-12.8143
▁giãi	-12.8144
▁kis	-12.8146
82	-12.8156
59	-12.8163
▁chechnya	-12.817
▁hermes	-12.817
▁lovren	-12.817
▁margerie	-12.817
▁mblaq	-12.817
▁rạc	-12.817
▁vinaconex	-12.817
▁whatsapp	-12.817
▁quẫn	-12.817
▁explorer	-12.817
▁cbcc	-12.817
▁kiệu	-12.8171
▁dầy	-12.8171
▁kđt	-12.8172
▁lèo	-12.8172
▁diana	-12.8173
▁yoona	-12.8173
▁rinh	-12.8176
▁ksh	-12.8177
▁carey	-12.8179
▁lảng	-12.8181
▁mền	-12.8201
▁khư	-12.8202
ling	-12.8203
▁roll	-12.8209
▁mali	-12.8212
nam	-12.8215
rey	-12.8225
▁233	-12.8228
▁pm	-12.8242
po	-12.8245
▁marin	-12.8245
ặc	-12.825
▁cx	-12.8252
▁cnh	-12.8254
▁191	-12.8259
▁624	-12.8261
▁andorra	-12.8264
▁arizona	-12.8264
▁arthur	-12.8264
▁khadija	-12.8264
▁kuwait	-12.8264
▁rihanna	-12.8264
▁nijia	-12.8264
▁pierre	-12.8264
▁ubck	-12.8264
▁đẫy	-12.8264
▁vksndtc	-12.8265
▁valentino	-12.8265
▁yểu	-12.8265
▁zoom	-12.8268
ktt	-12.8268
▁br	-12.8272
▁edu	-12.8274
▁penh	-12.8283
▁nin	-12.8297
▁info	-12.83
▁cún	-12.8302
▁tal	-12.8308
▁lòa	-12.8309
lade	-12.8311
▁true	-12.8315
▁kent	-12.8334
▁dd	-12.8338
ũng	-12.8339
▁ox	-12.8345
▁amin	-12.8348
▁ent	-12.835
▁maribor	-12.8359
▁monroe	-12.8359
▁paheredar	-12.8359
▁residence	-12.8359
▁shutterstock	-12.8359
▁yellow	-12.8359
▁kennedy	-12.8359
▁wesley	-12.8359
▁virginia	-12.8359
▁continental	-12.836
▁tóe	-12.836
▁baht	-12.836
▁cambridge	-12.836
▁opec	-12.836
▁nhừ	-12.836
▁lụi	-12.836
▁speed	-12.8361
▁đênh	-12.8364
▁die	-12.8364
▁sochi	-12.8365
▁cello	-12.8366
▁ic	-12.8369
dec	-12.837
▁780	-12.8374
il	-12.8376
ev	-12.8384
▁vnen	-12.8386
▁um	-12.8387
▁211	-12.8393
▁thổn	-12.8394
▁980	-12.8402
▁166	-12.8426
▁thình	-12.8427
air	-12.8428
ker	-12.8428
addy	-12.8432
▁hđ	-12.8433
▁kham	-12.8438
▁mun	-12.8439
▁bét	-12.844
▁yuko	-12.8451
▁donbas	-12.8452
▁somali	-12.8454
▁fonepad	-12.8456
▁greachen	-12.8456
▁lincoln	-12.8456
▁skinny	-12.8456
▁johnny	-12.8456
▁abdullah	-12.8456
▁remy	-12.8456
▁vữa	-12.8456
▁noel	-12.8457
▁ỳ	-12.8459
▁ssc	-12.8461
▁sfc	-12.8463
ap	-12.8471
▁por	-12.8472
hếch	-12.8473
▁kd	-12.848
▁tech	-12.8482
▁lâng	-12.8483
72	-12.8493
elmo	-12.8512
bo	-12.8531
▁khất	-12.8547
▁maradona	-12.8553
▁moody	-12.8553
▁gonzalez	-12.8553
▁sb	-12.8553
▁đuống	-12.8553
▁giùm	-12.8553
▁kyodo	-12.8553
▁lếp	-12.8553
▁bcđ	-12.8553
▁server	-12.8553
▁psv	-12.8554
▁kị	-12.8554
▁market	-12.8564
▁ar	-12.8564
▁khiên	-12.8573
▁bee	-12.8578
▁640	-12.8581
▁cựa	-12.8588
▁699	-12.8596
▁aud	-12.8601
if	-12.8606
▁217	-12.8612
300	-12.8619
▁atom	-12.8619
▁ss	-12.8636
▁py	-12.864
▁update	-12.8649
▁vaccin	-12.865
▁spark	-12.8651
▁soldado	-12.8651
▁foster	-12.8651
▁irina	-12.8651
▁guerrero	-12.8651
▁đhqghn	-12.8651
▁đoái	-12.8651
▁ttcp	-12.8652
▁diếp	-12.8653
▁ttcn	-12.8655
▁chase	-12.8655
▁acer	-12.8657
▁marina	-12.8659
ào	-12.8659
▁rfi	-12.8661
▁bxd	-12.8661
gt	-12.8662
▁mói	-12.8666
cv	-12.8669
▁hiroshi	-12.8674
▁kei	-12.8676
▁189	-12.8683
ĩnh	-12.8692
▁les	-12.8698
▁gọng	-12.8703
itte	-12.8705
news	-12.8713
▁ctg	-12.8713
400	-12.8715
66	-12.8731
ít	-12.8737
▁scr	-12.874
▁grad	-12.8741
kin	-12.8747
▁chùi	-12.875
▁klopp	-12.875
▁merseyside	-12.875
▁oxford	-12.875
▁rostov	-12.875
▁hellas	-12.875
▁college	-12.875
▁karate	-12.875
▁oceanbank	-12.875
▁panetta	-12.875
▁poker	-12.875
▁pasteur	-12.875
▁praha	-12.875
▁ngậy	-12.875
▁liếng	-12.875
▁kathy	-12.875
▁thads	-12.8751
▁tởm	-12.8751
▁găm	-12.8751
▁nớt	-12.8752
▁cii	-12.8752
▁raonic	-12.8753
▁guide	-12.8757
▁pele	-12.8758
▁nhằng	-12.8759
▁179	-12.8759
▁mĩm	-12.8761
ung	-12.8762
▁voh	-12.8762
▁siro	-12.8774
▁press	-12.8775
ers	-12.8789
▁moi	-12.879
▁sing	-12.8806
▁vb	-12.8808
▁wear	-12.8809
ê	-12.8816
▁bct	-12.8817
▁510	-12.882
▁helen	-12.8825
ợ	-12.8833
▁nán	-12.8834
▁ngò	-12.8838
▁425	-12.884
▁nhọ	-12.8843
▁tuồn	-12.8848
▁cuadrado	-12.885
▁debuchy	-12.885
▁lăk	-12.885
▁matthew	-12.885
▁kharkov	-12.885
▁asterion	-12.885
▁potter	-12.885
▁nịnh	-12.885
▁muội	-12.885
▁fband	-12.885
▁kagawa	-12.885
▁sính	-12.8851
▁bướng	-12.8851
▁oải	-12.8851
▁gien	-12.8852
65	-12.8852
▁tầu	-12.8852
▁active	-12.8852
▁cairo	-12.8855
▁milk	-12.8863
sk	-12.8866
▁share	-12.8868
▁hộc	-12.8871
▁960	-12.8875
▁207	-12.8878
▁595	-12.8881
▁xo	-12.89
▁item	-12.8901
▁diamond	-12.8918
▁víu	-12.893
76	-12.8931
▁mash	-12.8941
▁nhơ	-12.8941
bd	-12.8943
▁nitrat	-12.895
▁affleck	-12.8951
▁charlton	-12.8951
▁deschamps	-12.8951
▁electric	-12.8951
▁khuỷu	-12.8951
▁liechtenstein	-12.8951
▁moldova	-12.8951
▁nozza	-12.8951
▁rahman	-12.8951
▁francesco	-12.8951
▁cạy	-12.8951
▁cbtt	-12.8952
▁buffett	-12.8952
▁digital	-12.8953
▁infiniti	-12.8953
▁calum	-12.8954
▁ruble	-12.8954
▁aag	-12.8954
▁fda	-12.8955
▁nép	-12.8955
▁gặm	-12.8955
▁1948	-12.8956
▁hello	-12.8956
mw	-12.896
▁rái	-12.8962
▁bĩnh	-12.8962
▁qhd	-12.8962
▁xén	-12.8977
▁tấy	-12.899
ello	-12.8996
yev	-12.9001
cim	-12.902
▁gui	-12.9029
31	-12.9031
ặm	-12.9034
▁nom	-12.9044
▁gô	-12.9045
luan	-12.9046
▁action	-12.9051
▁ronald	-12.9052
▁display	-12.9053
▁masterchef	-12.9053
▁remix	-12.9053
▁tip	-12.9053
▁liberty	-12.9053
▁ogc	-12.9053
▁bonucci	-12.9053
380	-12.9053
▁atlas	-12.9053
▁first	-12.9054
▁trỏ	-12.9054
600	-12.9055
▁davidson	-12.9055
▁1957	-12.9057
▁pcb	-12.9061
ẩm	-12.907
ena	-12.9071
xd	-12.9074
▁edin	-12.9075
▁bim	-12.9079
▁arm	-12.908
▁tắp	-12.9087
ommy	-12.9096
▁him	-12.9098
box	-12.9109
ễm	-12.9113
▁chíp	-12.9114
▁láy	-12.9128
▁173	-12.9132
▁quad	-12.9134
▁ụ	-12.9139
▁612	-12.9141
▁cút	-12.9142
▁abdul	-12.9143
▁shea	-12.9148
hĩa	-12.9149
▁phoenix	-12.9156
▁redknapp	-12.9156
▁skrtel	-12.9156
▁stewart	-12.9156
▁fbnv	-12.9156
▁sebastian	-12.9156
▁iaea	-12.9156
▁gotze	-12.9156
▁advanced	-12.9156
▁holmes	-12.9156
▁clarkson	-12.9156
▁casting	-12.9156
▁astoria	-12.9156
▁ghẹo	-12.9156
▁sudan	-12.9156
▁mafia	-12.9156
▁rết	-12.9157
▁buốt	-12.9157
▁infographic	-12.9157
▁ufc	-12.9159
▁bđn	-12.9162
▁light	-12.9163
▁1952	-12.9165
36	-12.9166
▁minix	-12.9169
ran	-12.9171
tra	-12.9173
▁768	-12.9176
▁teas	-12.918
▁bàu	-12.9184
id	-12.9187
▁xl	-12.919
ji	-12.9194
▁025	-12.9195
▁leon	-12.9196
▁pvt	-12.9198
▁ict	-12.92
▁vái	-12.92
▁lơi	-12.9249
▁bog	-12.9254
▁mat	-12.9256
▁chồn	-12.9259
▁ross	-12.926
▁lizzie	-12.926
▁marathon	-12.926
▁monrovia	-12.926
▁scholes	-12.926
▁theikdi	-12.926
▁warren	-12.926
▁learning	-12.926
▁torino	-12.926
▁liếc	-12.926
▁anderson	-12.926
▁gẫy	-12.926
▁riverside	-12.926
▁núm	-12.9261
▁space	-12.9263
▁tưởi	-12.9263
▁mbb	-12.9265
▁hến	-12.9267
▁paulo	-12.9268
▁vj	-12.9269
▁tịt	-12.9269
uột	-12.927
▁héo	-12.9271
rr	-12.9275
48	-12.9277
▁innova	-12.928
▁239	-12.9283
chi	-12.929
lock	-12.9294
▁hyo	-12.9297
ight	-12.9306
▁bth	-12.9313
▁ever	-12.9319
age	-12.933
imex	-12.9333
▁oc	-12.9338
dll	-12.9348
800	-12.9356
▁oil	-12.9356
▁xan	-12.9357
▁tiger	-12.9364
▁gấm	-12.9365
▁palermo	-12.9365
▁recep	-12.9365
▁crossover	-12.9365
▁inox	-12.9365
▁socola	-12.9365
▁belgrade	-12.9365
▁đận	-12.9365
▁mbke	-12.9365
▁ahmed	-12.9366
▁complex	-12.9366
▁stepan	-12.9366
▁228	-12.9366
▁hugh	-12.9366
▁adnan	-12.9367
▁ruốc	-12.9367
▁comey	-12.9368
▁mún	-12.9368
▁let	-12.9369
▁chấy	-12.9369
▁dbc	-12.9373
que	-12.9379
scilla	-12.938
▁ber	-12.9383
▁chẻ	-12.9386
▁film	-12.9386
▁432	-12.9389
▁747	-12.9391
▁ktm	-12.9399
▁state	-12.9404
▁julian	-12.9404
▁bad	-12.9407
▁lớ	-12.9415
▁way	-12.9417
▁bild	-12.9426
ph	-12.9433
shiya	-12.9438
ấc	-12.9446
▁2050	-12.9451
▁tdh	-12.9453
vietnam	-12.9453
der	-12.9458
xh	-12.9461
uk	-12.9466
ja	-12.9467
▁lươn	-12.947
▁heart	-12.9471
▁clooney	-12.9472
▁cotton	-12.9472
▁futsal	-12.9472
▁jpmorgan	-12.9472
▁qncn	-12.9472
▁schmeichel	-12.9472
▁toronto	-12.9472
▁ubcknn	-12.9472
▁wolfsburg	-12.9472
▁icrc	-12.9472
▁iguala	-12.9472
▁tiote	-12.9472
▁smalling	-12.9472
▁venera	-12.9472
▁venice	-12.9472
▁ngươi	-12.9473
▁525	-12.9474
▁ugl	-12.9475
▁tèo	-12.9477
▁vcbs	-12.9478
huần	-12.9481
▁bca	-12.9481
▁2560	-12.9481
▁phuy	-12.9488
▁363	-12.9493
▁vảy	-12.9499
▁kin	-12.9499
▁thảy	-12.9506
▁dĩa	-12.9508
▁ball	-12.9509
mt	-12.9515
▁face	-12.9518
▁nuc	-12.9532
▁máng	-12.9532
▁koh	-12.9537
▁vỉ	-12.9558
▁585	-12.9572
▁shim	-12.9572
▁giũ	-12.9577
▁conjuring	-12.9579
▁dolce	-12.9579
▁management	-12.9579
▁pochettino	-12.9579
▁sapporo	-12.9579
▁schweinsteiger	-12.9579
▁tiffany	-12.9579
▁mccormick	-12.9579
▁petersburg	-12.9579
▁amanda	-12.9579
▁vnreview	-12.9579
▁tkcn	-12.958
▁caffeine	-12.958
▁amway	-12.958
▁rứa	-12.958
▁seven	-12.958
▁rodong	-12.958
▁hửng	-12.958
▁nole	-12.9581
▁comex	-12.9582
▁boong	-12.9582
gđ	-12.9582
▁vạc	-12.9582
▁cent	-12.9584
▁hassan	-12.9588
▁martino	-12.959
▁stb	-12.959
ane	-12.9603
hi	-12.9609
wa	-12.961
lu	-12.961
57	-12.9613
gen	-12.9617
▁197	-12.9626
▁beo	-12.9629
▁diễ	-12.9633
▁thố	-12.9635
▁nài	-12.9637
▁196	-12.9639
▁lab	-12.9645
▁ward	-12.965
ian	-12.9661
▁hoe	-12.9676
▁lead	-12.968
▁bryan	-12.9686
▁network	-12.9687
53	-12.9687
eepinginairports	-12.9688
▁jerusalem	-12.9688
▁nagoya	-12.9688
▁azpilicueta	-12.9688
▁powerpoint	-12.9688
▁vgx	-12.9688
▁mueller	-12.9688
▁vpcp	-12.9688
▁toeic	-12.9688
▁defense	-12.9688
▁chực	-12.9688
▁nhầy	-12.9688
▁hapro	-12.9688
▁renta	-12.9689
▁tncs	-12.9689
▁kiểng	-12.9689
manja	-12.9689
▁biếc	-12.9689
▁cloud	-12.969
▁tsang	-12.9691
▁chừa	-12.9692
▁dpm	-12.9693
▁vfa	-12.9694
▁viber	-12.9695
▁sher	-12.9697
▁sr	-12.9703
79	-12.9706
▁ná	-12.9715
▁975	-12.9725
▁tiệt	-12.9729
kt	-12.9732
▁vv	-12.9754
hớt	-12.9775
33	-12.978
atherine	-12.9793
▁đì	-12.9796
▁seri	-12.9796
▁kerr	-12.9797
▁tuôn	-12.9797
▁calderon	-12.9798
▁fernandinho	-12.9798
▁morocco	-12.9798
▁subeo	-12.9798
▁nướu	-12.9798
▁ghềnh	-12.9798
▁kiyou	-12.9798
▁lỉnh	-12.9798
▁ciem	-12.9798
▁xiang	-12.9799
▁760	-12.9801
▁des	-12.9808
▁nhám	-12.981
▁luộ	-12.9818
▁860	-12.9823
▁tmt	-12.983
cy	-12.9831
▁247	-12.9847
iết	-12.986
▁cmc	-12.9864
▁pass	-12.9871
▁anti	-12.9872
▁ilo	-12.9879
arry	-12.9879
▁vita	-12.9884
▁earn	-12.9885
ển	-12.9887
▁401	-12.9887
04	-12.9887
▁boa	-12.9889
▁mar	-12.989
asep	-12.9902
▁from	-12.9909
▁agpps	-12.9909
▁jesus	-12.9909
▁tươm	-12.9909
▁composite	-12.9909
▁lamela	-12.9909
▁ccq	-12.9909
▁premium	-12.9909
▁vfmvn	-12.991
▁dhl	-12.991
▁nực	-12.991
▁rocha	-12.991
▁clinic	-12.991
▁lazio	-12.991
▁pctp	-12.991
▁screen	-12.991
▁chãi	-12.9911
▁laura	-12.9912
▁mid	-12.9916
▁tành	-12.9918
▁háng	-12.9928
eta	-12.9933
▁macd	-12.9944
▁375	-12.9945
▁gồ	-12.9951
▁susan	-12.9958
320	-12.997
▁bob	-12.9975
▁island	-12.9978
enko	-12.999
ation	-12.9995
▁điếm	-12.9997
▁278	-12.9998
▁810	-13.001
▁rachel	-13.0011
▁phớ	-13.0012
▁haram	-13.002
▁canberra	-13.0021
▁enterprise	-13.0021
▁gamuda	-13.0021
▁mariupol	-13.0021
▁michigan	-13.0021
▁manhattan	-13.0021
▁retro	-13.0021
▁thẫn	-13.0022
▁fiat	-13.0022
▁carolina	-13.0022
▁nhót	-13.0023
▁hợt	-13.0023
▁valer	-13.0023
▁rầy	-13.0025
▁bd	-13.0027
iwa	-13.0032
▁272	-13.0032
▁mạt	-13.0033
▁donga	-13.0033
▁plc	-13.0033
đq	-13.0051
ễn	-13.0052
▁not	-13.0055
ợc	-13.0055
ương	-13.0061
ợp	-13.0064
▁coc	-13.0064
rd	-13.007
▁ze	-13.0085
▁mel	-13.0091
▁rạ	-13.0095
▁sha	-13.0099
▁rá	-13.0103
▁láo	-13.0112
▁choe	-13.0114
▁315	-13.0126
▁ghost	-13.0135
▁mascherano	-13.0135
▁nadella	-13.0135
▁motogp	-13.0135
▁ribery	-13.0135
▁ramires	-13.0135
▁naismith	-13.0135
▁elise	-13.0135
▁đakrông	-13.0135
▁lell	-13.0136
▁adiz	-13.0137
▁vót	-13.0137
▁qcg	-13.0137
▁đần	-13.0138
▁annie	-13.0138
▁gun	-13.0138
▁rudi	-13.0138
▁vèo	-13.0139
▁vieira	-13.014
▁bặt	-13.0142
▁nhố	-13.0143
▁dằng	-13.0146
▁nơm	-13.0149
▁tvc	-13.015
tain	-13.0151
▁khêu	-13.0152
▁down	-13.0152
▁stt	-13.0159
▁josh	-13.0165
▁xiêm	-13.0169
▁rứt	-13.0176
▁tcc	-13.0176
▁gene	-13.018
▁gerd	-13.018
▁pre	-13.018
▁thau	-13.018
oái	-13.0181
302	-13.0201
book	-13.0214
▁val	-13.0217
▁pet	-13.0218
▁366	-13.0224
ard	-13.0224
san	-13.0227
▁kid	-13.0228
▁mụ	-13.0229
▁chơ	-13.0229
phunu	-13.0232
gv	-13.0234
▁203	-13.0236
▁santa	-13.024
▁latin	-13.0245
con	-13.0248
▁3930531	-13.0249
▁demichelis	-13.025
▁huracan	-13.025
▁pradesh	-13.025
▁donald	-13.025
▁ecopark	-13.025
▁gruzia	-13.025
▁lukaku	-13.025
▁miami	-13.025
▁bradley	-13.025
▁petrovietnam	-13.025
▁abbas	-13.025
▁celtic	-13.025
▁nhợt	-13.0251
▁coffee	-13.0251
▁holdings	-13.0251
▁cbr	-13.0252
▁ddr	-13.0252
▁rìu	-13.0253
▁mangala	-13.0254
▁parker	-13.0256
▁paula	-13.0263
▁266	-13.0266
▁tien	-13.0267
▁1440	-13.027
▁cinema	-13.0274
ua	-13.0279
ni	-13.0308
▁nhấ	-13.0316
▁447	-13.0318
▁cùi	-13.0323
▁bell	-13.0327
▁790	-13.0332
95	-13.0341
▁over	-13.0348
▁bass	-13.035
▁port	-13.0352
▁đạ	-13.0357
00000	-13.0365
▁bươu	-13.0366
▁cameroon	-13.0366
▁colorado	-13.0366
▁foundation	-13.0366
▁kyrgyzstan	-13.0366
▁messenger	-13.0366
▁widget	-13.0366
▁dawson	-13.0366
▁discovery	-13.0367
ster	-13.0367
▁marvel	-13.0367
fitel	-13.0367
▁square	-13.0367
▁chằm	-13.0367
▁uổng	-13.0368
▁tuộc	-13.0368
▁rói	-13.0368
▁lổ	-13.0368
▁beast	-13.0368
▁khkt	-13.0369
▁password	-13.0369
▁296	-13.037
▁timor	-13.0371
▁khấn	-13.0372
▁hhs	-13.0374
▁262	-13.0375
▁vó	-13.0384
▁227	-13.039
▁annd	-13.0398
▁head	-13.04
ạm	-13.0401
▁pơ	-13.041
avel	-13.041
▁kar	-13.0429
▁mas	-13.0439
tz	-13.0439
singer	-13.0441
▁268	-13.0447
▁222	-13.0454
▁rr	-13.0482
▁lạy	-13.0483
▁tanzania	-13.0484
▁vedette	-13.0484
▁ghẻ	-13.0484
▁granada	-13.0484
▁grammy	-13.0484
▁monreal	-13.0484
▁fiona	-13.0484
▁elite	-13.0484
▁dunne	-13.0484
▁cnvc	-13.0484
▁willian	-13.0484
▁kathina	-13.0484
▁guam	-13.0484
▁thuộm	-13.0485
▁lặt	-13.0485
▁quệt	-13.0485
▁turan	-13.0485
▁giếm	-13.0486
▁dead	-13.0487
▁xối	-13.0487
▁maps	-13.0487
▁diavel	-13.0488
▁nhạo	-13.0488
▁ship	-13.0488
▁deutsche	-13.0492
▁ngoai	-13.0492
▁mason	-13.0497
▁589	-13.0498
▁dô	-13.0506
▁hsu	-13.0507
▁bnd	-13.0508
▁philipp	-13.0512
▁238	-13.0519
▁rủa	-13.052
▁bôn	-13.053
▁605	-13.0553
▁pôn	-13.0556
▁ngai	-13.0565
eira	-13.0568
▁csđttpvtt	-13.057
▁hud	-13.0573
▁356	-13.0574
▁aleksandr	-13.0577
▁maxim	-13.0582
▁boko	-13.0588
▁345	-13.0599
▁kyu	-13.0599
▁akasaki	-13.0603
▁alzheimer	-13.0603
▁dabaco	-13.0603
▁haniff	-13.0603
▁heartbeat	-13.0603
▁lazada	-13.0603
▁odessa	-13.0603
▁sheffield	-13.0603
▁bgdđt	-13.0603
▁vlxd	-13.0603
net	-13.0603
▁oslo	-13.0603
▁monde	-13.0603
▁chloe	-13.0603
▁sscđ	-13.0603
▁collins	-13.0603
▁oplus	-13.0603
▁amano	-13.0603
▁tncn	-13.0604
▁cologne	-13.0604
▁prix	-13.0604
▁đượm	-13.0605
▁sồng	-13.0606
▁sình	-13.0606
▁294	-13.061
▁hám	-13.0611
▁nav	-13.0617
56	-13.0617
▁vẩn	-13.062
▁tè	-13.0629
▁qg	-13.0641
▁tơn	-13.0644
▁pca	-13.0645
▁twin	-13.0647
▁328	-13.0647
▁tùm	-13.0655
▁711	-13.0661
87	-13.0668
▁hạo	-13.0683
▁bọng	-13.0689
city	-13.0692
▁đờ	-13.0703
▁small	-13.0709
▁lauren	-13.0718
▁zalo	-13.0723
lienvietpostbank	-13.0723
▁bellarabi	-13.0723
▁exynos	-13.0723
▁financial	-13.0723
▁juanfran	-13.0723
▁kiatisak	-13.0723
▁lufthansa	-13.0723
▁neeson	-13.0723
▁toilet	-13.0723
▁zlatan	-13.0723
▁houston	-13.0723
▁ubtư	-13.0723
▁mediatek	-13.0723
▁idico	-13.0723
▁violon	-13.0723
▁bavaria	-13.0724
▁michelle	-13.0724
▁toại	-13.0724
▁loẹt	-13.0724
ward	-13.0725
▁xơi	-13.0725
▁dật	-13.0725
▁neville	-13.0728
ak	-13.073
▁thúng	-13.0731
▁php	-13.0731
▁259	-13.0733
▁thiển	-13.0735
▁xra	-13.0735
▁scan	-13.0739
▁moss	-13.0741
▁villas	-13.0744
▁ite	-13.0745
▁nè	-13.0746
▁bean	-13.0747
▁fly	-13.0749
▁turin	-13.0754
▁mayer	-13.0761
▁slim	-13.0762
▁drc	-13.0766
39	-13.077
one	-13.0781
▁khoeo	-13.0787
ns	-13.0788
ies	-13.0793
ogas	-13.0797
▁pink	-13.0798
▁trend	-13.08
▁vù	-13.0816
▁brig	-13.0821
house	-13.0832
▁work	-13.0838
▁rì	-13.0841
▁đoản	-13.0843
▁gabbana	-13.0845
▁wimbledon	-13.0845
▁saddam	-13.0845
▁gasoil	-13.0845
▁novaland	-13.0845
▁panama	-13.0845
▁batman	-13.0845
▁fabio	-13.0845
▁immobile	-13.0846
▁metal	-13.0846
▁sophia	-13.0846
▁chromebook	-13.0846
▁diame	-13.0846
▁fusion	-13.0846
▁retail	-13.0846
▁review	-13.0846
▁if	-13.0848
▁hpv	-13.0848
▁ansar	-13.0849
▁isil	-13.0849
▁tmv	-13.085
▁amd	-13.0851
▁1200	-13.0857
▁nải	-13.0858
ist	-13.0864
▁sấp	-13.0865
▁946	-13.0866
▁joel	-13.0868
tu	-13.0871
▁cỗi	-13.088
▁pmi	-13.0882
ldorf	-13.0891
▁ifa	-13.0895
78	-13.0895
▁254	-13.0914
▁ex	-13.0915
▁nhím	-13.0927
ờ	-13.0933
▁279	-13.0935
ớc	-13.0942
▁349	-13.0942
▁nx	-13.0945
▁loc	-13.0945
▁herman	-13.0945
75	-13.0952
▁rica	-13.0961
▁tnt	-13.0968
▁dhc	-13.0968
▁nhuố	-13.0968
edvard	-13.0969
▁gallardo	-13.0969
▁interbrand	-13.0969
▁wawrinka	-13.0969
▁yadea	-13.0969
▁ahmad	-13.0969
▁clinton	-13.0969
▁229	-13.0969
▁candice	-13.0969
▁english	-13.0969
▁melissa	-13.0969
▁nứa	-13.0969
▁universal	-13.0969
▁education	-13.097
▁eeu	-13.097
▁bitel	-13.0971
▁tóp	-13.0972
▁slam	-13.0972
▁ứa	-13.0976
▁257	-13.0977
▁ellen	-13.0978
sson	-13.0979
▁bike	-13.0979
▁hdd	-13.098
▁sọt	-13.098
▁call	-13.0981
▁1914	-13.0985
▁east	-13.0985
▁trám	-13.0989
mk	-13.103
▁nani	-13.1035
▁mit	-13.1037
▁bra	-13.1038
▁rob	-13.1044
á	-13.1054
▁feli	-13.106
▁mask	-13.1061
▁007	-13.1063
▁csm	-13.1065
▁duma	-13.1079
phone	-13.1081
▁hẹ	-13.109
▁dae	-13.1091
▁bluechip	-13.1092
▁rằn	-13.1093
▁brantly	-13.1094
▁carvalho	-13.1094
▁coentrao	-13.1094
▁heletey	-13.1094
▁jupiter	-13.1094
▁unclos	-13.1094
▁voucher	-13.1094
▁investment	-13.1094
▁oceangroup	-13.1094
▁woolf	-13.1094
▁maldives	-13.1094
▁cantona	-13.1094
▁gdđh	-13.1094
▁carotene	-13.1094
▁ghani	-13.1094
▁speciale	-13.1094
▁caro	-13.1095
▁boiz	-13.1095
▁markovic	-13.1096
▁cợt	-13.1096
▁shum	-13.1097
▁sbs	-13.1099
▁pồ	-13.1099
▁gôn	-13.11
▁kyung	-13.1102
▁1951	-13.1102
▁boys	-13.1106
▁rice	-13.1109
▁ger	-13.1111
▁2022	-13.1114
▁haiti	-13.1114
âng	-13.1115
▁ix	-13.113
▁clo	-13.1134
▁sum	-13.1136
▁nb	-13.1145
tmcp	-13.1146
▁ema	-13.115
▁ks	-13.115
▁517	-13.1153
ã	-13.1155
▁1500	-13.1166
▁ying	-13.1167
▁dt	-13.1171
▁rua	-13.1171
ler	-13.1177
▁020	-13.1178
▁875	-13.1196
▁shah	-13.1198
ỹ	-13.1202
03	-13.1213
▁heat	-13.1216
▁challenge	-13.1218
▁vne	-13.1219
▁science	-13.122
▁cagliari	-13.122
▁gartner	-13.122
▁kendall	-13.122
▁kyushu	-13.122
▁loáng	-13.122
▁nịt	-13.122
▁unicef	-13.122
▁salvador	-13.122
▁thomson	-13.122
▁adren	-13.122
▁vinmart	-13.122
▁hanoitimes	-13.122
▁oceanmart	-13.122
▁morrison	-13.122
▁maryland	-13.122
▁xcơ	-13.122
▁lức	-13.1221
▁technology	-13.1221
▁nusra	-13.1221
▁search	-13.1221
▁đuốc	-13.1221
▁canter	-13.1221
▁nhẽo	-13.1221
▁slide	-13.1222
▁mwg	-13.1224
▁money	-13.1225
▁water	-13.1231
un	-13.1233
▁rapha	-13.1237
▁khò	-13.1238
▁ngoi	-13.1256
▁6000	-13.1264
▁ttr	-13.1266
▁quệ	-13.127
▁ep	-13.1287
ihl	-13.1291
▁316	-13.1291
▁bụ	-13.1292
yoo	-13.1293
▁710	-13.1301
▁ttc	-13.1303
▁cash	-13.1324
▁thuy	-13.1332
ựu	-13.1334
▁vằn	-13.1347
▁aquino	-13.1349
▁atvslđ	-13.1349
▁biaksangzuala	-13.1349
▁indochina	-13.1349
▁sinmun	-13.1349
▁hashimoto	-13.1349
▁tđqt	-13.1349
▁halep	-13.1349
▁sushi	-13.1349
oglu	-13.1349
▁liban	-13.1349
▁vpop	-13.1349
▁usaid	-13.1349
▁nielsen	-13.1349
▁ndvn	-13.1349
▁kazan	-13.1349
▁hamburger	-13.1349
▁tuốt	-13.135
▁qik	-13.135
▁nùng	-13.135
▁vầy	-13.1351
▁gmc	-13.1352
iền	-13.1352
▁huang	-13.1353
89	-13.1356
▁haiyan	-13.1356
ru	-13.1359
▁sắng	-13.1359
antha	-13.1363
▁aster	-13.1363
▁plan	-13.1367
▁033	-13.1367
op	-13.1367
▁claudi	-13.137
▁nhẹt	-13.1375
▁lọn	-13.138
▁562	-13.1383
▁ext	-13.1387
wok	-13.1401
96	-13.141
▁333	-13.1412
ban	-13.142
▁wolf	-13.1421
▁gàu	-13.1435
au	-13.1446
tec	-13.1452
▁rom	-13.1455
ighton	-13.146
▁pct	-13.1465
▁sỏ	-13.1468
▁houthi	-13.1476
▁bsi	-13.1477
▁afellay	-13.1478
▁brisbane	-13.1478
▁douglas	-13.1478
▁eindhoven	-13.1478
▁sessegnon	-13.1478
▁wozniacki	-13.1478
▁genoa	-13.1478
▁atkinson	-13.1478
▁virut	-13.1478
▁knock	-13.1478
▁ngoặc	-13.1478
qkd	-13.1478
▁atlantic	-13.1479
▁southern	-13.1479
▁spears	-13.1479
▁lết	-13.1479
▁noãn	-13.1479
▁rưới	-13.1479
▁npk	-13.148
▁proton	-13.148
▁luta	-13.148
▁secc	-13.148
▁edge	-13.1481
▁hoóc	-13.1481
▁coco	-13.1483
▁bẫm	-13.1483
▁avg	-13.1485
tran	-13.1487
▁mhz	-13.1488
▁409	-13.1488
▁pena	-13.1493
▁skin	-13.1495
▁ngoc	-13.1499
rc	-13.1506
▁iq	-13.1507
mar	-13.1513
ếu	-13.1517
▁mứt	-13.1518
▁andreas	-13.1519
▁sev	-13.1522
▁eco	-13.1544
▁changi	-13.1546
09	-13.1547
zen	-13.1549
▁253	-13.1549
▁cbs	-13.1564
hóng	-13.1564
▁mé	-13.1569
01	-13.1572
▁416	-13.1577
min	-13.159
▁hiro	-13.1595
ah	-13.1599
master	-13.1599
su	-13.1604
▁thằn	-13.1608
▁vigo	-13.1608
hu	-13.161
▁alibaba	-13.161
▁carvajal	-13.161
▁cindy	-13.161
▁zabalet	-13.161
▁tweet	-13.161
▁jules	-13.161
▁samuel	-13.161
▁renault	-13.161
▁woodsland	-13.161
▁lloyd	-13.161
▁tulip	-13.161
▁gunners	-13.161
▁gáp	-13.1611
▁vietnamplus	-13.1611
▁wags	-13.1611
▁lụng	-13.1611
▁vivian	-13.1611
▁đttc	-13.1612
▁droid	-13.1612
fa	-13.1613
▁mánh	-13.1614
▁khuân	-13.1615
▁thinh	-13.1624
▁nhão	-13.1631
▁đềm	-13.1631
▁pvb	-13.1631
rs	-13.1636
▁davis	-13.1639
64	-13.1645
mart	-13.1648
hộp	-13.1654
▁nah	-13.1657
▁bun	-13.1659
▁yun	-13.1664
▁2021	-13.1669
▁sean	-13.1669
▁hom	-13.1686
▁sub	-13.1686
ol	-13.1692
▁add	-13.1704
▁er	-13.1706
▁bờm	-13.1721
▁rc	-13.1731
hgd	-13.1732
▁ngụm	-13.1737
dp	-13.1737
▁future	-13.1742
▁cantlie	-13.1743
▁chấu	-13.1743
▁fletcher	-13.1743
▁giovinco	-13.1743
▁gubarev	-13.1743
▁hudhud	-13.1743
▁murakami	-13.1743
▁qwerty	-13.1743
▁tornado	-13.1743
▁vktbkt	-13.1743
▁cortex	-13.1743
▁icardi	-13.1743
▁kindle	-13.1743
▁bitexco	-13.1743
▁tttđ	-13.1743
▁eiti	-13.1744
▁pvep	-13.1744
▁analog	-13.1744
▁citizens	-13.1744
▁nháp	-13.1745
▁woods	-13.1745
▁lủi	-13.1745
▁sound	-13.1746
▁force	-13.1746
▁datc	-13.1746
▁silver	-13.1746
▁mọt	-13.1746
▁aaa	-13.1747
▁utah	-13.1747
▁415	-13.1748
▁gout	-13.1752
▁lanka	-13.1759
▁sậm	-13.1761
▁ccn	-13.1762
▁vista	-13.1766
▁kẻng	-13.1767
▁368	-13.1771
▁toang	-13.1777
hy	-13.1785
▁fast	-13.1787
▁karen	-13.1791
▁sanga	-13.1796
▁cnc	-13.1803
▁231	-13.1811
ụp	-13.1818
41	-13.1818
▁px	-13.182
▁338	-13.182
▁ae	-13.1827
dot	-13.1837
▁rami	-13.1837
▁ubs	-13.1845
ning	-13.1849
▁cheo	-13.1852
mandy	-13.1853
ejo	-13.1857
▁trans	-13.186
▁grigor	-13.1875
▁cuồn	-13.1877
▁azzurri	-13.1878
▁firefox	-13.1878
▁gardner	-13.1878
▁hatchback	-13.1878
▁inzaghi	-13.1878
▁sofia	-13.1878
▁stanford	-13.1878
▁jimenez	-13.1878
▁munir	-13.1878
▁secoin	-13.1878
▁pistorius	-13.1878
▁downey	-13.1879
▁legging	-13.1879
▁giorgio	-13.1879
▁wiko	-13.1879
▁núc	-13.1879
▁suzy	-13.1879
▁sender	-13.1879
▁vbiz	-13.1879
▁saab	-13.1879
▁xốt	-13.188
▁parkson	-13.188
▁zăng	-13.1881
▁jeong	-13.1881
mc	-13.1881
▁mống	-13.1883
ini	-13.1884
▁centre	-13.1884
▁blake	-13.1884
▁riêu	-13.1886
▁bqt	-13.1889
▁răm	-13.1889
chan	-13.189
101	-13.1894
▁740	-13.1898
▁xix	-13.1899
▁hell	-13.1899
▁jerem	-13.19
▁leng	-13.1911
▁arj	-13.1914
hs	-13.1916
▁hills	-13.1919
▁demo	-13.1922
▁ớ	-13.1928
▁đtv	-13.1936
▁hủi	-13.1942
▁gá	-13.1957
▁459	-13.196
▁bond	-13.1972
▁môt	-13.1972
▁840	-13.1974
ẩy	-13.1975
rk	-13.1982
▁075	-13.1985
▁317	-13.1986
▁475	-13.199
▁dà	-13.1993
elta	-13.1994
▁264	-13.1994
▁nicol	-13.2003
▁252	-13.2004
▁gờ	-13.2011
▁buffet	-13.2014
▁gyu	-13.2014
▁champagne	-13.2015
▁hopkins	-13.2015
▁mumbai	-13.2015
▁odegaard	-13.2015
▁rompuy	-13.2015
▁vintage	-13.2015
▁đná	-13.2015
▁gignac	-13.2015
▁miguel	-13.2015
▁95078	-13.2015
▁cscđ	-13.2015
▁winter	-13.2015
▁queensland	-13.2016
▁broker	-13.2016
▁bsgđ	-13.2016
▁ghana	-13.2016
▁ozone	-13.2016
▁skyline	-13.2016
▁about	-13.2016
▁mascara	-13.2016
▁síp	-13.2017
▁honey	-13.2017
▁thỉu	-13.2017
▁lana	-13.2017
▁sumo	-13.2017
▁ibra	-13.2018
ese	-13.2018
▁khoải	-13.2018
▁sới	-13.2019
▁bvđ	-13.2021
▁finance	-13.2021
ablo	-13.2021
▁nít	-13.2021
▁ab	-13.2022
▁wonder	-13.2024
▁cube	-13.2027
▁apps	-13.2028
▁jordi	-13.2028
▁isi	-13.2029
▁870	-13.2038
▁grant	-13.2041
kh	-13.2045
▁rossi	-13.2048
per	-13.2057
▁cồ	-13.206
enberg	-13.2066
▁lia	-13.208
ez	-13.2084
stan	-13.2086
▁hal	-13.2093
▁get	-13.2095
▁gh	-13.2101
▁gate	-13.211
▁sil	-13.2113
▁327	-13.2114
▁par	-13.2116
▁fer	-13.2117
▁stars	-13.2121
nst	-13.2121
▁258	-13.2123
▁guu	-13.2124
▁243	-13.2132
ối	-13.2133
com	-13.2136
▁hana	-13.214
▁df	-13.2141
▁balo	-13.2143
wakefield	-13.2147
hục	-13.215
▁service	-13.2152
▁thỉ	-13.2153
▁ghề	-13.2154
141707	-13.2154
▁klizan	-13.2154
▁nikkei	-13.2154
▁interfax	-13.2154
▁baixu	-13.2154
▁hkphone	-13.2154
▁ibrahim	-13.2154
▁jenner	-13.2154
▁vsip	-13.2155
▁nẹt	-13.2156
▁button	-13.2158
▁gtx	-13.2159
▁fz	-13.216
▁nhản	-13.2172
▁thồ	-13.2178
▁byt	-13.2182
▁stephan	-13.2185
▁brit	-13.2196
rry	-13.2196
▁ricard	-13.2196
▁vincen	-13.2204
▁bum	-13.2212
▁luka	-13.2213
eila	-13.2214
zi	-13.2233
less	-13.2235
▁sale	-13.2237
ị	-13.2245
▁zero	-13.2245
▁770	-13.2247
▁nãy	-13.225
lia	-13.225
ku	-13.2252
▁091	-13.2252
lóe	-13.226
▁lù	-13.227
▁488	-13.2275
▁dig	-13.2275
▁rỗ	-13.2281
▁court	-13.2288
▁gorbachev	-13.2295
▁istanbul	-13.2295
▁lockheed	-13.2295
▁verizon	-13.2295
▁economist	-13.2295
▁nghía	-13.2295
▁mapping	-13.2295
▁zeise	-13.2295
▁intercontinent	-13.2295
▁cruise	-13.2295
▁clara	-13.2295
▁đoài	-13.2295
▁quạnh	-13.2295
▁fedex	-13.2295
▁csđttp	-13.2295
▁filler	-13.2296
▁marcus	-13.2296
▁cell	-13.2297
▁motion	-13.2297
▁tcct	-13.2297
▁bing	-13.2297
▁stefano	-13.2298
▁vựng	-13.2299
▁tráo	-13.2301
▁fighter	-13.2302
▁286	-13.2303
▁1932	-13.2303
▁nico	-13.2304
▁hdr	-13.2305
▁choạng	-13.2306
▁place	-13.2306
▁soft	-13.2308
▁uhd	-13.2309
▁rốc	-13.2314
▁barry	-13.2316
06	-13.2317
▁alexe	-13.2325
▁demi	-13.2328
islav	-13.2329
tan	-13.2333
▁antv	-13.2335
▁rama	-13.2344
hách	-13.2354
▁take	-13.2354
▁507	-13.2358
ju	-13.2362
▁pci	-13.2362
vas	-13.2372
liam	-13.2374
able	-13.2381
▁ric	-13.2392
250	-13.2393
uẩn	-13.2394
▁ev	-13.2398
▁diaz	-13.2402
71	-13.2404
▁292	-13.2408
▁trụy	-13.241
▁four	-13.2424
az	-13.2425
▁vê	-13.2437
▁match	-13.2437
▁609	-13.2437
▁clark	-13.2437
hammad	-13.2438
▁cleopatra	-13.2438
▁khorasan	-13.2438
▁matsushima	-13.2438
▁occupy	-13.2438
▁ospina	-13.2438
▁yvonne	-13.2438
▁digicity	-13.2438
▁alessandr	-13.2438
▁vidic	-13.2438
▁jefferson	-13.2438
▁fincher	-13.2438
▁virgin	-13.2438
▁gổ	-13.2438
▁folic	-13.2438
▁hawthorns	-13.2438
▁ebc	-13.2439
▁seul	-13.2439
▁vargas	-13.2439
▁muồi	-13.2439
▁cữu	-13.244
▁focus	-13.244
cio	-13.2441
▁sales	-13.2444
▁1931	-13.2445
69	-13.2445
▁vera	-13.2447
▁union	-13.2451
ius	-13.2456
tech	-13.2458
▁rating	-13.2462
▁toanh	-13.2469
▁human	-13.2476
▁cara	-13.2478
hiểm	-13.2478
02	-13.2479
liant	-13.2479
▁et	-13.2481
▁bid	-13.2489
▁312	-13.2491
ina	-13.2492
▁kai	-13.2497
▁ava	-13.2502
▁anton	-13.2506
oon	-13.2511
▁bae	-13.2519
▁337	-13.2521
▁322	-13.2527
▁hub	-13.2544
▁454	-13.2546
▁poly	-13.2546
▁sgd	-13.2548
akeup	-13.2552
▁chips	-13.2557
▁thím	-13.256
94	-13.2564
che	-13.2565
▁phillip	-13.2574
▁biker	-13.2582
▁schneider	-13.2583
▁avatelecom	-13.2583
▁boateng	-13.2583
▁icdrec	-13.2583
▁jumpsuit	-13.2583
▁montenegro	-13.2583
▁mustang	-13.2583
▁paparazzi	-13.2583
▁rượi	-13.2583
▁schmidt	-13.2583
▁vanessa	-13.2583
▁wembley	-13.2583
▁brooklyn	-13.2583
▁cyprus	-13.2583
▁abraham	-13.2583
▁flickr	-13.2583
▁techone	-13.2583
▁masaya	-13.2583
▁niềng	-13.2583
▁santiago	-13.2583
▁nacho	-13.2584
▁hoắc	-13.2584
▁lotus	-13.2584
▁jpy	-13.2586
▁1939	-13.2587
▁nice	-13.2588
▁copy	-13.2588
▁típ	-13.2589
▁msci	-13.2589
▁evra	-13.259
▁task	-13.2593
▁palm	-13.2597
▁megan	-13.2598
▁331	-13.26
▁side	-13.26
▁sủ	-13.2612
ller	-13.2613
▁281	-13.2626
91	-13.2629
yan	-13.2632
▁306	-13.2644
▁nail	-13.2646
▁dock	-13.2648
▁vice	-13.2649
▁cữ	-13.2658
ò	-13.2662
▁more	-13.2669
▁spam	-13.267
nor	-13.2675
▁398	-13.2686
eu	-13.2694
tek	-13.2698
dr	-13.27
▁495	-13.2705
ment	-13.2708
đồng	-13.2712
▁cushman	-13.2717
ber	-13.2717
ryong	-13.2723
▁trắ	-13.2724
▁408	-13.2724
uỗm	-13.2725
ăn	-13.2729
▁cocain	-13.2729
▁keyboard	-13.273
▁kimmese	-13.273
▁nicholas	-13.273
▁pennsylvania	-13.273
▁versace	-13.273
enzel	-13.273
▁cbpg	-13.273
▁kristen	-13.273
▁sunday	-13.273
▁essien	-13.273
▁đẩu	-13.273
▁nancy	-13.273
▁oliu	-13.273
▁only	-13.273
▁levine	-13.2731
▁tễnh	-13.2731
▁eiffel	-13.2731
▁tandtc	-13.2731
▁hỉ	-13.2732
▁kwang	-13.2733
▁nhọt	-13.2733
▁thvn	-13.2733
▁drag	-13.2734
▁masia	-13.2734
1200	-13.2737
▁malmo	-13.274
▁haines	-13.274
bury	-13.2746
▁glen	-13.2748
▁accord	-13.2758
▁gap	-13.2769
▁236	-13.277
af	-13.2772
▁nigel	-13.2775
men	-13.2776
▁tcn	-13.2778
ny	-13.2783
▁970	-13.2785
▁deep	-13.279
44	-13.2815
▁757	-13.2824
▁yan	-13.2827
▁565	-13.2835
▁nhó	-13.2843
▁649	-13.2844
don	-13.2853
▁427	-13.2855
▁lp	-13.2857
ick	-13.2857
▁nhè	-13.2869
fe	-13.2869
moto	-13.2869
út	-13.287
▁hoen	-13.2875
▁res	-13.2876
▁jeon	-13.2878
▁ajinomoto	-13.2879
▁aleppo	-13.2879
▁besiktas	-13.2879
▁hambali	-13.2879
▁ktstq	-13.2879
▁muslera	-13.2879
▁purgin	-13.2879
▁scooter	-13.2879
▁stereo	-13.2879
▁vissai	-13.2879
▁yzf	-13.2879
▁bordeaux	-13.2879
▁gunhee	-13.2879
▁mecca	-13.2879
oquoc	-13.2879
▁warner	-13.2879
▁bruno	-13.2879
▁vhnt	-13.2879
▁gợn	-13.288
▁melanin	-13.288
▁cabaye	-13.288
▁nature	-13.288
▁gallery	-13.2881
▁right	-13.2882
inamo	-13.2882
▁vfc	-13.2883
▁lóa	-13.2885
▁sbu	-13.2885
▁kỉnh	-13.2886
▁emerson	-13.2886
▁zaw	-13.2888
▁spring	-13.2891
▁đảnh	-13.2893
▁1280	-13.2901
▁martins	-13.2902
▁chề	-13.2905
▁masan	-13.2911
▁629	-13.2911
▁ir	-13.2919
ạc	-13.292
ds	-13.2921
▁multi	-13.2937
58	-13.2938
▁here	-13.2944
▁nikola	-13.2946
▁tor	-13.2948
dium	-13.2954
▁uế	-13.296
▁luy	-13.297
▁hand	-13.2971
▁huyen	-13.298
▁613	-13.2992
ử	-13.2996
may	-13.2998
▁plug	-13.3011
▁319	-13.3011
eung	-13.3012
evich	-13.3019
óc	-13.302
▁xv	-13.3021
▁benneteau	-13.3031
▁equalizer	-13.3031
▁islamabad	-13.3031
▁litvinov	-13.3031
▁shoigu	-13.3031
▁unilever	-13.3031
▁văcxin	-13.3031
▁trượng	-13.3031
▁dancesport	-13.3031
▁davutoglu	-13.3031
▁hkfs	-13.3031
▁parma	-13.3031
▁giồng	-13.3031
▁vietjetair	-13.3031
▁caribbean	-13.3031
▁diplomat	-13.3031
▁dustin	-13.3031
▁axít	-13.3031
▁vaart	-13.3031
▁prông	-13.3032
▁shield	-13.3032
▁cannes	-13.3032
▁thênh	-13.3032
▁hornet	-13.3032
▁plvn	-13.3033
▁gmd	-13.3033
▁kato	-13.3034
▁markets	-13.3034
▁weekly	-13.3034
▁kệch	-13.3036
▁sense	-13.304
▁village	-13.3042
▁pico	-13.3043
▁hms	-13.3044
▁paint	-13.3045
▁phiếm	-13.3048
▁sơmi	-13.305
▁mớm	-13.3051
▁bros	-13.3052
▁775	-13.3054
▁khấ	-13.3054
▁swan	-13.3054
▁bella	-13.3057
▁mbv	-13.3061
▁ky	-13.3062
tlt	-13.3071
▁604	-13.3071
▁dãn	-13.3082
▁cool	-13.3088
▁318	-13.3097
ova	-13.3101
tios	-13.3102
▁copa	-13.3104
▁gó	-13.3114
ốt	-13.3118
▁ptt	-13.3121
▁lego	-13.3125
▁cross	-13.314
asco	-13.315
▁eve	-13.3152
ita	-13.3153
▁010	-13.3155
▁excel	-13.3156
▁kara	-13.3164
▁sch	-13.3167
▁wat	-13.3168
▁come	-13.3168
▁cis	-13.3171
330	-13.3175
sat	-13.3176
▁1941	-13.3178
▁aux	-13.3184
▁columbia	-13.3185
▁liềm	-13.3185
▁mistura	-13.3185
▁photomarathon	-13.3185
▁pratova	-13.3185
▁rolex	-13.3185
▁slogan	-13.3185
▁sulli	-13.3185
▁wireless	-13.3185
▁gordon	-13.3185
▁jeep	-13.3185
▁yuchen	-13.3185
▁filipe	-13.3185
▁titanic	-13.3185
▁elvis	-13.3185
▁barbara	-13.3185
▁sistar	-13.3185
▁jtc	-13.3185
▁coleman	-13.3185
rhaps	-13.3185
▁rựa	-13.3185
erder	-13.3186
▁baggio	-13.3186
▁dnsg	-13.3186
▁kasper	-13.3187
▁dốt	-13.3187
▁hớp	-13.3188
▁đùn	-13.3192
▁dnt	-13.3192
▁rộp	-13.3192
▁loft	-13.3192
▁castro	-13.3193
28	-13.3194
▁hên	-13.3196
▁1943	-13.32
▁shuj	-13.3201
▁craig	-13.3201
▁soda	-13.3208
ee	-13.3208
logger	-13.3211
▁dả	-13.3212
ye	-13.3214
▁look	-13.3217
dy	-13.3217
èo	-13.3222
▁bỉm	-13.323
▁trư	-13.323
▁lima	-13.3238
▁case	-13.3241
ford	-13.3243
▁kìa	-13.326
▁tuýt	-13.3278
ường	-13.3284
ot	-13.3293
▁ngoa	-13.3295
▁mba	-13.3297
▁henri	-13.33
▁bmp	-13.3305
▁555	-13.3319
ul	-13.3319
▁617	-13.3323
wood	-13.3323
▁zi	-13.3325
▁nikon	-13.3334
▁forest	-13.3334
▁aqua	-13.3339
▁nhẽ	-13.334
unpon	-13.3341
▁huffington	-13.3341
▁annapurna	-13.3341
▁escalade	-13.3341
▁griezmann	-13.3341
▁illarramendi	-13.3341
▁laporte	-13.3341
▁magiê	-13.3341
▁prudential	-13.3341
▁sinjar	-13.3341
▁thermage	-13.3341
▁thyssenkrupp	-13.3341
▁xòa	-13.3341
▁zenit	-13.3341
xtrây	-13.3341
▁nhòe	-13.3341
▁cruiser	-13.3341
▁before	-13.3341
▁thãi	-13.3341
▁cạch	-13.3342
▁switch	-13.3342
▁thây	-13.3343
▁nớp	-13.3343
▁bamba	-13.3344
▁384	-13.3344
▁paco	-13.3344
▁ửng	-13.3344
▁ktnn	-13.3345
▁tớp	-13.3346
▁cesar	-13.3347
▁lùa	-13.3349
▁ttyt	-13.335
▁nct	-13.3352
▁pitch	-13.3352
▁hwa	-13.3354
▁tea	-13.3354
▁rên	-13.3354
ice	-13.3354
tic	-13.3357
▁chóp	-13.3359
▁joong	-13.336
▁596	-13.3362
▁phết	-13.3365
▁hard	-13.3366
▁zak	-13.3367
▁hòe	-13.3367
▁054	-13.3368
▁344	-13.3372
▁icc	-13.3373
▁keng	-13.3373
pi	-13.3377
▁asm	-13.3379
out	-13.3383
▁289	-13.3386
pm	-13.3388
▁bac	-13.3391
ở	-13.3392
viet	-13.3392
je	-13.3396
hard	-13.3403
▁ghim	-13.3405
▁api	-13.3416
xxx	-13.342
▁god	-13.3437
▁name	-13.3449
▁amon	-13.3456
▁378	-13.3472
ệu	-13.3472
minute	-13.3478
▁xó	-13.3479
▁402	-13.348
▁aps	-13.3484
▁tara	-13.3486
▁af	-13.3492
▁352	-13.3499
▁antoine	-13.35
▁charmvit	-13.35
▁eropa	-13.35
▁herzegovina	-13.35
▁khọm	-13.35
▁mubarak	-13.35
▁shakira	-13.35
▁udic	-13.35
▁vlxkn	-13.35
▁natuman	-13.35
▁sitcom	-13.35
▁chadli	-13.35
▁kosuke	-13.35
▁talkshow	-13.35
▁glucose	-13.35
▁acoustic	-13.35
▁tegra	-13.35
▁fdc	-13.35
▁nhuế	-13.3501
▁empoli	-13.3501
▁woman	-13.3501
▁trê	-13.3502
▁chửng	-13.3502
▁qsdđ	-13.3502
▁roland	-13.3502
elie	-13.3502
▁hannah	-13.3502
▁haruki	-13.3502
▁julien	-13.3503
▁mạp	-13.3505
▁yak	-13.3507
rúc	-13.351
▁tian	-13.351
▁282	-13.351
▁bagan	-13.3512
▁ruy	-13.3513
▁ttđt	-13.352
mon	-13.3526
▁277	-13.3528
▁bru	-13.3529
▁dien	-13.353
▁diếm	-13.3531
▁felici	-13.3539
▁massa	-13.354
ện	-13.3542
qg	-13.3553
▁377	-13.3554
yahu	-13.3558
▁mer	-13.3569
▁đtđ	-13.3571
ana	-13.3575
▁origi	-13.3577
▁bcc	-13.3579
ém	-13.3582
▁tree	-13.3585
ir	-13.3607
mex	-13.3619
ger	-13.3624
▁940	-13.3628
▁mú	-13.3638
▁prince	-13.3643
ville	-13.3654
912	-13.3655
▁pepsi	-13.3661
▁daimler	-13.3661
▁florent	-13.3661
▁geleximco	-13.3661
▁hangouts	-13.3661
▁hoffenheim	-13.3661
▁kolarov	-13.3661
▁kutcher	-13.3661
▁leyva	-13.3661
▁mizuhara	-13.3661
▁mohammed	-13.3661
▁monsanto	-13.3661
▁platinum	-13.3661
▁rắm	-13.3661
▁townsend	-13.3661
▁tripadvisor	-13.3661
▁british	-13.3661
▁handoff	-13.3661
▁sewol	-13.3661
▁bueno	-13.3661
▁mannschaft	-13.3661
▁ngáp	-13.3661
▁bbq	-13.3661
▁suzuka	-13.3661
▁earth	-13.3661
▁sunny	-13.3662
▁delph	-13.3662
▁hanel	-13.3662
▁đước	-13.3663
▁ngăm	-13.3663
▁kwan	-13.3663
▁party	-13.3664
▁landmark	-13.3665
▁ssl	-13.3665
▁nvt	-13.3666
▁trail	-13.3668
ray	-13.3668
▁998	-13.3669
▁hĩnh	-13.3669
▁rọi	-13.3671
▁ngấy	-13.3671
▁ocb	-13.3676
▁qe	-13.3677
▁joy	-13.3677
▁roberts	-13.3679
▁samba	-13.3683
▁dm	-13.3685
▁moo	-13.3685
ode	-13.3687
key	-13.3688
▁tsc	-13.3692
olivia	-13.3696
▁928	-13.3699
▁colin	-13.3712
▁java	-13.3721
▁lè	-13.3724
dad	-13.3732
▁dean	-13.3747
▁teng	-13.375
▁816	-13.3751
61	-13.3756
▁ian	-13.3763
▁gabriel	-13.3768
▁tửu	-13.3774
▁rogers	-13.378
▁336	-13.3784
ishop	-13.3785
▁seng	-13.3788
▁dark	-13.3793
▁iu	-13.3793
▁zin	-13.3794
ik	-13.3804
cher	-13.3804
jo	-13.3807
▁isamu	-13.3821
▁lipo	-13.3821
▁dđđt	-13.3825
▁ghì	-13.3825
▁homestay	-13.3825
▁lilama	-13.3825
▁mandzukic	-13.3825
▁mistral	-13.3825
▁moerner	-13.3825
▁penthouse	-13.3825
▁poseidon	-13.3825
▁robusta	-13.3825
▁sagna	-13.3825
▁thegioididong	-13.3825
▁udinese	-13.3825
▁đctt	-13.3825
▁burger	-13.3825
▁primary	-13.3825
▁sanogo	-13.3825
▁mirage	-13.3825
▁foley	-13.3825
▁naked	-13.3825
▁phonearena	-13.3825
▁whitman	-13.3825
▁trôm	-13.3825
▁barkley	-13.3825
▁volley	-13.3825
▁betzig	-13.3825
▁smile	-13.3825
▁durm	-13.3825
▁vermaelen	-13.3825
▁đhsp	-13.3826
▁mainz	-13.3826
▁frontier	-13.3826
▁robinson	-13.3826
▁ballet	-13.3827
▁cream	-13.3829
▁maidan	-13.3829
▁csis	-13.3829
▁dtz	-13.3829
▁poy	-13.3829
▁worth	-13.3835
▁569	-13.3843
▁pvl	-13.3848
▁dlg	-13.3849
▁franco	-13.385
bi	-13.3852
▁pti	-13.3861
ld	-13.3865
ow	-13.3865
▁dana	-13.3869
▁erik	-13.3887
▁544	-13.3892
▁phỉ	-13.3893
▁qt	-13.3903
▁indiana	-13.3909
rin	-13.3911
▁brook	-13.3912
ive	-13.3916
▁itc	-13.3927
ppe	-13.3927
▁facebooker	-13.393
ĩ	-13.3933
▁724	-13.3949
▁ein	-13.3958
ter	-13.3961
ruồng	-13.3964
▁fund	-13.3967
dan	-13.397
nic	-13.3973
199	-13.3977
▁partners	-13.3978
▁dove	-13.3988
▁hơ	-13.3988
▁rờ	-13.3989
▁airport	-13.399
▁apollo	-13.3991
▁boyfriend	-13.3991
▁doraemon	-13.3991
▁mccarthy	-13.3991
▁osprey	-13.3991
▁paraguay	-13.3991
▁shinkansen	-13.3991
▁gibraltar	-13.3991
▁nguời	-13.3992
▁huề	-13.3992
▁yeah	-13.3992
▁owen	-13.3992
▁andriy	-13.3992
▁sampdoria	-13.3992
▁dilma	-13.3992
▁gcnqsdđ	-13.3992
▁price	-13.3992
▁boris	-13.3992
▁magazine	-13.3992
▁football	-13.3992
▁chửa	-13.3992
mol	-13.3993
▁traphaco	-13.3993
▁ranger	-13.3993
▁voa	-13.3993
▁emory	-13.3993
▁vds	-13.3994
▁module	-13.3995
▁buttanavong	-13.3995
▁story	-13.3995
▁dặc	-13.3996
▁andrey	-13.3997
▁stream	-13.3998
▁just	-13.4
▁ibt	-13.4001
▁2048	-13.4002
▁bhd	-13.4002
▁oliver	-13.4003
▁ogd	-13.4004
▁aero	-13.4004
ich	-13.4004
▁vích	-13.4005
▁bcs	-13.4007
▁milik	-13.4009
▁rex	-13.4011
ula	-13.4011
▁995	-13.4014
car	-13.4021
▁bok	-13.4021
▁lynh	-13.4022
▁law	-13.4025
hành	-13.4027
ệ	-13.4029
▁klaas	-13.4031
ose	-13.4031
▁tuan	-13.4032
▁stone	-13.4034
▁phơ	-13.4035
ata	-13.4039
cs	-13.404
▁range	-13.4042
it	-13.4045
▁thtt	-13.4045
ef	-13.4049
▁485	-13.4051
qt	-13.4054
▁miu	-13.4056
▁001	-13.4056
▁cts	-13.4081
gd	-13.4082
▁suite	-13.4083
▁nike	-13.4096
▁465	-13.4101
iner	-13.4102
ski	-13.4115
pro	-13.4124
▁shock	-13.4128
▁329	-13.4138
post	-13.4148
▁hr	-13.4154
▁372	-13.4155
▁trạc	-13.4157
▁pê	-13.4159
▁holding	-13.4159
▁magic	-13.416
▁academy	-13.4161
▁chrysler	-13.4161
▁crescent	-13.4161
▁damascus	-13.4161
▁fernandez	-13.4161
▁hamsik	-13.4161
▁maqdis	-13.4161
▁missouri	-13.4161
▁nistelrooy	-13.4161
▁spiegel	-13.4161
▁adidas	-13.4161
▁columbus	-13.4161
▁sukhoi	-13.4161
▁nstw	-13.4161
▁collection	-13.4161
▁sinobar	-13.4161
▁baidu	-13.4161
▁franklin	-13.4161
▁koryo	-13.4161
▁jetro	-13.4161
▁thẫm	-13.4161
▁wedding	-13.4161
▁kabul	-13.4162
▁gẫm	-13.4162
▁dượt	-13.4162
▁magie	-13.4162
▁ttks	-13.4162
▁racing	-13.4163
▁stones	-13.4163
▁quyệt	-13.4164
▁koi	-13.4165
▁maybank	-13.4165
▁sbt	-13.4167
▁anbang	-13.4168
▁russian	-13.4168
▁petra	-13.4168
tc	-13.417
▁enzyme	-13.4173
▁kies	-13.4174
▁nhông	-13.4182
88	-13.4189
▁drama	-13.4192
▁duong	-13.4192
▁omar	-13.4193
▁eugeni	-13.4193
▁584	-13.4194
cp	-13.4195
▁578	-13.4196
▁pà	-13.4198
▁devi	-13.4201
▁339	-13.4218
▁idi	-13.4219
▁tele	-13.424
▁poor	-13.4241
▁chờn	-13.4241
▁675	-13.4242
▁515	-13.4245
lett	-13.4247
ge	-13.4248
▁lẹ	-13.4248
▁pit	-13.4256
▁trịch	-13.4274
mx	-13.4274
ựng	-13.4288
▁melo	-13.4289
du	-13.4292
▁lạn	-13.4306
▁beng	-13.4309
002	-13.4313
plus	-13.4314
respo	-13.4315
▁bur	-13.4315
▁citi	-13.433
▁mountain	-13.4332
▁capristo	-13.4333
▁dúi	-13.4333
▁gundogan	-13.4333
▁kinabalu	-13.4333
▁kuzya	-13.4333
▁lescott	-13.4333
▁phelps	-13.4333
▁ricciardo	-13.4333
▁rosicky	-13.4333
▁sytycd	-13.4333
▁vneconomy	-13.4333
▁đéc	-13.4333
▁hector	-13.4333
▁spyder	-13.4333
▁vitours	-13.4333
▁linux	-13.4333
▁spider	-13.4333
▁hecta	-13.4333
▁vietabank	-13.4333
▁algeria	-13.4333
▁mashup	-13.4333
▁gangnam	-13.4334
▁dennis	-13.4334
▁lucy	-13.4334
▁luna	-13.4334
▁giậm	-13.4335
▁adha	-13.4335
▁natalia	-13.4335
▁cocaine	-13.4335
▁bluechips	-13.4336
▁building	-13.4336
▁gmt	-13.434
▁lổng	-13.4342
▁nện	-13.4342
▁duke	-13.4344
▁easy	-13.4344
▁miều	-13.4344
▁449	-13.4344
▁bòn	-13.4347
▁gmp	-13.435
▁788	-13.435
▁vie	-13.435
▁vos	-13.4352
▁fm	-13.4352
▁kunis	-13.4355
▁vnah	-13.4357
▁kip	-13.4358
ọc	-13.4361
▁287	-13.4362
aya	-13.4363
town	-13.4366
▁538	-13.4369
▁half	-13.438
▁462	-13.4383
▁405	-13.4384
▁sos	-13.4384
▁psy	-13.4384
▁fuji	-13.4392
▁355	-13.4392
uta	-13.4394
▁shia	-13.4401
vi	-13.4404
horn	-13.4408
▁335	-13.4409
bs	-13.4422
▁lũi	-13.4432
▁khè	-13.4437
▁cape	-13.444
hd	-13.4441
ica	-13.4443
spa	-13.4451
▁papa	-13.4452
▁rin	-13.4465
▁ter	-13.4468
▁745	-13.4471
▁288	-13.4477
▁thayer	-13.4479
▁536	-13.4479
▁608	-13.448
▁006	-13.4482
▁284	-13.4493
▁giô	-13.4493
▁í	-13.4494
non	-13.4495
81	-13.45
▁vni	-13.4501
▁russia	-13.4504
▁transformer	-13.4507
▁bahrain	-13.4509
▁becamex	-13.4509
▁cillessen	-13.4509
▁ernest	-13.4509
▁hathaway	-13.4509
▁mitrovic	-13.4509
▁olympiakos	-13.4509
▁spirulina	-13.4509
▁symantec	-13.4509
▁xuyết	-13.4509
▁sandwich	-13.4509
▁yilmaz	-13.4509
▁ariston	-13.4509
▁guiness	-13.4509
▁hobbit	-13.4509
▁seattle	-13.4509
▁xklđ	-13.4509
▁russell	-13.4509
▁khđt	-13.4509
▁reset	-13.4509
▁what	-13.4509
▁nấng	-13.451
▁biogas	-13.451
▁nsut	-13.451
▁computer	-13.451
▁dylan	-13.451
▁alice	-13.451
▁panel	-13.4511
▁hụi	-13.4511
▁đìa	-13.4512
77	-13.4518
▁cax	-13.4523
▁đọa	-13.4527
▁cuông	-13.4527
▁516	-13.453
▁mtb	-13.4538
▁758	-13.4538
ins	-13.4544
▁200000	-13.4547
▁ricki	-13.4549
▁094	-13.4557
▁pai	-13.4559
tro	-13.456
▁còm	-13.4573
▁her	-13.4574
▁custom	-13.4574
saru	-13.458
▁cũn	-13.4582
▁andres	-13.4583
ea	-13.459
▁pat	-13.4601
▁hác	-13.4605
▁col	-13.4611
ship	-13.4627
obin	-13.463
▁wake	-13.4634
ella	-13.4639
▁amal	-13.4641
▁xiao	-13.4646
▁nhe	-13.4649
▁lx	-13.465
ặt	-13.4652
ham	-13.4657
▁hoon	-13.4658
gram	-13.4661
▁vac	-13.4666
▁mòng	-13.467
▁888	-13.4677
wanda	-13.4678
và	-13.468
▁ncl	-13.4681
hiềm	-13.4682
ichi	-13.4685
▁year	-13.4686
▁sandal	-13.4686
▁373	-13.4687
▁detroit	-13.4687
▁griffith	-13.4687
▁ladies	-13.4687
▁metropole	-13.4687
▁mozambique	-13.4687
▁mulsanne	-13.4687
▁oregon	-13.4687
▁sayyaf	-13.4687
▁cesena	-13.4687
▁orange	-13.4687
▁tesla	-13.4687
▁italisa	-13.4687
▁rickinger	-13.4687
▁bottas	-13.4687
▁prague	-13.4687
▁sector	-13.4687
▁staff	-13.4687
▁pullman	-13.4687
▁brunt	-13.4688
▁vitara	-13.4688
▁supersports	-13.4688
▁robbie	-13.4688
▁qtdnd	-13.4688
▁fsoft	-13.4688
▁blđtbxh	-13.4688
▁prada	-13.4688
▁emilio	-13.4689
▁five	-13.4689
▁antq	-13.4689
▁ihs	-13.4689
▁rangers	-13.4689
▁soài	-13.469
▁betty	-13.4691
▁kfc	-13.4691
eg	-13.4691
▁huong	-13.4692
▁phờ	-13.4692
▁mót	-13.4693
▁boer	-13.4693
▁jw	-13.4694
▁trust	-13.4696
▁sanna	-13.4696
▁vga	-13.4697
▁phat	-13.4698
▁ớn	-13.4698
young	-13.4699
▁rớm	-13.4699
▁privat	-13.4702
▁choạc	-13.4704
▁mil	-13.4718
ska	-13.4725
ant	-13.4726
▁gí	-13.4729
▁gran	-13.4733
bit	-13.4735
▁gonzal	-13.4737
▁388	-13.4744
▁color	-13.4746
▁marine	-13.4746
▁eto	-13.4751
▁xẻng	-13.4754
shire	-13.4754
oore	-13.4763
▁givi	-13.4768
bu	-13.4768
▁abt	-13.4776
▁bic	-13.478
▁zaza	-13.4781
▁346	-13.4786
▁ul	-13.479
▁hawk	-13.4798
▁santi	-13.48
ren	-13.4807
▁mars	-13.481
▁rọ	-13.4811
▁dó	-13.4811
▁pos	-13.4815
▁ku	-13.4815
▁rod	-13.4829
▁799	-13.483
▁shei	-13.483
▁403	-13.4838
▁atk	-13.4841
▁belle	-13.4845
▁dử	-13.4851
dine	-13.4861
sele	-13.4866
▁463	-13.4867
▁adebayor	-13.4869
▁benghazi	-13.4869
▁independent	-13.4869
▁lagarde	-13.4869
▁lebanon	-13.4869
▁lukashenko	-13.4869
▁scudder	-13.4869
▁sikorski	-13.4869
▁ttatxh	-13.4869
▁viêt	-13.4869
▁vnukovo	-13.4869
▁nượp	-13.4869
▁robbey	-13.4869
▁vissan	-13.4869
▁heinz	-13.4869
▁zeiss	-13.4869
▁patricia	-13.4869
▁fazio	-13.4869
▁kitty	-13.4869
▁sportbike	-13.4869
▁creed	-13.4869
▁phuket	-13.4869
▁aspire	-13.4869
▁cctv	-13.4869
▁scpe	-13.4869
▁hadico	-13.487
▁oracle	-13.487
▁cttc	-13.487
▁kno	-13.487
▁ttdl	-13.487
▁sậy	-13.487
▁pclb	-13.4871
▁cchc	-13.4871
▁techno	-13.4871
▁xụp	-13.4871
▁669	-13.4872
▁đăm	-13.4872
▁fmc	-13.4873
▁nghêu	-13.4874
▁bright	-13.4874
▁romeo	-13.4875
▁shinji	-13.4877
cb	-13.4882
▁lada	-13.4883
sio	-13.4884
▁polyp	-13.4885
▁fl	-13.4885
▁este	-13.4888
▁milos	-13.4889
▁moren	-13.489
pin	-13.4893
▁selen	-13.4895
▁khăm	-13.4895
▁645	-13.4899
▁404	-13.4902
▁342	-13.4902
▁332	-13.4903
▁xỉa	-13.4903
▁tcl	-13.491
rad	-13.491
▁franz	-13.4911
▁living	-13.4917
lab	-13.4923
▁885	-13.4923
93	-13.4929
▁eli	-13.4933
125	-13.4936
▁chổ	-13.4943
ưu	-13.4946
▁cas	-13.4947
▁ngan	-13.4948
▁wim	-13.495
▁es	-13.495
▁511	-13.495
▁vix	-13.495
▁bio	-13.4974
stein	-13.4975
lgd	-13.4982
▁cla	-13.4988
px	-13.4991
bl	-13.4994
▁abdel	-13.4994
▁ptc	-13.4994
ota	-13.5005
▁pol	-13.5007
▁uber	-13.5016
iếm	-13.504
▁ewa	-13.5042
▁426	-13.5043
▁sec	-13.5044
▁stan	-13.5045
▁joa	-13.5046
▁024	-13.505
▁hì	-13.5051
▁kay	-13.5051
ội	-13.5052
▁caulker	-13.5054
▁dicaprio	-13.5054
▁incirlik	-13.5054
▁metropolitan	-13.5054
▁mozart	-13.5054
▁oecd	-13.5054
▁rupee	-13.5054
▁verratti	-13.5054
▁aventador	-13.5054
▁gorilla	-13.5054
▁jimmy	-13.5054
▁janeiro	-13.5054
▁imove	-13.5055
▁truân	-13.5055
▁marussia	-13.5055
▁shtp	-13.5055
▁amur	-13.5055
▁nvcc	-13.5055
▁giver	-13.5055
▁flip	-13.5055
▁chường	-13.5055
▁ttlc	-13.5055
▁social	-13.5056
▁stda	-13.5056
▁kaki	-13.5056
▁webos	-13.5057
▁sandro	-13.5057
▁giũa	-13.5058
pen	-13.5058
▁liệm	-13.5058
▁lợm	-13.5058
▁rảo	-13.5058
▁wook	-13.5059
▁kiềng	-13.506
▁masha	-13.506
▁cầy	-13.506
▁bsr	-13.506
▁margaret	-13.5061
▁914	-13.5061
▁usss	-13.5061
▁troy	-13.5062
▁osman	-13.5064
▁aji	-13.5065
▁melia	-13.5066
▁oánh	-13.5067
▁rick	-13.5068
hen	-13.5072
▁coat	-13.5073
ura	-13.5078
▁ksa	-13.5079
▁ora	-13.508
▁siu	-13.5082
▁ie	-13.5084
pan	-13.5084
▁nhú	-13.5088
▁423	-13.509
▁kumar	-13.5092
▁loe	-13.5092
ire	-13.5096
▁abrams	-13.5096
▁rón	-13.5097
world	-13.5097
▁301	-13.5103
▁giãy	-13.5103
ure	-13.5104
▁vsa	-13.5105
▁gặ	-13.5107
▁314	-13.511
ver	-13.5114
dn	-13.5126
▁uột	-13.5127
▁005	-13.5143
▁hair	-13.5152
▁588	-13.5154
ec	-13.5161
▁437	-13.5169
▁0904	-13.5172
▁kean	-13.5173
▁ocha	-13.5174
▁mak	-13.5175
las	-13.5176
mo	-13.5178
▁dna	-13.5182
375	-13.5188
▁093	-13.5193
▁vaio	-13.5195
▁jonn	-13.52
▁vlog	-13.5202
▁lc	-13.5211
▁393	-13.5211
▁mân	-13.5211
ên	-13.522
ppi	-13.5232
ud	-13.5234
▁357	-13.5234
▁hans	-13.5236
field	-13.5239
▁xvii	-13.5239
▁367	-13.5239
▁ayl	-13.5241
▁potassium	-13.5243
141908	-13.5243
▁atvstp	-13.5243
▁boavista	-13.5243
▁brehme	-13.5243
▁ciputra	-13.5243
▁cortana	-13.5243
▁duerden	-13.5243
▁edinburgh	-13.5243
▁gdkhq	-13.5243
▁hokkaido	-13.5243
▁jersey	-13.5243
▁kalashnikov	-13.5243
▁kurdistan	-13.5243
▁montpellier	-13.5243
▁ortiz	-13.5243
▁olimpico	-13.5243
▁rocchi	-13.5243
▁haswell	-13.5243
▁nirbhay	-13.5243
▁adele	-13.5243
▁fecon	-13.5243
▁running	-13.5243
▁jacket	-13.5243
▁poco	-13.5243
▁rouge	-13.5243
▁lucky	-13.5244
▁giuse	-13.5244
▁fitch	-13.5244
▁nkis	-13.5244
▁excalibur	-13.5244
▁flowers	-13.5244
▁nelson	-13.5245
▁wood	-13.5245
▁pike	-13.5245
▁xẩy	-13.5245
▁extra	-13.5246
▁khxh	-13.5246
▁xuể	-13.5247
▁sbic	-13.5247
▁hospital	-13.5247
▁lém	-13.5248
▁nịch	-13.5248
▁fitness	-13.5248
▁fang	-13.5248
▁nhúm	-13.5249
▁ilbo	-13.5249
▁xép	-13.5249
▁uric	-13.525
▁laden	-13.525
▁hyori	-13.525
▁final	-13.5251
▁shyn	-13.5253
▁ksk	-13.5254
▁thóp	-13.5254
▁vicki	-13.5255
▁mri	-13.5263
▁cage	-13.5264
▁008	-13.5265
▁717	-13.527
▁hunt	-13.5271
▁326	-13.5273
▁tms	-13.5273
▁587	-13.5275
room	-13.5281
▁thien	-13.5286
▁alberto	-13.5289
▁1000000	-13.529
ona	-13.5291
▁xtin	-13.5301
▁rích	-13.5303
oh	-13.5307
▁queens	-13.5319
▁húp	-13.5319
▁suh	-13.5322
▁666	-13.5324
qp	-13.5325
▁santo	-13.5329
inch	-13.5331
▁thp	-13.5332
ách	-13.5334
▁439	-13.5341
▁435	-13.5342
▁uv	-13.5343
▁ryo	-13.5343
▁267	-13.5351
emek	-13.5354
eva	-13.5355
▁apc	-13.5357
ủng	-13.536
eda	-13.5361
▁vote	-13.5368
▁roth	-13.5372
▁trade	-13.5377
▁009	-13.539
▁659	-13.5397
▁cac	-13.5398
▁261	-13.5399
lyn	-13.5408
chq	-13.5415
▁ato	-13.542
mann	-13.5422
áy	-13.5427
▁476	-13.5429
▁direction	-13.5433
▁second	-13.5433
▁cạ	-13.5435
▁couture	-13.5435
▁detox	-13.5435
▁generation	-13.5435
▁microusb	-13.5435
▁pronto	-13.5435
▁security	-13.5435
▁stochastic	-13.5435
▁trấu	-13.5435
▁angkor	-13.5435
▁gyeonggi	-13.5435
▁moswc	-13.5435
▁shannon	-13.5435
▁ryder	-13.5435
▁software	-13.5435
▁whitney	-13.5435
▁juvederm	-13.5435
▁chennai	-13.5435
▁cordoba	-13.5435
▁rafale	-13.5435
▁oằn	-13.5436
▁csnd	-13.5436
▁bhtg	-13.5436
▁judo	-13.5436
▁mossad	-13.5436
▁hogan	-13.5436
▁848	-13.5436
▁ethanol	-13.5436
▁lipid	-13.5436
▁kaboul	-13.5436
▁knox	-13.5436
▁noah	-13.5437
▁oăm	-13.5437
▁cosplay	-13.5437
▁pia	-13.5438
▁stella	-13.5438
▁hope	-13.544
▁hyuk	-13.5441
▁flex	-13.5441
▁daewoo	-13.5442
▁611	-13.5444
▁nhãng	-13.5445
▁nhem	-13.5447
▁ngòm	-13.5447
▁tét	-13.5452
▁fran	-13.5455
▁nái	-13.5457
▁arseni	-13.5463
ịch	-13.5466
▁070	-13.5476
ích	-13.5478
▁bina	-13.5478
▁johns	-13.5482
art	-13.5483
lf	-13.5487
▁469	-13.5492
▁syr	-13.5492
▁nsc	-13.5492
▁nia	-13.5497
we	-13.5509
▁309	-13.5511
▁0909	-13.5515
▁juliet	-13.5524
▁middle	-13.5524
▁539	-13.5525
▁004	-13.5526
▁volke	-13.5529
▁269	-13.5531
fried	-13.5532
▁cmt	-13.5533
▁nhoi	-13.5535
sdc	-13.5535
▁ngọng	-13.5535
▁khảnh	-13.5537
▁778	-13.5538
▁060	-13.5545
▁two	-13.5546
nan	-13.556
▁hoc	-13.5564
times	-13.5564
ật	-13.5571
▁chee	-13.5571
▁alexandr	-13.5571
▁den	-13.5576
▁xiề	-13.5577
▁545	-13.5589
▁polo	-13.559
cl	-13.559
▁387	-13.559
onna	-13.5592
▁darre	-13.5606
▁1901	-13.561
▁tộ	-13.5612
▁812	-13.5613
fps	-13.5614
▁imp	-13.5616
isty	-13.562
band	-13.5623
í	-13.5623
▁supe	-13.5628
▁012	-13.5631
gnoli	-13.5631
▁marquez	-13.5631
▁blaugrana	-13.5631
▁cayenne	-13.5631
▁creative	-13.5631
▁heathrow	-13.5631
▁manquillo	-13.5631
▁roaming	-13.5631
▁schindler	-13.5631
▁darpa	-13.5631
▁bellerin	-13.5631
▁klose	-13.5632
▁ftse	-13.5632
▁nhoài	-13.5632
▁romario	-13.5632
▁ericsson	-13.5632
▁haute	-13.5632
▁quick	-13.5632
▁dynamic	-13.5632
hai	-13.5633
▁ttxd	-13.5633
▁hiroo	-13.5633
▁mutv	-13.5633
▁transformers	-13.5634
▁rươi	-13.5634
▁markin	-13.5634
▁report	-13.5635
▁riệp	-13.5637
▁lể	-13.5637
▁tuốc	-13.5637
▁thiềm	-13.5639
▁506	-13.5639
▁ole	-13.564
▁mếu	-13.564
▁zone	-13.5641
▁dw	-13.5641
▁foot	-13.5648
▁mono	-13.5649
▁sars	-13.565
▁rabia	-13.5653
▁drh	-13.5659
ertha	-13.5661
▁driver	-13.5661
▁kiss	-13.5662
▁ahn	-13.5666
▁ef	-13.5673
ram	-13.5679
▁have	-13.5681
▁gor	-13.5697
▁shan	-13.5701
ting	-13.5701
▁321	-13.5706
▁ott	-13.5709
ầy	-13.5711
73	-13.5712
38	-13.5717
▁close	-13.572
▁755	-13.572
▁769	-13.5741
▁303	-13.5741
▁fred	-13.5743
kit	-13.5748
▁533	-13.5751
▁576	-13.5753
▁448	-13.5757
▁cal	-13.576
▁364	-13.576
▁indi	-13.5763
▁chum	-13.577
▁529	-13.5784
▁slate	-13.5785
▁sheik	-13.5795
▁dam	-13.5795
lon	-13.5803
▁697	-13.5803
▁arda	-13.5804
ene	-13.5804
▁cf	-13.5808
media	-13.581
▁large	-13.5813
sh	-13.5819
vnd	-13.5821
▁734	-13.5822
▁ois	-13.5826
▁nệ	-13.5826
204	-13.5826
▁trườn	-13.583
▁citizen	-13.583
▁women	-13.5831
▁atalanta	-13.5831
▁benchmark	-13.5831
▁giụa	-13.5831
▁honduras	-13.5831
▁intermot	-13.5831
▁kucka	-13.5831
▁matuidi	-13.5831
▁notification	-13.5831
▁penelope	-13.5831
▁pharaoh	-13.5831
▁seaprodex	-13.5831
▁sotloff	-13.5831
▁steinmeier	-13.5831
▁clutch	-13.5831
▁piston	-13.5831
▁maroc	-13.5832
▁vinasun	-13.5832
▁beatbox	-13.5832
▁kangnam	-13.5832
▁classbook	-13.5832
▁hécta	-13.5832
▁clear	-13.5832
▁glow	-13.5832
▁popping	-13.5832
▁zen	-13.5832
▁onedrive	-13.5832
bient	-13.5832
▁thiếc	-13.5832
▁manager	-13.5832
▁835	-13.5832
▁channing	-13.5832
▁image	-13.5833
▁bhtn	-13.5833
▁help	-13.5833
▁pích	-13.5833
▁iot	-13.5833
▁nasri	-13.5834
▁cheryl	-13.5834
▁lủng	-13.5835
▁rmit	-13.5835
▁jenny	-13.5836
▁fico	-13.5837
▁mển	-13.584
▁avf	-13.584
▁xxi	-13.5841
▁hùn	-13.5841
▁katherine	-13.5841
▁thuân	-13.5842
▁valle	-13.5842
▁359	-13.5847
▁sonic	-13.5848
▁sên	-13.5857
▁383	-13.5863
▁obi	-13.5867
▁737	-13.5867
▁georgi	-13.5869
▁amoni	-13.587
▁nhk	-13.587
▁adi	-13.5872
▁ez	-13.5874
▁chosun	-13.5882
rij	-13.5884
van	-13.589
lph	-13.5896
▁652	-13.5911
mura	-13.5916
▁tango	-13.5916
ique	-13.592
ăng	-13.5922
tiva	-13.5923
pay	-13.5927
nikov	-13.5927
ăc	-13.5932
▁alla	-13.5936
▁lững	-13.5944
át	-13.5944
les	-13.5945
▁giòi	-13.5947
aggie	-13.5948
▁444	-13.5953
▁ngh	-13.5957
▁0942	-13.5964
▁mor	-13.5969
▁343	-13.597
▁frans	-13.5996
▁ctđ	-13.5999
▁rsi	-13.6003
nes	-13.6006
ữ	-13.6011
▁fps	-13.6012
▁988	-13.6022
▁307	-13.6027
▁main	-13.6031
▁arnold	-13.6036
▁cabriolet	-13.6036
▁carbohydrate	-13.6036
▁floyd	-13.6036
▁hỡi	-13.6036
▁izumo	-13.6036
▁jyj	-13.6036
▁kenyatta	-13.6036
▁khhgđ	-13.6036
▁photocopy	-13.6036
▁rưởi	-13.6036
▁sorento	-13.6036
▁tajikistan	-13.6036
▁ảrập	-13.6036
▁aarm	-13.6036
▁huntington	-13.6036
▁khalifa	-13.6036
▁siemens	-13.6036
▁crouch	-13.6036
▁orbiter	-13.6036
▁saigontourist	-13.6036
▁95032	-13.6036
▁country	-13.6036
▁sportback	-13.6036
▁bowling	-13.6036
▁kyle	-13.6036
▁ruud	-13.6036
▁fortuner	-13.6036
▁icao	-13.6036
▁scarlett	-13.6036
▁thaek	-13.6036
▁ayun	-13.6037
▁nsx	-13.6038
▁marou	-13.6038
zek	-13.6039
▁đuông	-13.6039
▁slow	-13.6039
▁seok	-13.604
▁mont	-13.6041
▁tourist	-13.6042
▁elle	-13.6043
▁1937	-13.6044
▁rico	-13.6045
▁bis	-13.6047
▁chạ	-13.6047
▁rương	-13.6047
▁413	-13.6048
ệch	-13.605
▁cj	-13.6053
▁tđcs	-13.6053
▁phới	-13.6056
▁513	-13.6056
▁hba	-13.606
928	-13.6063
om	-13.6067
▁shot	-13.6068
▁436	-13.607
▁cưn	-13.6072
▁bosc	-13.6074
▁ry	-13.6074
▁kc	-13.6079
▁ngâu	-13.6083
▁yulia	-13.6083
▁cdn	-13.6087
▁291	-13.6097
▁thớ	-13.6107
port	-13.6108
eforce	-13.6121
▁wind	-13.6123
▁bẹ	-13.6136
▁bil	-13.614
roon	-13.615
sl	-13.6156
gan	-13.616
▁kr	-13.6161
ase	-13.6163
uku	-13.6174
▁chác	-13.6176
▁502	-13.618
gh	-13.6181
▁khat	-13.6189
ình	-13.6191
▁263	-13.6192
bach	-13.6193
eaf	-13.6195
oóc	-13.6196
ero	-13.6199
bb	-13.6206
▁rafa	-13.6209
tti	-13.621
▁ryu	-13.6215
▁db	-13.6224
thanh	-13.6228
▁olive	-13.6233
▁334	-13.6237
ington	-13.624
235	-13.6241
▁denis	-13.6243
▁read	-13.6243
▁command	-13.6243
▁fall	-13.6243
▁caribe	-13.6244
▁abdulrahma	-13.6244
▁alcantara	-13.6244
▁augsburg	-13.6244
▁boomsound	-13.6244
▁carletto	-13.6244
▁guingamp	-13.6244
▁illinois	-13.6244
▁jyp	-13.6244
▁kathmandu	-13.6244
▁kukushkin	-13.6244
▁nịu	-13.6244
▁professional	-13.6244
▁recaap	-13.6244
▁securities	-13.6244
▁spirit	-13.6244
▁stoyanov	-13.6244
▁vinmec	-13.6244
▁cruzeiro	-13.6244
▁fendi	-13.6244
▁hahnul	-13.6244
▁judge	-13.6244
▁nevada	-13.6244
▁johansson	-13.6244
▁stanley	-13.6244
▁again	-13.6244
▁goetze	-13.6244
▁ottoman	-13.6244
▁adiva	-13.6244
▁burj	-13.6244
▁viagra	-13.6244
▁abbe	-13.6244
▁pound	-13.6244
▁zalora	-13.6244
▁winner	-13.6244
▁nhtw	-13.6244
▁adapt	-13.6245
▁princess	-13.6245
▁yaris	-13.6245
▁cites	-13.6245
▁myung	-13.6245
▁graphics	-13.6246
▁nnvn	-13.6246
▁howo	-13.6246
▁holic	-13.6247
▁hói	-13.6247
▁iea	-13.6248
▁olympia	-13.6248
▁thẩn	-13.6248
▁sẩm	-13.6253
▁tfa	-13.6255
▁korean	-13.6255
▁acbs	-13.6259
▁chỏ	-13.626
onie	-13.6264
▁khuâng	-13.6266
▁276	-13.6266
▁singh	-13.6266
▁rui	-13.6267
pt	-13.6268
▁297	-13.6271
▁dề	-13.6275
bat	-13.6281
▁bua	-13.6282
for	-13.6283
ish	-13.6283
▁carolin	-13.6284
▁siem	-13.6293
yeon	-13.6296
▁shake	-13.6297
▁khuy	-13.6313
▁carol	-13.6315
▁allian	-13.6316
xl	-13.6316
▁sat	-13.6319
▁qc	-13.6321
▁hamlet	-13.6326
▁729	-13.6327
▁wp	-13.6328
▁reed	-13.6333
▁monte	-13.6341
▁henin	-13.6341
▁379	-13.6341
▁nhẹm	-13.6347
▁674	-13.6353
▁mòi	-13.6356
▁phẩ	-13.6357
▁how	-13.6357
▁layer	-13.636
▁371	-13.6367
dar	-13.637
mttq	-13.6371
▁vạng	-13.6374
▁dole	-13.6378
mer	-13.6387
▁far	-13.639
sđt	-13.6395
lv	-13.6403
pol	-13.6409
▁agr	-13.6417
▁yoshi	-13.6421
▁aa	-13.6422
▁gaz	-13.6427
ite	-13.6433
▁marian	-13.6434
mobile	-13.6438
▁vẻn	-13.6442
bic	-13.6445
▁hara	-13.6451
▁hâu	-13.6452
ằm	-13.6454
▁ngoằn	-13.6455
▁window	-13.6455
▁ping	-13.6456
▁brasil	-13.6457
▁bêtông	-13.6457
▁ciudad	-13.6457
▁convertible	-13.6457
▁degeneres	-13.6457
▁goethe	-13.6457
▁montreal	-13.6457
▁radcliffe	-13.6457
▁rainbow	-13.6457
▁schulz	-13.6457
▁timmermans	-13.6457
▁tĩu	-13.6457
▁violin	-13.6457
▁brahmos	-13.6457
▁kimono	-13.6457
▁copenhagen	-13.6457
▁iriz	-13.6457
▁nestle	-13.6457
▁title	-13.6457
▁dnepr	-13.6457
▁florenzi	-13.6457
▁rudiger	-13.6457
▁hđmb	-13.6457
▁htnd	-13.6457
▁audition	-13.6457
▁abbank	-13.6457
▁ellison	-13.6457
▁christina	-13.6457
▁pastore	-13.6457
▁depot	-13.6457
▁gwen	-13.6457
▁experience	-13.6457
▁phầm	-13.6457
▁brothers	-13.6458
▁bento	-13.6458
▁chồm	-13.6459
▁tmz	-13.6459
▁giles	-13.6459
▁things	-13.6459
▁bnv	-13.646
▁sarita	-13.646
▁urban	-13.6462
▁ộp	-13.6463
▁1942	-13.6464
▁rĩ	-13.6464
▁tăn	-13.6464
vc	-13.6467
▁gardens	-13.6467
▁ké	-13.6469
▁én	-13.647
▁9999	-13.6472
nny	-13.6474
▁allah	-13.6476
▁sto	-13.6477
▁rosa	-13.6477
din	-13.6478
▁aegis	-13.6481
▁tiễu	-13.6486
signe	-13.6486
ate	-13.649
▁453	-13.6491
▁479	-13.6492
▁ver	-13.6495
lg	-13.6495
cn	-13.6496
có	-13.6496
▁016	-13.6501
▁our	-13.6502
▁cườm	-13.6506
▁972	-13.6507
▁dp	-13.651
▁ets	-13.6512
▁gla	-13.6513
▁xhh	-13.6514
▁382	-13.6521
▁jacob	-13.6533
▁031	-13.6534
▁pac	-13.6534
oo	-13.6534
▁gong	-13.6543
▁julie	-13.6545
ọp	-13.6554
▁lei	-13.6557
▁deir	-13.6558
▁mx	-13.6559
lester	-13.6559
hp	-13.6559
▁658	-13.6564
wan	-13.6566
▁manga	-13.6567
▁719	-13.6568
5000	-13.6574
▁iig	-13.6574
▁bl	-13.6579
pire	-13.658
▁bridges	-13.6582
▁aw	-13.6583
▁soha	-13.6586
vich	-13.6593
tafe	-13.6593
▁hv	-13.6594
gia	-13.6599
ue	-13.6599
▁855	-13.6606
▁gile	-13.6606
erson	-13.6607
▁552	-13.6607
▁807	-13.661
king	-13.6612
▁august	-13.6617
hdqt	-13.6621
iêu	-13.663
fu	-13.6631
▁legend	-13.6632
▁nino	-13.6636
gang	-13.6641
▁lid	-13.6642
ậu	-13.6642
tory	-13.6646
▁bui	-13.6647
sin	-13.6651
▁oxi	-13.6655
▁she	-13.6662
▁wid	-13.6662
▁hormon	-13.6665
can	-13.6668
▁jesse	-13.667
▁extension	-13.6672
▁thăn	-13.6673
▁bauxit	-13.6673
▁bautista	-13.6674
▁benitez	-13.6674
▁cedemex	-13.6674
▁corriere	-13.6674
▁déc	-13.6674
▁flanagan	-13.6674
▁kopacz	-13.6674
▁orlando	-13.6674
▁oviedo	-13.6674
▁pacquiao	-13.6674
▁peshmerga	-13.6674
▁quaresma	-13.6674
▁rosamund	-13.6674
▁turmero	-13.6674
▁yudhoyono	-13.6674
▁adolf	-13.6674
▁faroe	-13.6674
▁giadinhonline	-13.6674
▁madonna	-13.6674
▁morsi	-13.6674
▁wisconsin	-13.6674
▁lutein	-13.6674
▁schneiderlin	-13.6674
▁harisu	-13.6674
llinger	-13.6674
▁seagate	-13.6674
▁alaba	-13.6674
▁bailey	-13.6674
▁folder	-13.6674
▁yorkshire	-13.6675
▁hew	-13.6675
▁nhiếc	-13.6675
▁mills	-13.6675
▁bolt	-13.6675
▁oichi	-13.6675
▁corporation	-13.6676
▁campus	-13.6676
▁quắt	-13.6676
▁herald	-13.6677
▁satya	-13.6677
▁musk	-13.6677
▁services	-13.6677
▁where	-13.6678
▁sync	-13.6678
▁vdb	-13.6679
wind	-13.6679
▁thunder	-13.668
▁kota	-13.6681
▁hahah	-13.6681
▁sand	-13.6682
▁raider	-13.6685
▁walt	-13.6688
▁disk	-13.6688
tch	-13.6693
▁novo	-13.6694
▁smc	-13.6698
▁sls	-13.67
▁btp	-13.6703
▁caosu	-13.6703
▁ched	-13.6704
▁leste	-13.6705
▁falcon	-13.6711
▁mố	-13.6712
▁rosen	-13.6713
kcb	-13.6713
▁fob	-13.6717
▁vas	-13.6727
▁nara	-13.6728
▁beck	-13.6732
▁tẩn	-13.6734
ito	-13.6736
▁rắp	-13.6739
▁553	-13.6745
37	-13.6747
▁2500	-13.6752
▁557	-13.6753
lla	-13.6755
▁381	-13.6756
óm	-13.6758
372	-13.6761
▁loi	-13.6765
▁manor	-13.6769
chenko	-13.6771
▁lag	-13.6774
ida	-13.6785
▁cpa	-13.6791
▁411	-13.6791
ola	-13.6793
thal	-13.68
▁list	-13.6801
▁nim	-13.6803
▁mọ	-13.6817
▁002	-13.6818
▁jc	-13.682
si	-13.6821
ới	-13.6822
▁abi	-13.6823
hòm	-13.6825
▁ré	-13.6827
▁lip	-13.6829
vis	-13.6831
▁283	-13.6835
ềnh	-13.6835
▁456	-13.6836
▁626	-13.6844
▁inca	-13.6846
▁407	-13.6847
▁gtn	-13.6851
▁0903	-13.6853
▁dx	-13.6859
▁731	-13.6872
berry	-13.6873
▁mề	-13.6875
▁pp	-13.6888
ag	-13.6888
▁hydro	-13.6891
▁quặn	-13.6894
▁445	-13.6895
▁chxhcn	-13.6896
▁aspirin	-13.6896
▁cassette	-13.6896
▁caughtoffside	-13.6896
▁jayalalitha	-13.6896
▁klimkin	-13.6896
▁vndirect	-13.6896
▁wojciech	-13.6896
▁bonsai	-13.6896
▁hwayoung	-13.6896
▁karlovic	-13.6896
▁volvo	-13.6896
▁woodward	-13.6896
▁wsj	-13.6896
▁huôi	-13.6896
▁mcqueen	-13.6896
▁tddc	-13.6896
▁fixed	-13.6896
▁hutech	-13.6896
onymo	-13.6896
▁feyenoord	-13.6896
▁ijc	-13.6897
▁county	-13.6897
▁barclays	-13.6897
▁qian	-13.6897
▁webcam	-13.6897
▁webplayer	-13.6897
▁ctrl	-13.6897
▁cohen	-13.6897
▁vức	-13.6897
▁wreck	-13.6897
▁otc	-13.6897
▁bgm	-13.6897
▁vector	-13.6898
▁youth	-13.6898
▁macao	-13.6898
▁material	-13.6898
▁đs	-13.6898
▁ghiền	-13.6898
▁ndf	-13.69
▁giôn	-13.6901
▁coọc	-13.6901
▁cộp	-13.6901
▁idp	-13.6902
▁systems	-13.6902
▁carat	-13.6904
▁lèng	-13.6905
▁tccn	-13.6906
alp	-13.6906
▁dắc	-13.6908
▁bằm	-13.6908
ible	-13.691
zin	-13.691
▁đak	-13.6917
▁ctr	-13.6919
▁chul	-13.6921
▁meg	-13.6921
▁ỉm	-13.6922
▁nafiq	-13.6923
▁hoy	-13.6928
▁2023	-13.6933
▁jurg	-13.6943
▁self	-13.6946
ten	-13.6949
dhra	-13.695
▁1400	-13.6958
▁vand	-13.6958
▁wild	-13.6959
wu	-13.6962
▁chime	-13.6965
▁mama	-13.6971
met	-13.6974
▁bts	-13.6976
▁evnnp	-13.698
▁caen	-13.6988
▁059	-13.7004
▁464	-13.7009
▁ig	-13.7015
▁universe	-13.702
▁493	-13.7023
▁qi	-13.7026
▁marcel	-13.7027
long	-13.703
▁nhắng	-13.7031
▁hac	-13.7038
oò	-13.7046
▁pot	-13.7048
▁zoe	-13.7051
▁boss	-13.7056
▁linda	-13.7057
▁bou	-13.7058
▁787	-13.7059
▁eng	-13.7061
▁0936	-13.7062
▁jasmin	-13.7062
bt	-13.7073
▁wing	-13.7074
all	-13.7074
▁marchi	-13.7077
▁442	-13.7079
▁397	-13.7079
▁273	-13.708
▁tco	-13.709
ala	-13.7096
▁gul	-13.7105
wi	-13.7115
▁ngùn	-13.7122
▁665	-13.7122
▁ilovaisk	-13.7124
▁chicilon	-13.7124
▁crawford	-13.7124
▁dorrans	-13.7124
▁galileo	-13.7124
▁iraizoz	-13.7124
▁jammu	-13.7124
▁leipzig	-13.7124
▁moskal	-13.7124
▁oranje	-13.7124
▁paderborn	-13.7124
▁paypal	-13.7124
▁signature	-13.7124
▁simoncini	-13.7124
▁svetlana	-13.7124
▁sôcôla	-13.7124
▁tẹo	-13.7124
▁zhunyi	-13.7124
▁hangeng	-13.7124
▁marcelinho	-13.7124
▁packard	-13.7124
▁public	-13.7124
▁zaragoza	-13.7124
▁aerobic	-13.7124
▁josé	-13.7124
▁seongnam	-13.7124
▁abadi	-13.7124
▁stosur	-13.7124
▁bahnar	-13.7124
▁rumani	-13.7124
▁kruger	-13.7124
▁liverani	-13.7124
▁everest	-13.7124
▁nitơ	-13.7124
▁install	-13.7124
▁raptor	-13.7124
▁smartcom	-13.7124
▁sylvie	-13.7124
▁naomi	-13.7124
▁disneyland	-13.7124
▁technologies	-13.7124
▁vđl	-13.7124
▁trench	-13.7124
▁brca	-13.7124
▁eduardo	-13.7124
▁patek	-13.7124
▁bartra	-13.7124
▁lậy	-13.7124
▁options	-13.7124
▁emmanuel	-13.7124
▁100000	-13.7124
▁tebas	-13.7124
▁nđtnn	-13.7125
▁danielle	-13.7125
▁harrison	-13.7125
▁bloom	-13.7125
▁psb	-13.7125
▁dijk	-13.7125
▁warsaw	-13.7126
▁has	-13.7126
▁docomo	-13.7126
▁sprint	-13.7126
▁núng	-13.7127
▁upham	-13.7127
▁tile	-13.7129
▁mauro	-13.7129
▁truồng	-13.7133
▁divo	-13.7133
▁afd	-13.7134
▁khoắng	-13.7139
▁walker	-13.714
▁nishik	-13.715
▁nicola	-13.7151
▁lemon	-13.7154
ut	-13.7155
▁348	-13.7155
▁713	-13.7158
▁sym	-13.7158
▁7000	-13.7161
gu	-13.7162
▁snow	-13.7164
▁tuyet	-13.7166
▁nas	-13.7171
▁rần	-13.7172
▁302	-13.7173
▁guy	-13.7173
▁za	-13.7173
▁zo	-13.7175
▁806	-13.7176
▁751	-13.7183
▁395	-13.7184
▁fcn	-13.7188
▁federic	-13.7188
▁kao	-13.7191
▁gig	-13.7191
irish	-13.7195
▁banks	-13.7201
sy	-13.7201
tvqh	-13.7209
▁vmi	-13.7209
▁tủa	-13.7213
zan	-13.7217
▁tata	-13.7218
▁fn	-13.7234
ricio	-13.7238
▁blu	-13.7244
assan	-13.7247
▁ngụt	-13.7249
▁glenn	-13.7251
tiago	-13.7253
jima	-13.7254
▁tuk	-13.7256
ide	-13.7256
▁joan	-13.7267
lby	-13.7276
▁473	-13.728
ssa	-13.7281
▁bran	-13.7286
▁cep	-13.729
iennhi	-13.7292
▁bak	-13.7294
▁baker	-13.7295
▁mag	-13.7298
yo	-13.7302
▁mangan	-13.7305
▁chuy	-13.7317
▁rue	-13.7325
▁championship	-13.7354
▁mancin	-13.7356
▁baggy	-13.7356
▁basque	-13.7356
▁bazaar	-13.7356
▁cleveland	-13.7356
▁fraser	-13.7356
▁gulfstream	-13.7356
▁kansai	-13.7356
▁kihno	-13.7356
▁kozacik	-13.7356
▁laferrari	-13.7356
▁levofloxacin	-13.7356
▁micheal	-13.7356
▁oculus	-13.7356
▁tatarstan	-13.7356
▁tomahawk	-13.7356
▁zurich	-13.7356
▁agency	-13.7356
▁amidan	-13.7356
▁icaew	-13.7356
▁bergling	-13.7356
▁fiesta	-13.7356
▁virút	-13.7356
▁guzman	-13.7356
▁aziz	-13.7356
▁citroen	-13.7356
▁monster	-13.7356
▁playstation	-13.7356
▁điếng	-13.7356
▁aquo	-13.7356
▁quằn	-13.7356
▁maldini	-13.7356
▁interpol	-13.7356
▁pull	-13.7356
▁kclo	-13.7356
▁myhill	-13.7356
▁hammond	-13.7356
▁đrăng	-13.7356
▁nauy	-13.7356
▁fsb	-13.7356
▁chronicles	-13.7357
▁pharrell	-13.7357
▁mccain	-13.7357
▁plastic	-13.7358
▁heather	-13.7358
▁muốt	-13.7358
rer	-13.7358
▁alexandra	-13.7358
▁quắp	-13.7359
▁bjc	-13.7359
▁thềnh	-13.7359
▁balô	-13.7359
▁vfm	-13.7361
▁mooc	-13.7364
ẻo	-13.7364
▁téc	-13.7364
▁1936	-13.7365
▁653	-13.7366
ernst	-13.7368
▁dolly	-13.7369
yama	-13.7369
▁gregor	-13.7372
▁bugi	-13.7374
▁863	-13.7374
beit	-13.7378
▁944	-13.7379
▁xenon	-13.738
▁lãn	-13.7382
▁penny	-13.7382
▁upu	-13.7383
▁save	-13.7383
▁pong	-13.7384
▁561	-13.7385
▁nhép	-13.7385
tutu	-13.7394
▁487	-13.7395
62	-13.7396
▁574	-13.7399
▁camel	-13.7403
▁bea	-13.7404
▁yes	-13.7407
▁farm	-13.7408
êu	-13.7411
▁masa	-13.7413
▁mhb	-13.7414
▁xuan	-13.7417
apua	-13.7427
▁oang	-13.7429
lt	-13.7435
▁clic	-13.7436
▁phìn	-13.7437
▁viac	-13.7437
▁ned	-13.7438
7001	-13.7438
ful	-13.7442
ance	-13.7442
iệp	-13.7447
tm	-13.745
lian	-13.745
▁bsa	-13.7453
trong	-13.7458
▁bsh	-13.7459
▁nhít	-13.7464
▁lẽn	-13.7464
▁typh	-13.7467
ride	-13.7469
▁bag	-13.7471
bis	-13.7472
▁cod	-13.7473
▁dak	-13.7476
raj	-13.7481
ôn	-13.7486
▁293	-13.7486
▁351	-13.7496
▁gif	-13.7496
ess	-13.7499
colm	-13.7504
▁coli	-13.7508
▁doha	-13.7511
yves	-13.7517
pl	-13.7523
▁535	-13.7524
▁aip	-13.7534
▁norman	-13.754
▁panh	-13.7543
tex	-13.7543
sman	-13.7545
▁burn	-13.7545
chao	-13.755
iel	-13.7552
light	-13.7554
▁494	-13.7555
▁556	-13.7559
▁uni	-13.7559
▁ktt	-13.7568
dau	-13.7571
eryl	-13.7572
▁mế	-13.7573
▁hooc	-13.7576
▁khem	-13.7578
mac	-13.7578
▁369	-13.7582
▁ala	-13.7586
▁433	-13.7593
▁537	-13.7593
▁special	-13.7593
▁caballero	-13.7594
▁gibson	-13.7594
▁kumsusan	-13.7594
▁limousine	-13.7594
▁panorama	-13.7594
▁patriot	-13.7594
▁ringgit	-13.7594
▁samnec	-13.7594
▁shellshock	-13.7594
▁tombstones	-13.7594
▁viêc	-13.7594
▁zagreb	-13.7594
▁citigroup	-13.7594
▁crazy	-13.7594
▁faith	-13.7594
▁freedom	-13.7594
▁outlander	-13.7594
▁minaj	-13.7594
▁yamato	-13.7594
▁shizuka	-13.7594
▁vpbs	-13.7594
▁sparta	-13.7594
▁rashid	-13.7594
▁societ	-13.7594
▁bridgestone	-13.7594
▁giầu	-13.7594
▁firmware	-13.7594
▁bankplus	-13.7594
▁bđvn	-13.7594
▁version	-13.7595
▁noxh	-13.7595
▁peel	-13.7595
▁swarovski	-13.7595
▁natural	-13.7595
▁cheese	-13.7595
▁samson	-13.7595
▁lennon	-13.7595
▁lpr	-13.7596
▁dớp	-13.7596
▁snap	-13.7596
▁elig	-13.7597
▁rịn	-13.7597
▁agni	-13.7597
▁wap	-13.7597
▁ttll	-13.7597
▁gyl	-13.7598
▁karolin	-13.76
▁ebd	-13.76
▁ufo	-13.7601
▁gộc	-13.7602
▁marty	-13.7602
▁mẩy	-13.7603
avus	-13.7603
▁rỉnh	-13.7603
▁rọc	-13.7604
▁gẫu	-13.7604
▁kbs	-13.7607
▁kane	-13.7608
▁forde	-13.7609
▁lit	-13.7613
▁fcc	-13.7617
▁cir	-13.762
iya	-13.762
illo	-13.762
▁773	-13.7623
▁quạ	-13.7625
▁rây	-13.7628
her	-13.7637
edan	-13.7638
halid	-13.7639
▁735	-13.764
ware	-13.7646
▁khuây	-13.7648
▁úa	-13.7648
shs	-13.7651
▁rich	-13.7654
▁tono	-13.7654
lorat	-13.7658
▁431	-13.766
▁jeh	-13.7663
▁hin	-13.7663
kova	-13.7663
▁koo	-13.7664
▁ivanov	-13.7667
▁504	-13.767
ieran	-13.7671
▁cđt	-13.7672
ệc	-13.7673
ness	-13.7675
he	-13.7676
▁391	-13.7677
▁aso	-13.7683
▁362	-13.7683
▁0166	-13.7685
▁603	-13.7686
▁455	-13.7687
▁ivo	-13.7687
cf	-13.7689
▁996	-13.7699
▁361	-13.7702
gar	-13.7703
▁toi	-13.7703
▁suit	-13.7705
gold	-13.7713
▁081	-13.7714
▁472	-13.7716
lee	-13.772
dget	-13.7721
▁386	-13.7728
rice	-13.7731
masa	-13.7733
▁sền	-13.7738
▁mom	-13.774
schem	-13.7743
▁zac	-13.775
▁hum	-13.7754
ă	-13.7761
the	-13.7764
▁agut	-13.7765
fone	-13.7765
lum	-13.7776
vo	-13.7777
link	-13.7788
▁lap	-13.7792
▁817	-13.7794
wti	-13.7798
▁under	-13.78
insula	-13.7801
▁cụp	-13.7803
▁vc	-13.7804
▁gennad	-13.7807
▁satra	-13.7816
▁663	-13.7817
▁rhi	-13.7822
▁zip	-13.7823
lov	-13.7824
▁602	-13.7825
▁722	-13.7828
▁age	-13.7829
lene	-13.783
by	-13.783
idag	-13.7831
kim	-13.7831
▁1001	-13.7834
▁aviv	-13.7836
▁dalglish	-13.7838
▁florence	-13.7838
▁gsmarena	-13.7838
▁jazeera	-13.7838
▁kretschmann	-13.7838
▁licogi	-13.7838
▁mccartney	-13.7838
▁nottingham	-13.7838
▁prandelli	-13.7838
▁radwanska	-13.7838
▁swanepoel	-13.7838
▁uganda	-13.7838
▁yeonpyeong	-13.7838
▁yokohama	-13.7838
▁olympiacos	-13.7838
▁amazing	-13.7838
▁bhnt	-13.7838
▁delaware	-13.7838
▁pureview	-13.7838
▁đhđn	-13.7838
▁maxwell	-13.7838
▁organic	-13.7838
▁vinecom	-13.7838
▁qppl	-13.7838
▁siluano	-13.7838
▁mickey	-13.7838
▁shrek	-13.7838
▁xiển	-13.7838
oboda	-13.7838
▁mobira	-13.7838
▁ramadi	-13.7838
▁xẹp	-13.7838
▁piszc	-13.7838
▁shearer	-13.7838
▁truman	-13.7839
▁lfp	-13.7839
▁pires	-13.7839
▁forex	-13.7839
▁hallyu	-13.7839
▁nora	-13.7839
▁fabian	-13.7839
▁vietnampost	-13.7839
▁molly	-13.784
▁cisco	-13.784
▁friends	-13.784
▁patin	-13.784
▁cheol	-13.784
▁cacao	-13.7841
▁newell	-13.7841
▁matcha	-13.7841
▁bongda	-13.7842
▁ngỗng	-13.7843
▁btl	-13.7844
▁sanaa	-13.7844
▁mount	-13.7844
▁pages	-13.7844
take	-13.7848
▁524	-13.7849
▁hwan	-13.7849
▁358	-13.7851
▁ntp	-13.7855
▁lake	-13.7856
bar	-13.7857
▁field	-13.786
▁lìm	-13.7864
▁592	-13.7864
▁móm	-13.7865
smea	-13.7865
▁nhổn	-13.7866
▁kenh	-13.7867
▁mie	-13.7867
▁bặc	-13.7867
▁vẳng	-13.7871
▁865	-13.7872
sia	-13.7874
tion	-13.7878
▁candy	-13.7881
▁last	-13.7884
game	-13.7885
ều	-13.789
zano	-13.7893
▁aram	-13.7895
▁ngoe	-13.7896
▁luk	-13.7899
hcm	-13.7904
▁shu	-13.7906
▁tiu	-13.7907
▁bever	-13.7915
cvn	-13.7916
top	-13.7916
▁dụi	-13.7918
▁678	-13.7922
olga	-13.793
cope	-13.7931
eopard	-13.7934
▁hdv	-13.7941
▁096	-13.7946
▁563	-13.7954
▁cad	-13.7954
tade	-13.7957
lts	-13.7957
▁046	-13.7964
650	-13.7965
ping	-13.7979
▁ff	-13.7987
ks	-13.7987
▁very	-13.7994
▁655	-13.7996
▁895	-13.8003
table	-13.801
▁bk	-13.801
méc	-13.8011
▁837	-13.8013
▁392	-13.8013
▁mos	-13.802
▁965	-13.8023
▁dominica	-13.8029
▁765	-13.8032
elly	-13.8033
park	-13.8033
ris	-13.8035
rat	-13.8036
▁race	-13.8039
ý	-13.804
mila	-13.8047
▁table	-13.805
07	-13.8056
yong	-13.8058
▁598	-13.806
shan	-13.806
▁767	-13.8061
erste	-13.8066
đã	-13.8072
5500	-13.8077
▁record	-13.8086
▁morris	-13.8088
▁cousins	-13.8088
▁foxconn	-13.8088
▁fujifilm	-13.8088
▁giựt	-13.8088
▁imessage	-13.8088
▁kramer	-13.8088
▁midori	-13.8088
▁nguoiduatin	-13.8088
▁nutrilite	-13.8088
▁pobprasert	-13.8088
▁roosevelt	-13.8088
▁trackpad	-13.8088
▁tymoshenko	-13.8088
▁vanhaverbek	-13.8088
▁wisong	-13.8088
▁avatar	-13.8088
▁eclare	-13.8088
▁jihad	-13.8088
▁burberry	-13.8088
▁streller	-13.8088
▁oprah	-13.8088
▁vinawaco	-13.8088
▁southernbank	-13.8088
▁gandhi	-13.8088
▁vientiane	-13.8088
▁autodrome	-13.8088
▁hamico	-13.8088
▁planner	-13.8088
▁rosie	-13.8088
▁guzan	-13.8088
▁kimeng	-13.8088
▁drian	-13.8088
▁reap	-13.8089
▁pressing	-13.8089
▁ruhr	-13.8089
▁avengers	-13.8089
▁keller	-13.8089
▁eagle	-13.8089
▁mundo	-13.8089
▁toác	-13.8089
▁economic	-13.8089
▁tcmr	-13.809
▁dộng	-13.809
▁kiển	-13.809
▁birkin	-13.809
▁join	-13.8091
▁rush	-13.8091
▁navy	-13.8091
▁lẹt	-13.8092
▁xbox	-13.8092
ớt	-13.8092
▁blanco	-13.8092
▁double	-13.8093
▁duật	-13.8094
▁chỏng	-13.8095
▁touring	-13.8096
▁aces	-13.8096
▁macan	-13.8097
▁lẹm	-13.8097
▁contact	-13.8098
▁559	-13.8098
▁lion	-13.8099
▁sũng	-13.8099
▁simone	-13.8099
▁quại	-13.81
▁568	-13.8101
▁della	-13.8102
▁espn	-13.8103
rop	-13.8105
leigh	-13.8105
▁moe	-13.8106
▁pose	-13.8109
oy	-13.811
▁1929	-13.8112
▁amo	-13.8112
▁maison	-13.8113
▁bbm	-13.8114
▁aung	-13.8115
zy	-13.8116
321	-13.8123
▁300000	-13.8125
của	-13.8125
▁hits	-13.8135
▁ncc	-13.8136
▁bụt	-13.8137
▁rey	-13.814
▁indian	-13.8145
▁padd	-13.8146
nk	-13.8146
rit	-13.8149
▁mol	-13.8152
▁msc	-13.8155
▁rcc	-13.8156
▁lải	-13.8158
▁616	-13.8166
▁lọng	-13.8166
▁johan	-13.8176
ois	-13.8176
▁hanna	-13.818
▁vanh	-13.8181
mission	-13.8183
dir	-13.8183
▁root	-13.8186
▁022	-13.8188
lavan	-13.8191
isse	-13.8195
▁access	-13.8199
come	-13.8205
▁shine	-13.8208
▁naga	-13.8209
ys	-13.8214
hayne	-13.8219
▁nova	-13.8223
▁703	-13.8225
rt	-13.8226
▁092	-13.8228
▁nhụ	-13.8228
tha	-13.8229
▁040	-13.8232
▁rem	-13.8235
vpl	-13.8237
▁668	-13.8237
ân	-13.8237
▁wc	-13.824
ướm	-13.824
▁axi	-13.8241
yu	-13.825
▁zaha	-13.8251
▁maru	-13.8253
▁1600	-13.8254
▁505	-13.8264
▁xán	-13.8268
▁945	-13.827
▁jell	-13.8271
▁vam	-13.8281
▁xáng	-13.8284
▁yao	-13.8285
bin	-13.8287
of	-13.829
time	-13.8294
ariana	-13.8297
▁528	-13.8298
▁met	-13.8301
grad	-13.8314
▁hino	-13.832
▁083	-13.8326
stick	-13.8327
deep	-13.8327
runner	-13.8337
nia	-13.8339
▁dave	-13.834
▁isaac	-13.8342
▁kuznetsov	-13.8343
▁flower	-13.8343
▁749	-13.8343
▁carb	-13.8343
▁aeromobil	-13.8344
▁brozovic	-13.8344
▁bruxelles	-13.8344
▁butterfly	-13.8344
▁cortisol	-13.8344
▁fansipan	-13.8344
▁fukushima	-13.8344
▁gladbach	-13.8344
▁guatemala	-13.8344
▁hitachi	-13.8344
▁krasnodar	-13.8344
▁montgomery	-13.8344
▁muktinath	-13.8344
▁murphy	-13.8344
▁mátxcơva	-13.8344
▁oklahoma	-13.8344
▁sikorsky	-13.8344
▁steroid	-13.8344
▁velvet	-13.8344
▁youzhny	-13.8344
▁dencos	-13.8345
▁ecosport	-13.8345
▁kanye	-13.8345
▁kumite	-13.8345
▁streep	-13.8345
▁vinschool	-13.8345
▁clinker	-13.8345
▁einstein	-13.8345
▁thethaovietnam	-13.8345
▁vbsp	-13.8345
▁centcom	-13.8345
▁tréo	-13.8345
▁barbie	-13.8345
▁device	-13.8345
▁alphanam	-13.8345
▁gpxd	-13.8345
▁playbook	-13.8345
▁franchi	-13.8345
▁vnsteel	-13.8345
▁xẹt	-13.8345
▁bonus	-13.8345
▁steel	-13.8346
▁erin	-13.8346
▁economics	-13.8346
▁sugar	-13.8347
▁bach	-13.8347
▁create	-13.8348
▁ebook	-13.8348
▁chồi	-13.8349
▁mẫm	-13.8349
▁yolo	-13.8349
▁sohee	-13.8349
▁tsui	-13.835
▁siam	-13.835
▁1938	-13.835
▁vbl	-13.8351
▁profile	-13.8352
▁1927	-13.8352
▁tacn	-13.8353
▁coban	-13.8354
▁489	-13.8354
▁amino	-13.8356
ison	-13.8358
▁board	-13.8358
▁helio	-13.8359
▁bqp	-13.8359
mua	-13.8363
dl	-13.8363
▁076	-13.8365
▁ccs	-13.8367
iki	-13.8368
▁verge	-13.8369
▁gar	-13.8369
▁biz	-13.8375
247	-13.8376
yang	-13.8376
▁linds	-13.8379
▁toe	-13.8381
▁musical	-13.8389
▁dons	-13.839
xin	-13.8394
▁riu	-13.8399
▁fv	-13.84
▁conac	-13.8414
▁chạn	-13.8416
end	-13.8418
▁ade	-13.842
▁rf	-13.8421
zer	-13.8427
▁dùm	-13.8427
▁salvato	-13.8429
elby	-13.843
▁mma	-13.8434
▁fish	-13.8436
▁tlv	-13.8437
▁boj	-13.8448
▁mother	-13.8459
fest	-13.8464
▁natali	-13.8466
▁783	-13.8467
lay	-13.8469
▁lazar	-13.847
▁376	-13.8478
nez	-13.8483
đt	-13.8484
▁but	-13.8493
▁jpa	-13.8494
▁generali	-13.8495
ẽ	-13.8495
rton	-13.8498
▁452	-13.8499
gate	-13.85
een	-13.8501
▁đtc	-13.8506
▁bat	-13.8508
horea	-13.8509
▁phuong	-13.852
▁wah	-13.8522
▁cars	-13.8527
▁pd	-13.8533
▁lởm	-13.8534
700	-13.8536
ược	-13.8553
▁kor	-13.8563
▁607	-13.857
ẫn	-13.8572
▁klein	-13.8576
▁nord	-13.8578
▁gw	-13.8581
▁ted	-13.8584
lca	-13.8586
owski	-13.8587
▁salah	-13.8588
laude	-13.8589
▁0511	-13.859
▁tttv	-13.8592
▁579	-13.8599
▁orc	-13.8602
▁kgb	-13.8603
▁friend	-13.8606
iz	-13.8606
cxg	-13.8608
▁beautiful	-13.8608
▁bjarnason	-13.8608
▁bltths	-13.8608
▁charlotte	-13.8608
▁esquire	-13.8608
▁graffiti	-13.8608
▁grozny	-13.8608
▁irureta	-13.8608
▁magnus	-13.8608
▁nsđp	-13.8608
▁pattinson	-13.8608
▁vpđd	-13.8608
▁witherspoon	-13.8608
▁yingluck	-13.8608
▁zamora	-13.8608
▁borneo	-13.8608
▁gigabyte	-13.8608
▁three	-13.8608
▁dolphin	-13.8608
▁russo	-13.8608
▁justice	-13.8608
▁carrillo	-13.8608
▁patricio	-13.8608
▁blackburn	-13.8608
▁mandarin	-13.8608
▁kissinger	-13.8608
▁branson	-13.8608
▁carter	-13.8608
▁elastin	-13.8608
▁nuland	-13.8608
▁company	-13.8608
▁bingbo	-13.8608
▁twist	-13.8608
▁scolari	-13.8608
▁comfort	-13.8608
▁nguoi	-13.8608
▁jenna	-13.8608
▁nẹp	-13.8608
▁phò	-13.8608
▁polymer	-13.8608
▁dúa	-13.8609
▁runway	-13.8609
▁spice	-13.8609
▁depp	-13.8609
▁oled	-13.8609
▁iowa	-13.8609
▁belas	-13.8609
▁never	-13.861
▁phẩy	-13.861
▁cannon	-13.861
ioli	-13.861
▁inspir	-13.861
▁electronic	-13.861
▁xệch	-13.8611
▁nitrate	-13.8611
▁bpck	-13.8611
▁award	-13.8612
▁bread	-13.8612
bc	-13.8612
▁criss	-13.8613
▁vqg	-13.8614
▁014	-13.8614
▁1844	-13.8614
▁lorenzo	-13.8616
▁tar	-13.8617
▁vcs	-13.8617
▁gmo	-13.8617
▁vhc	-13.8619
▁chibi	-13.8619
▁taiga	-13.8619
▁tạnh	-13.8621
▁nll	-13.8621
▁taken	-13.8621
▁feed	-13.8621
▁072	-13.8622
▁mimi	-13.8622
▁oleg	-13.8624
▁1536	-13.8624
▁apk	-13.8626
▁lukashe	-13.8628
▁571	-13.863
cal	-13.8631
▁872	-13.8632
▁luca	-13.8641
▁638	-13.8642
▁923	-13.8642
▁khom	-13.8642
▁808	-13.8648
▁jena	-13.8649
nlđ	-13.8652
▁554	-13.8653
▁354	-13.8657
▁ampli	-13.8661
▁aid	-13.8674
▁tém	-13.8678
iễn	-13.8683
iro	-13.8688
▁641	-13.8691
▁794	-13.8694
poo	-13.8698
▁zinger	-13.87
▁cpc	-13.8702
▁bốp	-13.8702
ester	-13.8705
▁cùm	-13.8706
mee	-13.871
▁bate	-13.8715
▁juli	-13.8715
▁nhâ	-13.8718
▁trằn	-13.8723
720	-13.8725
▁548	-13.8727
▁018	-13.8733
jan	-13.8734
asia	-13.874
care	-13.8746
▁victory	-13.8758
inho	-13.8764
mark	-13.8765
▁text	-13.8766
▁alt	-13.8769
br	-13.8776
▁047	-13.8778
nf	-13.878
▁tyra	-13.8791
ét	-13.8796
▁đẻn	-13.8798
001	-13.88
▁tnv	-13.8801
ama	-13.8802
pulau	-13.8805
▁zhi	-13.8805
▁ngỗ	-13.8809
neak	-13.8819
▁comic	-13.8819
▁born	-13.8824
97	-13.8825
▁asa	-13.8834
▁pác	-13.8836
▁stu	-13.8838
▁phay	-13.8839
▁pte	-13.884
burg	-13.8846
▁667	-13.8849
▁dere	-13.8852
▁bau	-13.8853
▁mira	-13.8859
owell	-13.8861
▁lever	-13.8865
ầu	-13.8868
kip	-13.887
780	-13.887
▁acca	-13.8872
▁seal	-13.8875
▁miroslav	-13.8876
▁vượn	-13.8876
▁visit	-13.8877
rtz	-13.8877
▁valentin	-13.8877
▁activation	-13.8878
▁arbeloa	-13.8878
▁christensen	-13.8878
▁darmian	-13.8878
▁folate	-13.8878
▁kluivert	-13.8878
▁lavezzi	-13.8878
▁lavie	-13.8878
▁mestalla	-13.8878
▁panmunjom	-13.8878
▁simpson	-13.8878
▁sutil	-13.8878
▁vertonghen	-13.8878
▁amiăng	-13.8878
▁athens	-13.8878
▁diaby	-13.8878
▁kungfu	-13.8878
▁nslđ	-13.8878
▁globalgap	-13.8878
▁upload	-13.8878
▁aleem	-13.8878
▁edwin	-13.8878
▁xdcb	-13.8878
▁lightning	-13.8878
▁avakov	-13.8878
▁besra	-13.8878
▁dhabi	-13.8878
▁morata	-13.8878
▁cnpc	-13.8878
▁idris	-13.8878
▁hiroshima	-13.8878
▁pepsico	-13.8878
▁xttm	-13.8878
▁wigan	-13.8878
▁crôm	-13.8879
▁muhammad	-13.8879
▁aqap	-13.8879
▁keith	-13.8879
▁sabeco	-13.8879
▁suju	-13.8879
▁fallujah	-13.8879
▁soryu	-13.888
▁balance	-13.888
ía	-13.888
▁duih	-13.888
▁holly	-13.888
đttp	-13.8881
▁maybach	-13.8881
▁hleo	-13.8881
▁push	-13.8882
▁bastian	-13.8883
▁xinhua	-13.8884
▁giập	-13.8884
▁958	-13.8885
▁daddy	-13.8885
▁alam	-13.8885
▁dnxh	-13.8887
▁náy	-13.8887
▁1933	-13.889
nther	-13.889
▁dieu	-13.8891
▁mbps	-13.8892
▁reddit	-13.8893
▁341	-13.8893
▁471	-13.8894
▁seong	-13.8896
stone	-13.8897
▁cỡn	-13.8898
▁yama	-13.8899
hifu	-13.8901
atre	-13.8903
kho	-13.8904
▁725	-13.8911
▁nhại	-13.8914
▁coast	-13.8914
▁nhộng	-13.8916
thi	-13.8919
ei	-13.8925
tley	-13.8926
▁cra	-13.8926
uyên	-13.8935
▁639	-13.8939
▁xổi	-13.8941
▁vir	-13.8941
▁elo	-13.8944
▁918	-13.8946
▁ave	-13.8947
silo	-13.8951
▁313	-13.8953
▁kam	-13.8955
▁084	-13.8961
ew	-13.8965
▁422	-13.8969
▁foa	-13.8973
▁tool	-13.8975
▁anka	-13.8976
▁374	-13.898
▁meet	-13.8981
▁varga	-13.8981
ashi	-13.8982
▁diet	-13.8982
lik	-13.8986
▁edit	-13.8986
chai	-13.8986
xxxx	-13.9
ft	-13.9001
8888	-13.9004
▁robinho	-13.9006
alina	-13.9008
▁highland	-13.9013
▁điê	-13.9014
▁gti	-13.9015
ets	-13.9018
max	-13.902
▁701	-13.9024
▁657	-13.9025
hin	-13.9026
mas	-13.9028
iểm	-13.9028
eign	-13.9031
▁451	-13.9036
▁tee	-13.9039
chem	-13.9041
▁tnk	-13.9042
▁323	-13.9044
ợt	-13.9048
thu	-13.9049
▁bor	-13.9061
610	-13.9063
▁cec	-13.9066
▁yoha	-13.9068
▁welle	-13.907
ồng	-13.9071
die	-13.9072
▁mate	-13.9073
pp	-13.9078
nov	-13.9082
▁643	-13.9084
rita	-13.9087
▁661	-13.9087
xx	-13.9088
▁pier	-13.9089
▁noh	-13.9092
▁caf	-13.9101
illa	-13.9105
▁konstantin	-13.9106
hình	-13.9111
▁486	-13.9117
od	-13.9124
▁raf	-13.9124
ement	-13.9128
uan	-13.913
cha	-13.9131
▁kano	-13.9137
mazda	-13.9138
êm	-13.9138
yna	-13.9139
online	-13.9143
▁417	-13.9145
alvin	-13.915
▁057	-13.9151
▁yoshihi	-13.9151
óp	-13.9151
▁sharia	-13.9151
▁597	-13.9151
▁bastia	-13.9153
▁438	-13.9153
▁weaver	-13.9154
▁cupcake	-13.9154
▁827	-13.9154
750	-13.9154
▁cookie	-13.9154
▁705	-13.9154
taye	-13.9155
▁henrique	-13.9156
▁albiceleste	-13.9156
▁albiol	-13.9156
▁boutique	-13.9156
▁cefaclor	-13.9156
▁connolly	-13.9156
▁damiao	-13.9156
▁diwali	-13.9156
▁elearning	-13.9156
▁freiburg	-13.9156
▁hapulico	-13.9156
▁hotspur	-13.9156
▁irvine	-13.9156
▁iturr	-13.9156
▁mcgeady	-13.9156
▁melatonin	-13.9156
▁monchengladbach	-13.9156
▁mukherjee	-13.9156
▁netflix	-13.9156
▁pocket	-13.9156
▁rebecca	-13.9156
▁scrambler	-13.9156
▁shinnosuke	-13.9156
▁sophie	-13.9156
▁taetiseo	-13.9156
▁talisca	-13.9156
▁vodka	-13.9156
▁yanukovich	-13.9156
▁đkkd	-13.9156
sp	-13.9156
▁circle	-13.9156
▁sharif	-13.9156
▁parchin	-13.9156
▁safety	-13.9156
▁spectra	-13.9156
▁taruta	-13.9156
▁firechat	-13.9156
▁gunnar	-13.9156
▁kruse	-13.9156
▁marshall	-13.9156
▁restore	-13.9156
▁yosuke	-13.9156
▁reeves	-13.9156
▁garner	-13.9156
▁shawcross	-13.9156
▁wanbi	-13.9156
▁ariel	-13.9156
▁presenter	-13.9156
▁ngoèo	-13.9156
▁reims	-13.9156
▁dbsk	-13.9156
▁chernobyl	-13.9156
▁corset	-13.9156
▁441	-13.9156
▁fake	-13.9156
▁tippi	-13.9156
▁gdtx	-13.9156
▁jvc	-13.9156
▁copd	-13.9156
▁basico	-13.9156
▁ciaz	-13.9156
▁dohc	-13.9156
▁animals	-13.9156
▁bernat	-13.9157
ugro	-13.9157
▁valentine	-13.9157
▁gỏng	-13.9157
▁western	-13.9157
▁topaz	-13.9157
▁genta	-13.9158
▁felix	-13.9158
▁adf	-13.9158
▁selhur	-13.9158
▁host	-13.9158
▁upton	-13.9159
▁paus	-13.9159
▁443	-13.9159
▁phillips	-13.9159
▁futures	-13.916
▁đốp	-13.916
▁tamara	-13.916
▁pxt	-13.916
▁rền	-13.916
▁abel	-13.9161
▁local	-13.9161
▁peso	-13.9164
▁428	-13.9166
▁nhèm	-13.9167
▁beats	-13.9168
ving	-13.9169
▁bota	-13.9169
▁cache	-13.9171
▁thòng	-13.9173
▁mbc	-13.9173
▁ifc	-13.9177
▁1911	-13.9178
▁lpi	-13.9179
ara	-13.9183
iano	-13.9185
▁nhử	-13.9186
▁lới	-13.9187
ajes	-13.9187
▁toáng	-13.919
ric	-13.919
▁496	-13.919
leading	-13.9191
▁956	-13.9191
▁ego	-13.9191
clq	-13.9192
▁pang	-13.9194
tani	-13.9198
esha	-13.9199
▁943	-13.9206
▁vờn	-13.9211
▁acne	-13.9217
fc	-13.9218
huyễn	-13.9228
▁pic	-13.9228
raham	-13.9232
▁nat	-13.9235
▁011	-13.9237
fs	-13.9237
ert	-13.9238
▁dich	-13.9239
rung	-13.9239
▁pra	-13.9241
▁đâ	-13.9252
war	-13.9259
▁lancer	-13.9261
live	-13.9263
▁charge	-13.9268
▁lea	-13.9272
dt	-13.9273
sun	-13.9274
qu	-13.9278
▁ath	-13.9281
▁days	-13.9284
▁792	-13.9286
law	-13.9299
281	-13.9302
rong	-13.9306
▁vinaca	-13.9308
▁willi	-13.9311
val	-13.9311
▁714	-13.9313
▁715	-13.9328
ạ	-13.9337
▁756	-13.9338
▁jacobs	-13.934
▁marti	-13.9341
▁ktx	-13.9343
ẫm	-13.9349
ast	-13.9355
▁env	-13.9357
▁terra	-13.9361
▁sachs	-13.9367
▁bert	-13.9367
▁ròi	-13.9367
kine	-13.9375
42	-13.9375
ẻ	-13.9381
▁elias	-13.9386
đyk	-13.939
▁634	-13.9393
▁och	-13.9395
▁nae	-13.9397
ác	-13.94
▁pole	-13.9402
leica	-13.9409
▁845	-13.9409
view	-13.9411
▁daniels	-13.9411
ọt	-13.9412
▁buy	-13.9413
▁wt	-13.9413
dia	-13.9415
▁kos	-13.9419
iraj	-13.9423
aspe	-13.9424
▁quin	-13.9426
cat	-13.9426
kan	-13.9428
▁thor	-13.9429
▁evgen	-13.943
▁418	-13.9432
▁066	-13.9433
ục	-13.9435
▁fame	-13.9436
yoshi	-13.9437
▁mess	-13.9438
ab	-13.9439
▁platform	-13.9439
▁blogspot	-13.9441
▁blood	-13.9441
▁carotenoid	-13.9441
▁harvey	-13.9441
▁interstellar	-13.9441
▁laudrup	-13.9441
▁macaskill	-13.9441
▁maddox	-13.9441
▁nakatani	-13.9441
▁nhẻm	-13.9441
▁nsdlđ	-13.9441
▁otofun	-13.9441
▁pharmaceuticals	-13.9441
▁pienaar	-13.9441
▁pjanic	-13.9441
▁queiroz	-13.9441
▁scarborough	-13.9441
▁scholarism	-13.9441
▁suruc	-13.9441
▁tractor	-13.9441
▁umbrella	-13.9441
▁verkhovna	-13.9441
▁vietnamobile	-13.9441
▁wantchinatimes	-13.9441
▁zmapp	-13.9441
▁glamour	-13.9441
▁remote	-13.9441
▁seychelles	-13.9441
▁shimbun	-13.9441
▁trekking	-13.9441
▁wisdom	-13.9441
▁outlook	-13.9441
▁braun	-13.9441
▁mokpo	-13.9441
▁inverter	-13.9441
▁sabina	-13.9441
▁apoel	-13.9441
▁wwf	-13.9442
▁amaytinhbang	-13.9442
▁microphone	-13.9442
▁shinhan	-13.9442
udoin	-13.9442
▁development	-13.9442
▁gopro	-13.9442
▁montblanc	-13.9442
▁heard	-13.9442
▁ubtv	-13.9442
▁downing	-13.9442
▁drew	-13.9442
▁horror	-13.9443
▁visaco	-13.9443
▁kasim	-13.9443
▁drăng	-13.9443
▁sjs	-13.9443
▁erp	-13.9443
▁sahara	-13.9443
▁fields	-13.9444
▁corner	-13.9444
84	-13.9444
▁réo	-13.9444
▁nolan	-13.9444
▁lét	-13.9444
▁milky	-13.9445
▁veston	-13.9445
▁liva	-13.9445
▁lotion	-13.9445
▁luang	-13.9445
▁merc	-13.9446
▁wai	-13.9446
▁flapp	-13.9449
▁fsa	-13.9449
▁fog	-13.9449
unique	-13.9449
▁nhặng	-13.945
▁koichi	-13.9452
▁enzo	-13.9454
▁interest	-13.9454
▁six	-13.9454
▁studios	-13.9454
▁ntt	-13.9456
▁hrc	-13.9458
erini	-13.9459
▁soóc	-13.946
▁isner	-13.9461
▁dềnh	-13.9464
▁bân	-13.9465
▁nhũn	-13.9467
▁etc	-13.9468
▁saso	-13.9468
▁622	-13.947
cut	-13.9471
▁ngộp	-13.9471
▁heid	-13.9473
340	-13.9475
▁teens	-13.9475
ế	-13.9477
▁795	-13.9477
▁694	-13.9478
▁pgm	-13.9485
▁cmi	-13.9487
▁anastasia	-13.9488
▁vitali	-13.9489
ghi	-13.9492
▁lói	-13.9495
▁478	-13.9495
▁cio	-13.9498
▁pao	-13.95
▁396	-13.9501
ous	-13.9501
▁623	-13.9507
▁572	-13.9509
ark	-13.9511
▁fonda	-13.9511
▁qk	-13.9513
860	-13.9513
▁sheng	-13.9516
▁1912	-13.9516
▁dap	-13.9516
▁yeu	-13.952
▁056	-13.9524
▁milano	-13.9525
910	-13.9527
▁501	-13.9542
▁ifr	-13.9544
▁ngồn	-13.9549
mond	-13.9555
▁khệ	-13.9556
▁424	-13.9558
rgen	-13.9565
hien	-13.9567
hon	-13.9569
▁098	-13.9569
and	-13.9579
▁tàm	-13.9585
ỉa	-13.9588
▁mach	-13.9597
▁921	-13.9603
estor	-13.961
▁ebank	-13.9612
ile	-13.9612
▁crom	-13.9614
ven	-13.9614
▁đtm	-13.9616
▁sein	-13.9616
▁015	-13.9621
▁736	-13.9623
hz	-13.9623
tega	-13.9626
mall	-13.9628
▁065	-13.9629
oun	-13.9633
▁jam	-13.9633
ongsan	-13.9637
▁fx	-13.9638
▁mur	-13.9639
▁toro	-13.9639
har	-13.9642
onda	-13.9643
▁sứa	-13.9645
▁nen	-13.9648
▁ctc	-13.9657
▁ride	-13.967
▁466	-13.9672
▁kick	-13.9672
ari	-13.9674
▁1020	-13.9676
▁013	-13.9687
▁577	-13.9687
▁sme	-13.9694
uisse	-13.9695
zilla	-13.9698
▁457	-13.9707
pha	-13.9709
▁021	-13.971
▁rec	-13.9711
day	-13.9712
▁503	-13.9713
hanoi	-13.9718
igi	-13.9726
▁boe	-13.9726
▁electro	-13.973
là	-13.9731
▁chệ	-13.9735
▁gros	-13.9735
▁gcnqsd	-13.9735
▁shakhtar	-13.9736
▁aftershock	-13.9736
▁always	-13.9736
▁aperta	-13.9736
▁bergkamp	-13.9736
▁caceres	-13.9736
▁carragher	-13.9736
▁decima	-13.9736
▁delevingne	-13.9736
▁fibonacci	-13.9736
▁flashmob	-13.9736
▁glasgow	-13.9736
▁gnabry	-13.9736
▁lifebuoy	-13.9736
▁louboutin	-13.9736
▁lviv	-13.9736
▁nauru	-13.9736
▁performance	-13.9736
▁pikk	-13.9736
▁samurai	-13.9736
▁sicily	-13.9736
▁smolen	-13.9736
▁suvarnabhumi	-13.9736
▁thompson	-13.9736
▁vadim	-13.9736
▁vissay	-13.9736
▁đdsh	-13.9736
▁assistant	-13.9736
▁danube	-13.9736
▁harcourt	-13.9736
▁hardwell	-13.9736
▁qrtd	-13.9736
▁rometty	-13.9736
▁yeltsin	-13.9736
▁tetsuji	-13.9736
▁davies	-13.9736
▁lingard	-13.9736
▁malware	-13.9736
▁evian	-13.9736
▁jeju	-13.9736
▁kentucky	-13.9736
▁borisov	-13.9736
▁ubdt	-13.9736
ndy	-13.9736
▁dongabank	-13.9736
▁nieto	-13.9736
▁roadster	-13.9736
▁arabica	-13.9736
▁paradise	-13.9736
▁matrix	-13.9736
▁associates	-13.9736
▁haneda	-13.9736
▁lagerfeld	-13.9736
▁iaos	-13.9736
▁oriental	-13.9736
▁reid	-13.9736
▁gelder	-13.9736
▁outcast	-13.9736
▁reporter	-13.9736
▁celeron	-13.9736
▁aspx	-13.9736
▁ngái	-13.9736
▁avenue	-13.9737
▁bennett	-13.9737
▁corticoid	-13.9737
▁dynamo	-13.9737
▁hão	-13.9737
▁dướng	-13.9737
▁robertson	-13.9737
▁trĩnh	-13.9738
▁guann	-13.9738
▁5447	-13.9738
▁forum	-13.9739
ze	-13.974
▁lac	-13.9741
inita	-13.9741
▁847	-13.9742
▁maicon	-13.9742
▁ducan	-13.9742
▁ramirez	-13.9742
▁thailand	-13.9743
▁nld	-13.9744
▁tttt	-13.9744
▁triton	-13.9744
anh	-13.9745
angry	-13.9747
▁oem	-13.9747
▁nặm	-13.9748
▁878	-13.9748
▁cooc	-13.9748
▁xvi	-13.9749
▁509	-13.9749
▁ochi	-13.9749
▁1926	-13.975
▁blv	-13.9751
▁xviii	-13.9753
▁vằng	-13.9756
▁styles	-13.9757
▁runner	-13.9758
▁pixels	-13.976
▁bhs	-13.976
hong	-13.9762
▁trớn	-13.9762
▁fisher	-13.9763
pdr	-13.9763
▁637	-13.9769
▁tusk	-13.9772
▁zx	-13.9773
soft	-13.9776
▁unit	-13.9782
▁sauber	-13.9785
▁tak	-13.9791
▁atv	-13.9794
▁1199	-13.9797
▁poli	-13.9799
▁601	-13.98
slav	-13.9806
dler	-13.9808
▁hvn	-13.9809
▁ichi	-13.9814
▁austr	-13.9816
▁paz	-13.9819
sis	-13.9824
upert	-13.9826
▁492	-13.9827
▁406	-13.9828
▁0966	-13.9834
▁thít	-13.9834
over	-13.9838
▁hcmc	-13.984
▁mahmoud	-13.9843
ou	-13.9844
skaya	-13.9847
▁stoch	-13.986
▁hf	-13.9861
▁917	-13.9874
▁ctn	-13.9879
lly	-13.9885
cu	-13.9886
rus	-13.9894
eck	-13.9894
▁hua	-13.9894
reese	-13.9895
▁fich	-13.9897
▁vại	-13.99
ier	-13.9902
more	-13.9905
▁camille	-13.9908
▁mir	-13.9909
▁zhu	-13.991
▁đên	-13.9914
▁zor	-13.9918
▁keep	-13.9922
à	-13.9922
▁combo	-13.9922
▁alli	-13.9924
▁vela	-13.9924
mendi	-13.9925
awi	-13.9925
▁zu	-13.9926
▁trọi	-13.9928
▁lợ	-13.9929
▁635	-13.9931
▁nhom	-13.9936
▁eib	-13.994
▁sumi	-13.9942
yr	-13.9951
▁kill	-13.9952
back	-13.9954
▁chễ	-13.9958
ore	-13.9965
▁gsm	-13.9971
idi	-13.9974
amus	-13.9975
▁wg	-13.9981
550	-13.9985
▁dier	-13.9985
fit	-13.9987
▁wy	-13.9988
▁evan	-13.999
ự	-13.9991
pk	-13.9996
hoăn	-13.9999
▁nishi	-14.0012
▁riga	-14.0013
work	-14.0017
fogo	-14.0019
▁hour	-14.0019
station	-14.002
1440	-14.0022
quang	-14.0025
aco	-14.0029
berg	-14.003
watch	-14.0032
▁meo	-14.0036
▁doctor	-14.0037
yeong	-14.0037
▁caffein	-14.0038
▁leonard	-14.0038
▁architect	-14.0038
▁airblade	-14.0039
▁alejandr	-14.0039
▁bendtner	-14.0039
▁berkeley	-14.0039
▁cincinnati	-14.0039
▁clancy	-14.0039
▁dispatch	-14.0039
▁foodpanda	-14.0039
▁fumio	-14.0039
▁hungazit	-14.0039
▁ideguchi	-14.0039
▁iskander	-14.0039
▁itims	-14.0039
▁kaliningrad	-14.0039
▁megumi	-14.0039
▁okugawa	-14.0039
▁ouija	-14.0039
▁pajero	-14.0039
▁rabiot	-14.0039
▁sheraton	-14.0039
▁winfrey	-14.0039
▁dnipro	-14.0039
▁fulham	-14.0039
▁spotlight	-14.0039
▁ambrosio	-14.0039
▁facetime	-14.0039
▁inspiration	-14.0039
▁shayk	-14.0039
▁batist	-14.0039
▁taehui	-14.0039
▁kingzone	-14.0039
▁croptop	-14.0039
▁20141016	-14.0039
▁marriott	-14.0039
▁quẻ	-14.0039
▁smtown	-14.0039
▁dairy	-14.0039
▁sawaco	-14.0039
▁gtat	-14.0039
▁calories	-14.0039
▁chọt	-14.004
▁cicc	-14.004
▁jds	-14.004
▁chuan	-14.004
▁minishow	-14.004
▁rennes	-14.004
▁globe	-14.0041
▁kanna	-14.0041
▁dtqg	-14.0041
▁rsx	-14.0041
▁gtnt	-14.0041
▁tanaka	-14.0041
▁dioxide	-14.0042
▁battle	-14.0042
▁icd	-14.0042
▁ipx	-14.0044
▁tths	-14.0045
▁chucky	-14.0045
ares	-14.0045
▁632	-14.0046
▁maze	-14.0049
▁hadi	-14.005
▁phạ	-14.0051
▁sgv	-14.0052
tho	-14.0053
▁tripoli	-14.0053
▁bally	-14.0053
▁eia	-14.0053
▁towers	-14.0054
▁mann	-14.0055
▁jak	-14.0057
▁467	-14.0058
lio	-14.0058
wari	-14.0058
▁imb	-14.0059
▁panda	-14.006
473	-14.0061
▁kour	-14.0062
▁baek	-14.0064
▁links	-14.0064
▁strip	-14.0064
▁shear	-14.0065
▁piot	-14.0066
▁1908	-14.0067
oral	-14.0067
▁854	-14.0068
nova	-14.007
vr	-14.0071
▁lứt	-14.0072
▁factory	-14.0074
▁nhạnh	-14.0075
▁ptl	-14.0076
lam	-14.0077
▁0913	-14.0079
▁files	-14.0081
▁islam	-14.0083
▁8000	-14.0089
▁kmr	-14.009
mos	-14.009
▁761	-14.0092
▁bucke	-14.0093
▁cox	-14.0096
▁781	-14.0096
▁718	-14.0104
▁ktn	-14.0107
sc	-14.0107
▁user	-14.0111
▁ring	-14.0114
▁osi	-14.0114
ó	-14.0125
684	-14.0129
▁capo	-14.0132
▁jacque	-14.0132
▁531	-14.0133
resco	-14.0138
▁node	-14.0138
▁gift	-14.0144
▁phôn	-14.0146
▁epc	-14.0147
107	-14.0149
vcfc	-14.0151
▁gạn	-14.0153
▁keylo	-14.0154
▁lien	-14.0155
▁chởm	-14.0161
▁311	-14.0176
121703	-14.0181
lter	-14.0183
▁sy	-14.0183
abby	-14.0187
ach	-14.0188
cia	-14.0191
▁chá	-14.0217
▁tos	-14.0221
▁apa	-14.0223
▁tex	-14.0226
▁sạ	-14.0227
icky	-14.0229
iqui	-14.023
▁suga	-14.0233
▁lak	-14.0237
▁ailee	-14.0238
▁686	-14.024
eil	-14.0245
▁bose	-14.0246
▁giu	-14.0252
▁phr	-14.0252
▁kawa	-14.0252
▁ash	-14.0254
eh	-14.0257
▁watt	-14.0258
obra	-14.0262
yl	-14.0263
▁ami	-14.027
▁ily	-14.0271
▁mobi	-14.0275
▁mhc	-14.0287
ụ	-14.0291
▁929	-14.0294
pgd	-14.0297
pad	-14.0298
▁hare	-14.0306
▁0932	-14.0307
▁tủm	-14.0311
dx	-14.0312
▁orient	-14.032
▁583	-14.032
▁573	-14.0324
▁speak	-14.0325
qc	-14.0328
▁bíc	-14.0328
▁feng	-14.033
lut	-14.0333
9000	-14.0334
ada	-14.0338
▁select	-14.0344
play	-14.0344
ntn	-14.0347
ẫng	-14.0349
▁brother	-14.0349
daily	-14.0349
zawa	-14.035
▁australian	-14.035
▁dia	-14.0351
▁benedict	-14.0351
▁engine	-14.0351
▁afweyne	-14.0351
▁alcado	-14.0351
▁baluchi	-14.0351
▁blatter	-14.0351
▁broadwell	-14.0351
▁cardiff	-14.0351
▁exchange	-14.0351
▁fuentes	-14.0351
▁hercules	-14.0351
▁hotelquickly	-14.0351
▁library	-14.0351
▁matxcơva	-14.0351
▁nebraska	-14.0351
▁pulga	-14.0351
▁stéphan	-14.0351
▁tikrit	-14.0351
▁tymchuk	-14.0351
▁underground	-14.0351
▁vovinam	-14.0351
▁vtvcab	-14.0351
▁golmart	-14.0351
▁jamaica	-14.0351
▁madut	-14.0351
▁pixma	-14.0351
▁furama	-14.0351
▁greentea	-14.0351
▁colgate	-14.0351
▁capitol	-14.0351
▁seohyun	-14.0351
▁medical	-14.0351
▁curie	-14.0351
▁caramel	-14.0351
▁peace	-14.0351
▁curti	-14.0351
▁noble	-14.0351
▁robson	-14.0351
▁hirose	-14.0351
▁hudson	-14.0351
▁thacker	-14.0351
▁puert	-14.0351
▁stegen	-14.0351
▁escape	-14.0351
▁bath	-14.0352
▁hđba	-14.0352
▁franck	-14.0352
▁lichtste	-14.0352
▁jbic	-14.0352
▁ptkt	-14.0352
▁buri	-14.0352
▁cở	-14.0352
▁cnxh	-14.0352
▁zico	-14.0352
▁grier	-14.0352
▁ngoắt	-14.0352
▁bihar	-14.0352
▁bernard	-14.0352
▁porter	-14.0352
▁stubb	-14.0352
▁hhvt	-14.0352
▁cartier	-14.0353
▁dẹt	-14.0353
▁battery	-14.0353
kers	-14.0354
▁aslan	-14.0354
▁connect	-14.0354
▁toạc	-14.0354
▁sandals	-14.0354
▁toyama	-14.0355
▁army	-14.0355
▁prenn	-14.0355
▁468	-14.0355
▁908	-14.0356
▁tatum	-14.0357
▁sệ	-14.0357
▁eastern	-14.0358
▁váp	-14.0358
▁bazan	-14.0358
▁training	-14.0359
ngnang	-14.0359
▁lèn	-14.0359
▁hyde	-14.0359
▁katie	-14.0359
▁ione	-14.036
▁353	-14.0361
▁shorts	-14.0361
▁act	-14.0363
▁691	-14.0363
▁rỏi	-14.0364
ovich	-14.0366
▁bgh	-14.0369
▁hajj	-14.037
sseldorf	-14.037
▁honor	-14.0371
▁plei	-14.0371
▁anders	-14.0371
ep	-14.0372
▁alvar	-14.0372
▁082	-14.0373
▁8888	-14.0373
▁dea	-14.0377
▁sock	-14.0378
▁jump	-14.0378
▁away	-14.038
▁ser	-14.038
▁ranee	-14.0381
▁tamang	-14.0383
▁567	-14.0384
▁1923	-14.0384
▁pvr	-14.0387
▁wells	-14.039
▁fidel	-14.0392
▁1928	-14.0394
▁lara	-14.0396
enstad	-14.0397
▁695	-14.0397
uân	-14.0398
▁rum	-14.0399
▁dame	-14.0401
▁ado	-14.0403
▁lero	-14.0403
▁idn	-14.0403
▁khướ	-14.0407
▁jourd	-14.0408
▁matsu	-14.0411
cion	-14.0417
▁spc	-14.042
ok	-14.0423
▁474	-14.0425
▁bands	-14.0426
▁canal	-14.0426
▁shn	-14.0427
kpo	-14.0429
▁thula	-14.0433
được	-14.0433
▁kah	-14.0434
ens	-14.0437
▁vnf	-14.0442
hae	-14.0445
fo	-14.0454
▁thiem	-14.0455
▁542	-14.0456
▁dona	-14.0461
▁gross	-14.0461
▁628	-14.0463
▁kro	-14.0463
▁434	-14.0473
▁amir	-14.0477
wc	-14.048
ọ	-14.0486
▁546	-14.0488
ểnh	-14.0492
nien	-14.0499
▁hươ	-14.0501
▁thank	-14.0501
mv	-14.0502
▁ahme	-14.0503
▁stra	-14.0504
▁069	-14.0504
side	-14.0504
ồn	-14.0506
▁scho	-14.0506
▁mili	-14.0508
rsten	-14.051
mit	-14.0512
▁087	-14.0513
cky	-14.0517
▁vla	-14.0519
▁meta	-14.052
▁547	-14.0521
▁goa	-14.0522
▁759	-14.0526
▁948	-14.0528
▁tuyen	-14.0529
ani	-14.0529
▁zíc	-14.053
▁send	-14.053
rnia	-14.0536
▁048	-14.0539
▁sia	-14.0541
▁movi	-14.0541
ỏng	-14.0542
vender	-14.0547
▁ive	-14.0547
▁spec	-14.0554
anne	-14.0558
▁522	-14.0561
nar	-14.0564
▁912	-14.0573
▁thoai	-14.0574
▁hw	-14.0575
isle	-14.0581
▁part	-14.0584
▁rogo	-14.059
rz	-14.0594
bok	-14.0595
ề	-14.0596
▁lou	-14.0598
▁sama	-14.0603
▁ols	-14.0607
rias	-14.0609
280	-14.0623
osco	-14.0626
▁kors	-14.0629
297	-14.0634
ẹ	-14.0636
wd	-14.0641
▁fal	-14.0642
ip	-14.0644
▁charm	-14.0645
tour	-14.0646
▁vw	-14.0647
900	-14.0648
▁use	-14.0649
ép	-14.065
▁enzym	-14.0651
▁roe	-14.0653
living	-14.0655
suit	-14.0655
travel	-14.0656
▁follow	-14.0657
▁862	-14.066
▁446	-14.0662
▁kan	-14.0663
mai	-14.0665
▁mpc	-14.0669
ery	-14.067
oọc	-14.0673
▁ashraf	-14.0674
▁ballesteros	-14.0674
▁boulahrouz	-14.0674
▁celadon	-14.0674
▁dabiq	-14.0674
▁darwin	-14.0674
▁depardieu	-14.0674
▁exmor	-14.0674
▁frozen	-14.0674
▁grabtaxi	-14.0674
▁harpoon	-14.0674
▁heletei	-14.0674
▁kharkiv	-14.0674
▁lycopene	-14.0674
▁maserati	-14.0674
▁oleksandr	-14.0674
▁president	-14.0674
▁raikkonen	-14.0674
▁rotterdam	-14.0674
▁rouhani	-14.0674
▁sinabung	-14.0674
▁toxic	-14.0674
▁tunisia	-14.0674
▁zombie	-14.0674
▁bltd	-14.0674
▁bruyne	-14.0674
▁chinese	-14.0674
▁flynn	-14.0674
▁kfir	-14.0674
▁mahajan	-14.0674
▁moutinho	-14.0674
▁volume	-14.0674
▁after	-14.0674
▁brics	-14.0674
▁picnic	-14.0674
▁madden	-14.0674
▁marketwatch	-14.0674
▁hyoyeon	-14.0674
▁sunfly	-14.0674
▁capoue	-14.0674
▁heatherton	-14.0674
▁optimus	-14.0674
▁goldberg	-14.0674
▁admin	-14.0674
▁termina	-14.0674
▁ngoáy	-14.0674
▁russel	-14.0674
▁kinney	-14.0674
▁houwei	-14.0674
▁hrw	-14.0674
▁trẽn	-14.0674
▁senator	-14.0674
▁touchid	-14.0674
▁rudy	-14.0674
▁ginter	-14.0674
▁program	-14.0674
▁evening	-14.0674
▁loading	-14.0674
▁dolls	-14.0674
▁greenland	-14.0674
ych	-14.0674
▁tttd	-14.0674
rướn	-14.0675
▁devon	-14.0675
▁seungri	-14.0675
▁uvb	-14.0675
▁hydroxyt	-14.0675
▁bllđ	-14.0675
defence	-14.0675
▁fiji	-14.0675
▁hhdl	-14.0675
▁router	-14.0675
▁velt	-14.0675
▁signal	-14.0675
▁grai	-14.0675
▁mori	-14.0675
▁sakho	-14.0676
zo	-14.0676
▁imso	-14.0676
▁mercy	-14.0676
▁geographic	-14.0676
▁unian	-14.0676
▁zimb	-14.0676
▁909	-14.0676
▁wright	-14.0676
▁burke	-14.0677
▁ẹp	-14.0677
▁xồm	-14.0677
▁baiji	-14.0678
▁nardi	-14.0678
▁aleksand	-14.0679
▁elena	-14.068
▁senta	-14.0681
▁goldma	-14.0681
▁sác	-14.0682
▁tamil	-14.0682
▁dodge	-14.0682
▁gột	-14.0683
▁scb	-14.0683
▁pas	-14.0684
▁cali	-14.0685
vu	-14.0686
▁xuka	-14.0686
▁efi	-14.0687
▁becker	-14.0689
ras	-14.0689
▁thuồng	-14.0689
▁hbo	-14.069
▁ttf	-14.0693
▁joey	-14.0693
▁1934	-14.0694
▁rocky	-14.0695
era	-14.0696
▁1935	-14.0696
tia	-14.0699
igno	-14.0699
▁asen	-14.0703
▁duo	-14.0704
▁xìu	-14.0704
▁1924	-14.0705
res	-14.0706
▁954	-14.0707
▁cắc	-14.0709
▁qs	-14.0711
▁pyot	-14.0714
▁adc	-14.0714
132	-14.0714
▁hamid	-14.0721
▁aki	-14.0722
▁ceni	-14.0722
▁march	-14.0725
103	-14.0727
ooc	-14.0727
▁685	-14.0729
uart	-14.0729
▁sav	-14.0739
▁789	-14.074
▁elia	-14.0745
ời	-14.0745
▁wd	-14.0746
ẫy	-14.0749
▁bmm	-14.0754
▁sino	-14.0763
hẩm	-14.0766
ejan	-14.0767
▁bủn	-14.0768
▁tune	-14.0769
▁qq	-14.0771
▁pve	-14.0772
eau	-14.0773
esen	-14.0775
utter	-14.0776
▁ferr	-14.0779
matra	-14.078
▁2222	-14.078
ves	-14.078
dor	-14.0785
▁nor	-14.0785
▁xém	-14.0786
▁vẻo	-14.0787
rick	-14.079
hee	-14.0792
lê	-14.0792
▁graf	-14.0793
▁bỉu	-14.0796
3001	-14.0799
▁basa	-14.0803
pg	-14.0803
nik	-14.0804
▁tíu	-14.0804
dc	-14.0807
xolo	-14.0812
▁866	-14.0817
▁chụ	-14.0817
bg	-14.0817
hát	-14.0818
ớp	-14.0819
▁fcm	-14.0824
cey	-14.0826
umph	-14.0828
ble	-14.0833
llah	-14.0835
▁eddi	-14.084
▁gro	-14.0842
jet	-14.0842
▁kry	-14.0843
▁wal	-14.085
ười	-14.0852
rid	-14.0857
▁patric	-14.0857
ky	-14.0862
hyaku	-14.0868
▁wag	-14.0871
nđ	-14.0879
▁mồn	-14.0891
▁nap	-14.0891
arton	-14.0892
▁cast	-14.0893
loa	-14.0896
▁kenn	-14.0898
▁dad	-14.0911
▁đư	-14.0916
▁cov	-14.0917
▁523	-14.0926
▁brand	-14.0927
▁086	-14.0927
bol	-14.0928
ele	-14.0929
mont	-14.0932
▁apo	-14.0934
chka	-14.0935
▁mato	-14.0937
▁394	-14.0943
▁marit	-14.095
▁1902	-14.0952
▁707	-14.0953
▁035	-14.0957
▁see	-14.0959
▁271	-14.0962
andro	-14.0966
▁gú	-14.0968
▁sci	-14.0968
▁there	-14.0969
▁garfi	-14.097
08	-14.0972
▁952	-14.0972
rim	-14.098
▁sata	-14.0982
▁586	-14.0985
▁696	-14.0986
bia	-14.0988
▁turn	-14.0991
▁greg	-14.0992
db	-14.0995
▁font	-14.0996
clair	-14.0997
▁trờ	-14.0997
▁encor	-14.0997
▁543	-14.0998
azir	-14.1
farm	-14.1
▁nù	-14.1001
868	-14.1004
sm	-14.1004
▁khú	-14.1006
▁sleep	-14.1007
▁virtual	-14.1007
▁bethlehem	-14.1007
▁bvhttdl	-14.1007
▁ceramic	-14.1007
▁committed	-14.1007
▁diềm	-14.1007
▁entertaiment	-14.1007
▁evernote	-14.1007
▁kadyrov	-14.1007
▁mangalyaan	-14.1007
▁mgimo	-14.1007
▁muzhenko	-14.1007
▁pereyra	-14.1007
▁placencare	-14.1007
▁quẹo	-14.1007
▁recovery	-14.1007
▁saenuri	-14.1007
▁skyactiv	-14.1007
▁support	-14.1007
▁thunderbolt	-14.1007
▁timothy	-14.1007
▁touliver	-14.1007
▁vancouver	-14.1007
▁vcufta	-14.1007
▁vsattp	-14.1007
▁vđtg	-14.1007
▁zeppelin	-14.1007
▁anphabe	-14.1007
▁bellissima	-14.1007
▁goncourt	-14.1007
▁palawan	-14.1007
▁ultraformer	-14.1007
▁worldwide	-14.1007
▁yersin	-14.1007
▁btttt	-14.1007
▁denver	-14.1007
▁evashop	-14.1007
▁kickstarter	-14.1007
▁matsumoto	-14.1007
▁caravan	-14.1007
▁cbnv	-14.1007
▁dantri	-14.1007
▁generic	-14.1007
▁psdb	-14.1007
▁kilomet	-14.1007
▁miracast	-14.1007
▁melinda	-14.1007
▁podium	-14.1007
▁louisiana	-14.1007
▁nghiêp	-14.1007
▁left	-14.1007
▁level	-14.1007
▁danilo	-14.1007
▁geum	-14.1007
▁reading	-14.1007
▁forward	-14.1007
▁startup	-14.1007
▁tucano	-14.1007
▁bolton	-14.1007
▁yxine	-14.1007
▁newsweek	-14.1007
cillo	-14.1007
▁keita	-14.1007
▁sakura	-14.1007
▁paju	-14.1007
▁drake	-14.1008
▁onai	-14.1008
▁ehome	-14.1008
▁itpc	-14.1008
▁rolling	-14.1008
▁hansen	-14.1008
▁38235	-14.1008
▁musca	-14.1008
▁horr	-14.1008
▁roof	-14.1008
▁peron	-14.1009
▁drone	-14.1009
▁suez	-14.1009
▁mtth	-14.1009
▁cyber	-14.1009
▁lenta	-14.101
▁xịch	-14.101
▁clough	-14.101
▁speroni	-14.101
▁cruze	-14.1011
▁rữa	-14.1011
▁koln	-14.1012
▁bitch	-14.1012
▁smes	-14.1013
▁vphc	-14.1013
▁frame	-14.1014
▁tracker	-14.1014
▁chester	-14.1014
▁catse	-14.1015
▁bẹn	-14.1015
▁rosso	-14.1015
▁schuma	-14.1015
▁shimk	-14.1016
▁urê	-14.1017
▁srt	-14.1017
▁emmy	-14.1018
▁queo	-14.1018
ruise	-14.1018
meer	-14.1019
▁casio	-14.1019
▁thược	-14.1019
▁1898	-14.1019
▁arseny	-14.1022
▁aires	-14.1022
▁bulls	-14.1023
▁zine	-14.1024
▁sato	-14.1024
▁nori	-14.1024
▁nhứt	-14.1024
▁tinhte	-14.1025
▁toong	-14.1026
▁dtm	-14.1027
bbie	-14.1029
▁bĩ	-14.1029
▁1618	-14.1032
▁ashok	-14.1032
tre	-14.1033
▁1918	-14.1034
▁498	-14.1036
▁hyuna	-14.104
▁bợm	-14.1041
tgd	-14.1041
▁resorts	-14.1043
eli	-14.1046
▁853	-14.1048
▁sba	-14.1048
ơn	-14.1049
▁alsto	-14.105
▁0918	-14.1052
▁lanai	-14.1053
▁926	-14.1055
▁xum	-14.1056
▁sidi	-14.1059
jb	-14.1059
bus	-14.106
▁urus	-14.106
pcw	-14.106
▁971	-14.1062
▁vsd	-14.1065
▁pala	-14.1066
▁boost	-14.1067
òng	-14.1071
▁beer	-14.1071
▁tbnn	-14.1072
▁anatol	-14.1074
▁yumi	-14.1076
▁491	-14.1077
▁phuc	-14.1077
▁xị	-14.108
rul	-14.1083
▁fec	-14.1083
▁zara	-14.1085
▁chad	-14.1087
racle	-14.1092
rie	-14.1094
▁1915	-14.1094
isal	-14.1095
win	-14.1097
▁alekse	-14.1099
▁sabia	-14.1105
▁kath	-14.1107
glia	-14.112
quis	-14.112
4000	-14.1122
▁vasilye	-14.1124
osama	-14.1124
ushin	-14.1129
ư	-14.1134
rê	-14.1134
▁door	-14.1135
▁yasu	-14.114
▁482	-14.1147
▁musa	-14.1147
142	-14.1154
hit	-14.116
▁fin	-14.1166
shi	-14.1166
itz	-14.1168
irr	-14.1174
▁739	-14.1177
hua	-14.118
▁688	-14.1181
▁piet	-14.1189
▁imi	-14.119
▁kings	-14.1192
erna	-14.1197
▁late	-14.1197
én	-14.1198
▁gru	-14.1201
▁vivi	-14.1204
▁smm	-14.121
▁lor	-14.1212
▁0968	-14.1217
▁cq	-14.1217
▁terrib	-14.122
▁992	-14.1221
▁takahi	-14.1223
▁sed	-14.1229
anyo	-14.1231
▁md	-14.1236
▁shawn	-14.1236
list	-14.1239
▁june	-14.1239
▁877	-14.1247
▁stand	-14.125
▁wase	-14.1254
vina	-14.1257
▁avi	-14.1261
▁usai	-14.1261
▁762	-14.1271
óng	-14.1272
▁thea	-14.1274
vpt	-14.128
thout	-14.1285
▁lance	-14.1286
0537	-14.1287
▁869	-14.1291
olo	-14.1302
▁đon	-14.1302
▁cic	-14.1303
▁9001	-14.1305
argan	-14.1305
▁complete	-14.1306
stat	-14.1309
▁boo	-14.1311
verse	-14.1312
▁keys	-14.1315
▁equi	-14.1316
tus	-14.1318
▁chea	-14.1319
▁est	-14.1323
▁fo	-14.1323
▁sera	-14.1326
gam	-14.1326
eb	-14.1331
▁0902	-14.1333
family	-14.1334
hat	-14.1337
nguyen	-14.1338
với	-14.1338
▁pub	-14.1339
player	-14.1339
nocchi	-14.134
▁kol	-14.1344
▁646	-14.1347
kqt	-14.1349
[...]
