[PAD]
[UNK]
[CLS]
[SEP]
[MASK]
và
của
có
các
là
trong
được
với
cho
một
đã
không
người
những
công
để
khi
ở
này
tại
về
đến
ra
từ
năm
thể
vào
hiện
trên
cũng
nhiều
đầu
đó
nhà
đồng
sẽ
như
ngày
thành
sự
bị
việc
nam
làm
ông
chính
quốc
động
lại
theo
việt
10
số
hàng
nước
bộ
phải
chỉ
anh
nhân
quan
sau
gia
tôi
trường
định
nhưng
hơn
còn
nhất
1
thời
2
trung
cơ
học
điều
hội
đang
trước
phát
mới
con
qua
thông
giá
thực
biết
thủ
dân
thế
cùng
hình
viên
hợp
đi

sinh
rất
vụ
cao
đối
tế
đây
thì
hành
mà
ảnh
sản
nhận
lý
3
tình
bạn
nội
mình
trình
chủ
thị
tiếp
vì
cả
hà
tin
do
giải
xe
xuất
kinh
dự
dụng
văn
tư
đường
chức
lên
hai
điểm
nên
cầu
nghiệp
lượng
vẫn
kết
cuộc
bản
an
tăng
đại
cách
nay
tác
báo
doanh
tới
năng
lực
tháng
cô
giới
bình
nói
tâm
tiền
bảo
triển
diễn
liên
mặt
cấp
đội
khác
5
toàn
án
lớn
tài
chúng
thu
4
mỹ
đề
tập
khu
độ
tự
thi
tổ
thương
phần
phương
thanh
2014
phòng
cần
nguyễn
nhiên
chiến
b
##i
giao
tạo
thấy
ngoài
lần
gian
vị
họ
xã
hóa
rằng
trọng
pháp
bằng
tổng
chưa
tính
quả
ý
khách
bán
trưởng
minh
sở
trang
máy
triệu
yêu
thống
đấu
quyết
nữ
em
hệ
quân
thường
sử
tuổi
hiệu
hay
6
trở
bệnh
tham
thứ
tỷ
tục
thức
u
9
bên
bà
nào
mạnh
ban
quá
đạo
điện
ty
tiêu
##ất
gần
vực
nếu
địa
trị
kỳ
tỉnh
vừa
tiên
cảnh
tuy
thiết
sống
khai
sĩ
hoạt
đưa
xây
sáng
chất
phẩm
đình
sát
cảm
giảm
dựng
tra
tp
trẻ
ăn
giờ
dịch
khoảng
kiến
quy
khiến
đặc
chí
bắt
hoàn
trận
bàn
chiếc
vậy
biệt
khó
tốt
giúp
phố
đánh
đông
tích
nghệ
đơn
tay
đổi
8
biểu
đoàn
quyền
đất
7
mua
phạm
thêm
mang
đều
hồ
loại
tượng
sách
tiến
000
dùng
chị
kế
cổ
tàu
chuyển
vấn
giữa
mức
tiếng
phụ
ta
nguyên
phục
chế
sức
vệ
ca
giáo
đẹp
bóng
bố
truyền
tìm
hải
chi
chương
từng
lập
dẫn
nghị
nhau
gây
lúc
muốn
mẹ
cứu
diện
ứng
sân
t
nhật
thân
gì
lời
kiểm
dù
bay
hoa
đạt
luật
trợ
sao
viện
trí
nhiệm
quản
tên
ngay
biển
xem
thay
bao
hướng
so
hết
ngân
rồi
chứng
lợi
cá
hoặc
giám
hộ
##m
thắng
r
chuyện
vốn
dài
nhập
chuyên
hòa
huyện
lịch
hoàng
chung
bởi
châu
giữ
tranh
thuộc
cuối
y
mỗ
c
kiện
gặp
cái
bỏ
nơi
xử
cáo
vi
mọi
tiết
giả
mắt
tử
nguồn
##19
chia
##hẳng
đô
phủ
20
chọn
phong
ngành
phim
biến
nhóm
thái
đức
gái
luôn
tấn
mục
ba
vật
khả
danh
xác
k
kể
0
nạn
mở
mất
mạng
sang
liệu
thuật
usd
vùng
thích
phó
vòng
hồi
phân
tịch
nổi
tuần
nhỏ
đáng
khá
hôm
##ng
vận
cạnh
chồng
tương
vũ
tây
lãnh
phía
nó
chơi
sắc
nhạc
tướng
ký
m
vợ
h
hậu
bài
tất
hạn
hoạch
mùa
12
du
trả
##n
nga
vô
khí
tối
ngoại
chân
chiều
kim
đủ
ít
hỗ
nữa
đời
ai
bắc
đá
hồng
chống
cửa
bé
##h
đặt
khăn
xuống
hữu
hàn
phí
ấy
nông
11
vàng
sơn
đoạn
màu
yếu
trần
dương
lao
lấy
cực
n
lan
chuẩn
cố
s
riêng
lưu
cụ
trò
ngọc
khoa
mẫu
đóng
góp
trực
di
15
lê
cung
long
tải
nhằm
xảy
nhanh
biên
mặc
đảm
đêm
hưởng
30
cứ
trái
phiên
ghi
nghiệm
quảng
dưới
càng
vn
nhìn
áo
gọi
sẻ
ninh
rộng
huy
câu
quận
đúng
cộng
bước
thiện
duy
nghĩa
thư
tinh
ủy
hỏi
tố
khẩu
tuyển
buổi
đa
thật
căn
phút
đốc
đầy
thuận
hcm
trạng
đôi
thiếu
áp
xét
đàn
đồ
dành
cường
gồm
lòng
v
ấn
da
thoại
ngôi
vọng
kỹ
dung
nâng
chết
chạy
luận
cục
phép
đăng
lễ
cây
đảo
phá
vai
tân
dễ
hiểu
phối
hương
2013
độc
dn
quý
thuốc
dục
lộ
đào
kỷ
phản
á
thần
trai
lĩnh
19
nghiên
đứng
thảo
chú
nằm
lệ
trách
tưởng
mô
thủy
ngờ
trao
dầu
môn
tuyến
phiếu
nghĩ
tuyên
linh
quang
phóng
hát
niên
lo
hlv
suất
xúc
phú
vượt
thuế
đẩy
cán
xa
hạ
cải
khán
ubnd
tín
nền
chịu
màn
bác
sơ
hiệp
16
nợ
môi
khỏi
âm
siêu
mại
14
bảng
chấp
khỏe
xin
kiếm
sư
nghề
song
17
phúc
khoản
a
lương
lớp
lâu
toán
vui
nguy
nghe
đỏ
18
tội
xuyên
hút
100
đảng
vài
d
đà
họp
is
21
thúc
bức
hãng
thấp
chiếm
giống
dấu
2015
vẻ
tốc
13
thất
kéo
giấy
bí
khởi
nặng
gửi
dòng
quán
ukraine
thiên
hiểm
xuân
chắc
nhờ
phi
miền
mong
triều
ma
soát
ưu
cử
tai
kích
sâu
âu
tặng
trương
hùng
nhớ
trì
viết
phù
phường
hại
giai
tái
giang
lai
##hậm
cháu
hạng
mai
tầng
nghi
tuấn
vay
sớm
giành
tòa
tỏ
tiện
dũng
tức
nghèo
ô
ổn
thăm
làng
chuyến
xanh
thưởng
món
yên
may
niệm
cư
phạt
binh
chăm
mối
khối
50
trắng
cân
khúc
lâm
đe
ánh
nghiêm
khắc
sỹ
lạc
bổ
hạnh
quay
trời
cha
cánh
đau
đáp
nóng
luyện
tiểu
bầu
uống
cập
tỉ
##ãy
lạ
chợ
thẩm
la
xếp
nhiễm
thử
thôn
lựa
chỉnh
thí
đâu
khảo
cấu
buộc
quen
nuôi
quần
ebola
nhu
mộ
loạt
lửa
vinh
quanh
cháy
họa
sông
chữa
khám
chỗ
chấn
thừa
60
thơ
đón
nối
sắp
đài
nổ
cướp
thú
nghỉ
khủng
bày
mã
tránh
sai
dưỡng
máu
cận
chụp
trải
ngồi
tạm
suốt
nhẹ
gắn
thầy
nhiệt
pha
tô
lược
##g
tờ
đàm
chờ
lẽ
đổ
ly
cũ
mắc
##s
thua
##2
thổ
arsenal
xấu
thuê
thao
chắn
hôn
25
biện
the
ngại
##a
chứ
thác
khổ
tộc
nha
thẳng
chóng
lệnh
quê
500
cưới
nhấn
cặp
tầm
sóc
mưa
man
quỹ
l
hy
video
chàng
cậu
cà
sửa
phê
mật
lái
khánh
vững
dạng
bại
sung
giác
kém
cầm
xung
lãi
thiệt
tuyệt
đột
p
sợ
ngủ
hài
hưng
40
trụ
giản
ngắn
rút
nỗ
bật
tận
ương
dạy
mời
ước
niềm
lỗi
thiệu
đương
coi
vĩnh
sóng
dư
bánh
22
##u
hấp
suy
thụ
24
kiểu
hầu
gương
điển
dây
đám
trú
liệt
dáng
sa
tim
băng
thoát
tôn
tóc
mấy
kịp
ích
cam
dần
trấn
ủng
truy
200
đen
tồn
thuyền
kẻ
cp
thỏa
trăm
ngăn
lá
x
cười
lượt
đọc
bắn
sàng
cắt
2012
cấm
lục
đua
mê
vân
đt
rơi
to
cảng
đứa
mừng
núi
chặt
tấm
tạp
thượng
khuyến
súng
đòi
hơi
trồng
chữ
lưới
dàng
tá
23
mái
chở
cựu
thăng
chục
iphone
##1
kính
đích
vong
league
can
địch
túy
phổ
pháo
tung
chelsea
gốc
dịp
chứa
rời
giọng
khóa
rừng
bạc
vương
vé
cuốn
nắm
bè
lắng
mẽ
sn
kê
hạt
nhắc
nghìn
ngược
nét
sàn
##t
gắng
tắc
real
lối
hào
cú
xu
sài
trưng
đỡ
chào
phán
quà
thôi
phận
huấn
lạnh
sữa
chiếu
ràng
sạch
nhuận
chút
i
chậm
phan
nàng
trúc
thịt
thách
hong
đh
đợt
váy
apple
dứt
xinh
miễn
khấu
dừng
góc
thẻ
tươi
clip
##o
giàu
khoán
syria
sạn
ngừng
đoán
kêu
lẫn
thuyết
kịch
gió
g
gòn
kong
ngang
nửa
bờ
rau
mơ
tri
xong
dữ
bò
thai
bão
in
thầu
trộm
hoài
dựa
tệ
ngữ
liền
nêu
huống
trào
hằng
nỗi
##y
2011
gỡ
giết
hề
lắm
bào
nhảy
tỏa
ngàn
ngũ
300
hâm
chặn
##3
đèn
trinh
city
đồn
kiên
bạch
đợi
buôn
sút
xăng
buồn
kèm
đáo
35
hè
ronaldo
lẻ
ẩn
đỗ
đừng
km
ts
facebook
khung
iraq
khắp
ngôn
ga
mãi
ng
bối
e
tĩnh
bến
căng
q
sắt
thải
mềm
hủy
70
cơn
van
đẳng
tường
chạm
nguyện
khuôn
bây
khoe
xứ
ngô
fan
gói
mạc
mạch
nộp
tù
bền
đuổi
tùng
túi
hẹn
kông
ung
dao
kênh
loan
nhĩ
dọa
trạm
huyền
quên
lãm
ép
mắn
gà
26
làn
ngã
bạo
uy
hứng
com
hẳn
90
gợi
vết
hoảng
khích
rượu
27
đỉnh
bữa
kháng
28
bang
gấp
lào
vỡ
29
bãi
dị
già
trà
kia
đoạt
phấn
gỗ
2010
bùi
gtvt
sứ
hiến
nhi
trông
đạn
khen
ví
80
kiều
##e
##30
duyên
ngọt
hiếu
ngư
đinh
ngập
khiển
điệu
top
bậc
f
tiềm
kiệm
đập
ngon
clb
45
bom
củ
giảng
trích
ghế
thập
kho
tiêm
duyệt
ấm
bó
trừ
tiếc
tụ
cty
ống
chấm
phượng
eu
liverpool
tphcm
nắng
cản
đãi
tán
bá
lãng
##c
tràn
cơm
phước
ôm
sốt
singapore
mũi
loạn
camera
xóm
rối
vườn
bốn
huỳnh
lỗ
madrid
đặng
kg
tnhh
31
cờ
đạp
hộp
tt
đốt
ipad
tùy
sổ
khẩn
index
ngụ
gd
huyết
thảm
phức
trật
vũng
thận
nhượng
đền
messi
jong
thụy
hảo
dâu
euro
400
kín
rác
rẻ
thọ
ơn
dậy
cột
quỳnh
xưa
lộc
hiền
trại
dược
nh
bồi
tang
trúng
thiểu
đấy
nhắn
smartphone
dường
ngầm
vietnam
khóc
dày
samsung
hồn
ngưỡng
cứng
sắm
lành
hiếm
hứa
pin
ha
show
bia
new
32
vời
giáp
dụ
mùi
chu
giỏi
mưu
thúy
su
lừa
giam
thù
chối
chúc
dinh
rào
sôi
tháo
cai
sunrise
đậu
trùng
trốn
huế
đâm
de
nhiêu
huynh
cương
chốt
##d
rạng
bếp
dám
tông
lam
hoang
than
vắng
xương
news
hot
pv
cát
treo
ro
hỏa
malaysia
miệng
ngoái
tú
online
trữ
mát
táo
tứ
o
my
lắp
xế
lặng
dàn
khô
premier
xứng
phái
un
đậm
thép
virus
chảy
bê
##x
nhí
hung
thang
trưa
phỏng
gọn
tật
chiêu
lô
chuyền
nghiện
loài
vỏ
giấu
chánh
gạo
tròn
chẽ
2016
bụng
phẫu
lưng
va
internet
hoan
myanmar
thả
cãi
thoải
game
android
giày
mệnh
windows
rủi
đ
răng
##km
lầm
ruột
2009
tam
cẩm
lúa
não
hỏng
chín
kì
thpt
google
vua
nấu
rửa
đan
tốn
##21
ch
trăng
nhánh
mảnh
tàng
giây
cup
xâm
tháp
bồ
lò
bọn
689
lậu
thước
leo
nhịp
non
đam
co
trầm
hàm
600
kurd
bù
quyến
mực
lính
giật
mệt
nhũng
xô
bùng
bông
xóa
ẩm
mourinho
ngực
hnx
nhé
tan
trứng
wenger
tôm
rà
viễn
béo
hư
túc
điệp
bột
nhung
canh
khoáng
giấc
chừng
dâm
rũ
01
tổn
cắp
lang
thở
nai
2008
tiệc
đắt
che
lũ
chủng
hiển
tảng
tàn
niêm
barca
vtc
săn
viêm
36
web
sốc
mỏi
cổng
chuỗi
lọt
vov
diệt
##5
mây
reuters
cất
thịnh
bốc
air
chó
tắm
cỡ
vang
dắt
vẽ
ác
lọc
hầm
mạn
gaal
ngự
dính
thạch
dọc
ái
indonesia
ngắm
hối
tắt
chăn
tả
đo
mù
iii
thánh
đeo
triệt
brazil
world
##8
bám
##k
sáu
mi
thùy
san
thoái
cốt
putin
cống
quỷ
thuẫn
rắn
donetsk
bỉ
nhàng
lây
yết
thờ
khoác
mc
##b
2020
khuyên
sánh
rỡ
nhãn
bớt
na
giường
trống
tu
asiad
mỏng
australia
ân
thơm
yến
37
say
thuần
##kg
vả
150
tuyết
david
thiệp
vĩ
phiến
th
lệch
hô
mau
tuân
ho
chinh
##âu
al
xi
khôi
nút
lồ
bảy
ttxvn
cỏ
ngộ
trọn
ngạc
mãn
afp
cụm
mỏ
gánh
kh
ròng
khát
khâu
trộn
mốc
vươn
bi
ấp
lee
nụ
galaxy
bích
men
ven
vướng
mét
asean
giận
lít
chua
bổng
inch
mu
khiếu
khống
38
33
honda
chúa
800
khớp
trục
lí
cẩn
đai
34
chùa
gdp
móc
ném
bế
bề
cự
thùng
truyện
ngừa
john
champions
website
plus
maria
csgt
london
barcelona
sót
ngọn
bận
##iêm
vẹn
dạ
phật
nhựa
york
thạnh
vây
mv
múa
cđ
soạn
##p
ảo
lông
vạn
lão
im
album
xưởng
vội
##7
dĩ
bát
700
microsoft
chìm
ctcp
trôi
costa
mộc
mến
nobel
bỏng
úc
miếng
##l
lăng
ổ
hi
nhạy
hẹp
mỡ
xoay
rực
ức
xách
tráng
graechen
bong
43
mạo
##4
thợ
dịu
42
nhan
75
00
thâm
bụi
khứ
ii
ưa
z
mini
55
utd
vitamin
tha
khéo
hò
ám
ốc
cài
##ha
tám
nề
united
nồng
liveshow
vải
dội
thô
khói
rồng
chim
chặng
mì
mượn
đầm
2007
buýt
khuyết
đụng
tách
liga
kiev
đắc
ngợi
cđv
lứa
đựng
dã
64
ngào
hổ
gã
##00
cay
west
đĩa
btc
lũy
paris
đế
65
kiệt
tết
trịnh
39
diệu
vợt
lùi
ngãi
obama
tiễn
mầm
đói
nhẫn
hỗn
tọa
cong
lấp
hôi
argentina
kem
đắk
hoành
hở
nguyệt
tand
uyên
diễm
09
mười
muối
mày
bọc
dệt
hagl
muộn
nhnn
gối
nát
kobani
dâng
hđqt
thự
hắn
sen
##gb
đắp
04
trâm
điền
đoan
ghép
trội
milan
nở
trừng
xả
móng
gan
j
bỗng
philippines
phu
đống
lỡ
51
khe
48
gìn
đành
bhxh
mũ
ngạch
vtv
chip
park
côn
đẻ
trọ
dập
mảng
bút
08
sợi
welbeck
heo
vđv
hose
sập
xưng
dồn
250
2006
everton
liều
dọn
campuchia
canada
pccc
quyên
ôtô
tuệ
khoảnh
diego
nexus
rooney
dốc
chênh
xá
tủ
of
girl
41
đáy
ios
thó
63
đuôi
son
bón
bơi
li
viettel
nảy
vóc
lấn
csđt
47
pc
2004
chán
qh
lộn
tour
iran
washington
lân
tạ
ruộng
lật
mẻ
dỡ
liêm
gạch
cắm
mò
05
dạo
loa
khuẩn
##r
nhì
nho
sexy
rãi
cáp
85
trùm
tno
fabregas
airlines
thưa
chai
úy
lợn
old
trân
##er
44
49
manh
note
2000
lề
vỉa
mồ
hòn
pgs
1954
tống
cậy
mm
cưỡng
đằng
nhạt
đspl
kobane
sướng
lỏng
nại
##hiếp
mờ
bắp
sương
bách
mộng
tre
khép
52
##6
lắc
chuột
lôi
quãng
quái
ư
italia
tiệm
120
99
phùng
điên
02
gs
rể
dở
falcao
thoáng
nứt
moscow
oanh
mổ
nhầm
đùa
cóc
phe
sim
rộn
đê
nướng
qđ
www
vở
hãi
54
oan
46
showbiz
dò
ngơi
tựu
huệ
##đ
xà
2005
cốc
trafford
hước
ngoan
chém
tím
bội
ong
nấm
bv
vnd
mắm
thcs
sony
gas
chôn
kcn
manchester
sụt
giãn
mọc
ql
nhắm
phím
chanh
nato
rèn
bayern
nhã
thấu
htc
hụt
khơi
bể
rạp
neo
kỉ
hiếp
hcv
đính
scandal
đúc
ham
hưu
tràng
quét
măng
tràm
suối
vck
israel
ngựa
lở
ri
tụng
gũi
chuộng
rắc
mông
67
cước
bks
luân
chê
ơi
bấm
nạ
thắt
ồn
tq
htx
gò
62
95
56
khoai
chăng
eo
ki
nếp
gục
hố
juventus
khang
khoan
nhậu
balotelli
84
rịa
huân
gián
bùn
##10
thằng
hang
taxi
gb
ngón
poroshenko
guillaume
james
thổi
đứt
cúp
roma
xạ
léo
đồi
pl
blackberry
##hoảng
phiền
đớn
hận
gea
rung
thắc
gãy
xao
láng
thầm
53
italy
kĩ
jessica
gắt
phun
vịnh
jennifer
tottenham
luồng
quế
nđ
ozil
trượt
cửu
nhưỡng
900
bơm
03
nghiêng
chiêm
trỗi
lùng
##cm
ớt
bẩn
vấp
phanh
bar
fdi
mẫn
atletico
rủ
nã
tần
tv
fpt
dừa
##mm
hs
neymar
ranh
xích
băn
khoăn
má
##v
##45
qđnd
email
mụn
bàng
cuồng
tựa
ào
66
hoại
one
thấm
lưỡng
vượng
cua
asem
khanh
58
màng
gay
lữ
tẩy
kí
sạc
dải
hân
sành
##ập
lăn
ngần
vắc
72
dời
hoãn
hd
vành
tr
gác
xăm
suarez
2003
ê
atgt
cởi
57
##20
liberia
cắn
hnm
ap
model
le
mặn
06
xí
chật
cntt
út
thắn
louis
soi
khôn
bì
lột
ram
ssi
61
nhở
1990
ti
brom
khiêm
69
lầu
83
đè
bizlive
chẩn
lót
hđnd
lui
110
dưa
dán
cạn
ốm
phế
##17
77
miêu
cn
lốp
bđs
me
ao
chè
led
min
bhyt
chuối
mịn
hái
xỉ
chả
125
buông
châm
bấy
sởi
đọng
xk
tê
nhường
trạch
no
87
lội
xắn
nhơn
xông
ghen
st
gom
82
phổi
liêu
mh
ngột
nghịch
se
mercedes
as
68
olympic
ni
cm
xơ
ngỡ
nàn
mèo
len
rỉ
oscar
lát
khải
nhặt
khiếp
mía
tpo
khuất
liễu
pakistan
##nh
92
hp
dạn
ph
thám
xperia
young
mr
http
khái
factor
tồi
gam
lường
bái
tỏi
phở
voi
bộc
daily
76
vs
tò
kíp
michael
ngâm
catp
bưu
kề
bđbp
88
đắm
rải
xôn
who
qu
seoul
ceo
hollywood
lạt
sáp
jmg
hit
kẹt
vy
nan
giọt
rạch
band
ôn
73
đắng
74
07
mí
cadn
cr
dẹp
thủng
chửi
ả
dông
sm
gươm
điêu
tablet
đắn
sjc
bs
texas
nạp
villa
vú
toyota
thỉnh
đòn
86
vã
59
tokyo
gốm
mtv
lướt
giàn
##ing
ghé
trễ
hạm
psg
lặn
khê
lận
nồi
##9
78
alex
gi
81
luis
râu
federer
đệm
bank
hé
and
cúng
71
xát
lạng
nxb
sụp
times
##uýt
khoang
xót
thon
trù
cưng
bưởi
bale
angela
lơ
gậy
buồng
lồng
nắp
khao
đệ
pa
lau
dãy
79
tà
mòn
mttq
nsnn
phơi
ngất
dối
thèm
metro
trâu
2017
thiêng
oda
lẫy
mốt
đạm
idol
hao
xôi
martin
dnnn
##úp
vuông
bo
chọc
hóc
ben
đả
nn
nốt
lung
##hói
ráp
chen
mồi
91
nô
lún
130
mác
1995
set
xen
rẫy
bồn
cristiano
el
vớt
nâu
chép
lộng
games
container
đuối
nới
tặc
munich
dại
vạch
tóm
twitter
lhq
vặt
nina
fi
ancelotti
ctck
nhát
túng
rộ
bô
thới
chui
quách
hẻm
mexico
nhâm
gu
khuya
nén
xám
phì
nương
aguero
lưỡi
djokovic
rệt
tơ
kè
dặn
thìa
vladimir
ukraina
khiêu
mata
bbc
đôn
bẫy
nhàn
lặp
rập
oxy
kép
lanh
tao
ngà
kiềm
casillas
dỗ
evn
showroom
nhược
ngài
rẽ
chinhph
180
thomas
thắp
giặt
trán
sanchez
sạt
mường
lánh
nk
tngt
bmw
nhọn
audi
89
đặn
khốc
choáng
sườn
mail
trăn
nghiệt
vic
giềng
nhộn
lắk
1994
hiv
khía
sgk
ptnt
lụt
loki
nhôm
##15
mix
ngây
cọc
2002
nôn
hoi
à
tấu
quặng
chiên
super
oz
nlđo
chốn
snsd
nuối
98
2001
ea
vịt
persie
1997
##50
quầy
ẩu
nokia
ạ
trắc
vọt
thạc
nám
duncan
350
dortmund
hq
xẻ
quát
aston
gạt
bơ
mark
ngưng
chiết
đèo
vứt
cồn
group
wi
os
serbia
festival
dl
phụng
ùn
bừng
rong
sếp
nòng
96
dồ
benzema
dép
jose
ngoạn
khoái
dưng
xào
roy
cúc
vác
đbscl
galatasaray
tivi
tụt
run
nsưt
hye
elly
iv
chìa
140
##mp
êm
##f
miện
hcđ
##ứt
ráo
vu
rò
mươi
file
vietcombank
1991
you
báu
giã
gầm
siết
óc
sun
ji
mập
triết
qui
xiii
sir
slovakia
plo
ghét
táng
mt
phẳng
trơn
live
bôi
up
gdvn
ngẫu
lđ
w
lg
xoắn
còi
inter
##ỗi
kẹo
jeans
giòn
đếm
đtqg
đấm
đạc
chéo
gót
hat
thản
##enny
97
dj
##on
ren
160
sừng
cháo
phô
keane
voice
thềm
1993
rốt
sex
bạt
nghênh
##an
xài
##usd
sterling
thiêu
monaco
ntm
imf
hốt
240
go
laptop
nhức
pro
mac
sx
hn
đùi
##ch
ngỏ
vff
xê
miss
hoạn
hãm
miura
vietinbank
wifi
afghanistan
dai
rách
bồng
##na
trêu
intel
thoa
##ra
tui
cám
ngặt
luhan
ngàng
##line
chùm
canxi
lụa
văng
cấy
thục
ủ
1988
sierra
rổ
đun
nhị
cào
hức
93
mìn
1989
bóp
paul
big
1000
vamc
né
won
nhục
etf
miếu
axit
lumia
##arsene
xoa
kệ
xh
đkvđ
cap
chuông
shb
1996
kerry
cò
serie
##háo
sâm
bin
đu
đới
teen
tước
ướt
rô
muôn
nlđ
rụng
rubella
đtck
net
tem
yamaha
1975
leone
california
tctd
1992
nhăn
barack
khương
vnpt
lđlđ
mài
youtube
emirates
nđt
tịnh
ford
tn
cand
ntk
blues
spa
chót
ac
xuôi
1999
viếng
tấp
lu
gầy
bóc
star
hazard
nguội
slna
mạ
bidv
peter
mãnh
hét
nhang
bilbao
quật
ngưu
220
aff
94
fc
robert
vietjet
nhọc
cù
khedira
qatar
hán
dào
##us
cuba
1980
lách
bẩm
##ấy
thắm
gai
rodgers
họng
si
nộ
xay
ru
suzuki
trick
bìa
sea
gân
náo
chợt
##en
khuê
ndh
bún
tạt
cph
450
cớ
tưng
nhuộm
exo
ván
tị
royce
silva
massage
giằng
1998
los
jean
karaoke
usb
petro
xấp
##sao
chèo
lũng
grand
uốn
hoán
vách
tát
qpr
chén
viền
resort
##iệt
tạng
lọ
hull
nadal
seung
cỗ
đọ
vingroup
bạ
xé
rolls
tia
ưng
rao
mario
protein
cuộn
palestine
súc
china
palace
tẩu
incheon
ngậm
han
gen
bridge
saigon
1982
kẽ
abe
xướng
logo
ồ
lụy
hotgirl
quyển
tốp
sport
sưng
quỳ
enrique
peugeot
cạp
cdc
fifa
mả
ct
sẹo
del
gấu
bực
center
land
valencia
vắt
eye
1986
passport
jones
diệp
rớt
đúp
trác
sh
sv
quạt
nể
sam
##âm
desire
ướp
lotte
nhịn
mắng
xì
vỗ
pique
open
hcb
nến
##ne
nguyen
keo
doc
##al
plaza
kiêu
pop
chay
rock
snapdragon
collagen
thêu
mỉ
am
hăng
rước
ttg
nm
chì
giò
khỏa
kok
dang
danny
vòm
lều
lạp
gừng
2030
xịt
belarus
ủi
kazakhstan
luke
chải
radar
nuốt
gặt
giếng
mỳ
2018
hyun
phao
lamborghini
đục
lừng
##hay
type
chdcnd
wayne
nd
oai
jung
boy
nản
series
hee
eric
bernabeu
tản
gàng
bẻ
bén
mượt
southampton
ghê
dẻo
thối
benz
nhóc
hông
for
sỏi
post
thốt
kha
pvn
phẫn
khiết
red
phone
vaccine
cọ
nghẽn
chan
thòi
taylor
##dđt
csb
sầu
nấy
nick
daniel
zing
tbktsg
séc
vạ
tí
kt
yoga
##ắp
golf
nhuyễn
cẩu
flash
nức
1984
bã
ngán
masters
miên
ireland
sydney
fed
atm
nà
luộc
chuồng
tăm
nọ
khan
kìm
đốn
ngả
giôm
sọ
lenovo
ferrari
dallas
heroin
trệ
lờ
lén
chà
flc
ttvn
170
nóc
wb
giáng
agribank
stamford
tb
fa
##es
colombia
lionel
kbc
sấu
piêu
##co
crystal
thạo
nepal
unesco
liêng
hổng
bxh
dè
nigeria
cesc
cành
nang
diva
hường
berlin
dì
motor
joe
thà
app
##12
ngửa
xnk
patrick
két
búa
128
kyo
côi
lay
rùa
nêm
chớ
rã
il
xòe
khốn
tx
cối
chướng
laser
wall
got
##dautu
kền
kiêng
##íu
tđc
ạt
xảo
photo
vh
vksnd
nhậm
1945
trói
vùi
xít
murray
toát
tmcp
blind
sét
chảo
ầm
cưa
270
##in
phàn
giỏ
toan
scotland
levante
nhiễu
canon
tuyền
baghdad
ghz
bịt
techcombank
gieo
vidal
tý
lựu
bu
115
alves
chiểu
vest
thuở
kon
shi
shop
victoria
mp
##thương
ttck
re
trèo
xù
like
ria
halloween
hwang
simon
be
mb
##vn
dubai
mobile
##cc
courtois
penalty
hít
gt
zealand
marketing
##ếm
pho
mobifone
venezuela
nghẹn
tw
jin
guinea
mazda
tưới
rảnh
nhủ
đò
quấy
chói
cấn
ngụy
link
nude
juan
ngó
pixel
megapixel
merkel
vietnamnet
tttm
750
saudi
đũa
sờ
cu
105
bới
sấy
blue
trổ
rầm
320
##z
george
ếch
sắn
giặc
sưa
ngơ
ơ
vcci
mép
1987
ron
soo
herrera
quấn
xáo
ounce
day
talent
hủ
dong
bú
iceland
rạn
##ro
trãi
360
nq
nón
##ẫu
thy
nhtm
love
đẫm
lốc
mẹo
nhái
vòi
bọ
108
thun
international
vờ
cnn
ktđ
ghe
getty
pu
lhp
ấu
wales
watch
tom
chích
estonia
khắt
robot
ka
jack
##el
mah
bundesliga
điềm
phác
jang
##tđt
ferguson
xy
andrea
quất
tbn
petrolimex
khử
chớp
chk
tảo
pvs
##ấp
giục
doãn
hệt
ế
##le
váng
toure
class
khoát
sầm
##ẩn
quýt
ve
angel
nhằn
asus
hun
kop
cày
190
hả
rỗi
airbus
gtgt
marino
tum
alan
phông
nhỉ
bệ
xoài
yangon
wilshere
yemen
phiêu
chuộc
tắn
lampard
alexis
##ườm
cd
đbqh
ruồi
nhện
rơm
132
bentley
nsnd
lười
dạt
bênh
bot
pham
alexander
nỉ
bikini
ngạt
##40
giơ
solo
camp
cằm
kali
next
taw
##ed
home
azerbaijan
manuel
nhồi
##oc
ngời
ictnews
bit
royal
##man
rafael
steve
lẩu
hacker
1970
tua
style
kroos
albania
sergi
noo
dê
thốn
dance
uae
ngẩn
green
core
uruguay
rót
hag
nghé
bst
street
sô
cs
gerrard
vá
cech
pep
geun
luyến
chốc
cược
1981
230
mít
thề
##w
ngùi
justin
ỏi
sào
cafe
micro
khỉ
bluetooth
status
smart
viet
full
đàng
thửa
taliban
ipo
chằng
pdf
pvd
##ắt
imac
single
bọt
on
hiên
##q
annabelle
xavi
dặm
acb
vnđ
nhm
concept
lugansk
mesut
đỉa
bosque
msx
moon
ngoisao
swift
1985
boeing
chậu
sà
play
gmail
ramos
rễ
visa
##gareth
tòng
nhào
stress
oppo
1983
sửu
asian
kids
tủi
đao
keangnam
##th
sar
té
nếm
ray
##14
175
khoanh
it
răn
cừ
aids
adam
cúm
kẽm
210
luxembourg
juve
365
tpp
vét
khoắn
##ly
eibar
kẹp
1972
tgđ
hạch
marco
instagram
rưỡi
sảo
thiều
ah
##350
rodriguez
mậu
chang
jo
khuấy
ốp
vina
fbi
kun
gđ
sturridge
điếu
2019
chris
gpmb
out
giời
td
white
rùng
rụi
nghiền
1978
menu
ngoặt
harry
chập
line
zheng
xoang
gv
basel
sedan
thiền
store
##no
ngao
tụy
lawrence
ngắt
##son
bangkok
tro
trút
ko
gaza
rét
cội
ngóng
rợn
start
vec
gang
chile
entertainment
porsche
lavrov
ludogorets
café
chọi
henry
angeles
lửng
cụt
103
vongfong
##ml
bầy
derby
uất
saint
uefa
thiêm
hu
shaw
xoáy
nhốt
mâm
bai
úp
nhả
1968
kình
rio
vung
bung
bus
gl
vẫy
nung
mẩn
hanh
khố
qaeda
retina
busan
brad
ách
súp
reo
modiano
khét
malala
gật
mủ
vgp
650
tel
##25
##ần
antt
media
##ghz
đăk
lollipop
##ta
id
tkv
quí
ngứa
nhấp
dầm
shs
##pyi
thính
wang
nhai
cavani
1964
nành
##ong
steven
##mg
yanbi
guardian
vuốt
scic
office
yeon
phen
diesel
lùm
sòng
290
135
lượn
lopez
jolie
diên
ngục
tỉa
ib
bloomberg
university
anfield
then
vơ
102
henderson
kpop
iker
vcb
vãn
modi
hen
ngấm
kelly
280
tho
gắm
cameron
1979
khinh
muỗng
chát
mig
tab
test
moskva
uzbekistan
nghẹt
kiếp
1960
blog
htv
hc
260
quyện
chạp
osce
vt
##ấn
thê
ngẫm
gội
lóc
ngòi
all
woo
bp
chat
ttđb
quậy
qualcomm
xiong
mầu
break
730
phà
williams
cúi
richard
vụn
hđxx
1971
thâu
xua
dracula
ajax
124
ub
##da
quẩn
trailer
touch
rán
jae
ls
vơi
##hệch
vincom
brunei
dtts
brenda
vun
rượt
gộp
terry
novosti
bulgaria
1976
101
gold
109
lư
hart
ryan
ankara
vip
áng
đái
guardiola
iniesta
junior
der
johnson
river
hanoi
libya
chàm
550
dr
svđ
william
hãn
noi
henning
cqđt
phớt
104
calo
mirror
1974
mương
andrew
tít
át
hsg
smartwatch
giầy
cuốc
giêng
##ậm
lon
nhảnh
suv
eun
ke
koscielny
napoli
amazon
pô
cốm
express
liu
lim
alonso
black
##rót
suôn
south
christian
tuột
bẩy
107
time
cover
vnm
đtdđ
phồng
trồ
mao
xú
hyundai
forbes
von
pen
tony
##ia
andy
mỉm
##yn
nập
dragon
tỳ
tẩm
1950
yếm
##13
hờ
hk
ksnd
pleiku
vertu
lẫm
ivanovic
méo
gala
blade
rơ
khẽ
chầu
cabin
##ông
carlo
serge
dí
yaya
radio
mo
nou
mart
jordan
pyong
loét
cnht
selena
tạc
nano
schalke
tass
charles
voan
toa
hiddink
moyes
taekwondo
113
sacombank
hoay
body
ngu
beckham
crimea
lte
bầm
lã
carbon
ocean
hợi
thuột
lú
ngọ
vallecano
giăng
telegraph
sưởi
bill
fashion
isis
##ie
sảng
106
dằn
etihad
tép
anbar
đác
nissan
robben
nickname
khmer
ngách
fta
cạo
xíu
chư
yonhap
đực
lầy
peru
gập
đố
nhàm
sảnh
abu
yang
bừa
croatia
motorola
thuyên
dứa
1973
rê
lgbt
##ẳng
vinalines
kts
tẻ
nách
vision
1969
úng
pvc
##ts
oh
dk
gạc
garcia
bvsc
kris
frank
chòi
house
vút
dế
pr
newcastle
sỡ
business
poster
##ay
pay
dẫ
phil
wei
hybrid
nhoáng
fuso
rúng
asia
ôi
loãng
sharapova
ipu
gary
fpts
ngổ
yosemite
lady
carlos
trá
nu
năn
mcnair
găng
afc
iso
trọt
nghĩnh
view
117
ec
acid
selfie
330
trặc
kremlin
ngùng
gáy
racer
moto
music
củi
cholesterol
sneijder
buồm
karatedo
icloud
xộn
sục
sp
trau
tuc
lép
cuống
##hễ
chao
##ka
capital
đhqg
sói
kate
msn
bời
pan
búi
nhẹn
nần
yo
america
kitkat
wto
ppp
tcty
rada
dani
chèn
##29
shin
cốp
evans
băm
off
hpg
ton
king
phách
rúp
bđkh
fanpage
totti
xước
hùm
en
max
central
arabia
mịt
720
vôi
tower
assad
141
sặc
pitt
eden
##16
mách
thỏ
phôi
januzaj
minsk
vặn
bt
gdđt
victor
arab
độn
hodgson
triền
tiệp
rt
pellegrini
thẳm
1977
chắt
nem
laurent
##ạo
tax
catwalk
xuồng
nặc
thừng
bsc
dnnvv
angelina
hummels
sunni
kobe
điểu
atp
cồng
##24
##23
auto
global
rưng
610
tct
stockholm
sá
ngo
thán
garden
carrick
athletic
biden
vinson
us
podolski
pogba
##70
trẻo
que
##60
cộ
mui
vinhomes
khoét
xùm
card
vatican
òa
perez
165
rim
andre
roi
phai
đán
toefl
skype
tdtt
môtô
quây
nhét
còng
make
rồ
admiralty
concert
vđqg
##gọt
114
seo
pe
ngừ
bon
cáu
yahoo
malta
sky
gp
tấc
tm
##kv
baby
lb
##mel
##sor
##way
best
lđbđ
compact
finals
reus
gps
trệt
1946
mùng
gở
czech
jackson
hđh
ak
roger
gr
##ộc
ducati
stoltenberg
standard
jobs
nhúng
gỉ
fernando
life
sop
##or
##today
cb
##ner
##ba
mễ
vít
ibrahimovic
kevin
serena
nạt
cc
##za
127
desktop
xoăn
đậy
guitar
##lb
##ic
116
eximbank
phablet
tirole
vinacapital
minzy
cmnd
hormone
coupe
112
vo
ken
riết
dơi
hắt
ibm
mia
nham
bull
fans
giấm
szczesny
wta
cbre
##67
143
cv
matic
1080
american
club
ảm
đơ
nhổ
trơ
chrome
mấu
vhttdl
kạn
xỉu
rome
dmitr
vế
huawei
preview
ngoãn
shinzo
xuyến
thặng
tyler
850
high
muống
chicharito
lallana
abbott
macbook
bẹp
##huyen
chổi
208
sộ
khuynh
offline
toni
nhích
##sa
sami
gớm
ashley
hsbc
##é
dpr
inno
kcna
phunu
don
studio
blackett
sunderland
gram
1965
data
zuckerberg
ligue
tennis
rojo
dỏm
gone
hãnh
tuông
ắc
lambert
đẽ
cpu
bịch
tòi
wraith
casino
brussels
rình
911
##22
##46
lán
tơi
145
turbo
##j
hấu
oezil
ferrer
nguyền
1966
bướm
121
vna
maya
##ột
win
fellaini
mận
dột
sọc
bảnh
khay
giẫ
##ton
mè
trĩ
evfta
opera
chambers
sủa
vks
##iêng
yen
nắn
kassig
phượt
trướng
trũng
chanel
bục
tớ
830
ngói
fb
ana
llvt
phantom
antonio
126
ngủi
ne
sửng
by
ths
ju
ekip
carl
conte
isco
hú
cang
##ốc
##hăm
tanh
harvard
gượng
alpha
mớ
ráng
choàng
nong
roberto
thót
2025
jane
gào
doan
nilon
rover
yousafzai
huyệt
dăm
##ri
##ya
##la
marc
per
at
walcott
infonet
tợn
sê
ander
kwon
bali
dream
lẻo
beat
nhờn
nê
vat
cazorla
obuchi
vinaphone
vhtt
giở
mẩu
xiết
tậu
càn
doji
ì
block
vụng
155
##uýp
dđdn
tnxp
nhòa
hugo
lcd
cahill
ứ
##mb
sl
##ếch
hon
chamberlain
ambike
savill
chài
exciter
modric
vnaccs
widodo
nnptnt
căm
mall
sanh
rậm
##iễu
##ùa
##ce
##re
##100
latvia
nippon
146
kiko
stephen
nhác
car
##land
niu
túm
131
jay
##os
vnexpress
kaka
111
lả
đấ
petr
dãi
hằn
nhựt
ươm
tndn
awards
clasico
chước
rãnh
rayo
##uông
suông
ge
ket
bành
brown
krông
titan
uyển
dvd
gaga
zenfone
osaka
ramsey
hotel
tày
225
pla
walk
ya
đỗi
cau
piano
dát
daley
##18
vạt
wave
michel
bch
sg
rap
dau
chicago
erdogan
mitsubishi
starbucks
eurozone
journal
húc
rành
chạc
north
javier
sạp
xịn
camry
bhl
cska
dẳng
bặm
caq
ngớ
japan
ngố
nơ
bql
charlie
tiếu
mekong
gear
kwh
trọc
hờn
bói
ngợp
beta
anz
cole
cia
giroud
leicester
bvtv
lem
##is
xổ
anna
phả
diêm
cưu
eur
xỉn
chevrolet
pnj
vespa
francisco
kathr
vcsc
jica
sd
ntnn
lút
lẳng
930
dẫm
secret
romero
altis
aec
eva
xệ
jens
kang
nasa
lố
##ar
vinacomin
art
sarah
##am
ita
catalan
vccorp
varane
cvđ
silicon
rỗng
nhuong
##án
122
phất
hànôịmới
sapphire
swansea
milner
byung
xèo
dìu
1967
đôla
sả
tì
ngạn
hamilton
yasuy
chiellini
niệu
hinh
made
cvt
##mah
tru
178
sevilla
stylist
sonata
vlaar
fiorentina
1962
990
tvb
hagel
tae
##ỷ
bèo
nhũ
mồm
vãi
macedonia
okinawa
settings
smith
ttxh
arena
rát
chần
##to
nao
148
kp
julia
omega
hotboy
vcis
615
bần
##st
##47
ara
##55
golden
##em
nôi
amsterdam
lucas
dhg
vỹ
xtan
ốt
christophe
câm
france
bianchi
frieden
yazidi
baines
giẽ
blđ
xóc
cook
ngớt
đùng
novak
cl
jorge
qng
mega
uss
mendes
rapper
howard
thày
mg
ion
lich
vâng
tba
teo
sỉ
129
420
phom
mĩ
anthony
matteo
hungary
185
mk
power
ỉ
yong
bugatti
miranda
edition
##tv
tcm
đốm
340
robin
5000
jan
164
bửu
mathieu
##ễu
lin
##ây
đong
thiếp
ngút
miley
point
hốc
##technical
981
ten
amg
vò
##ma
##ad
disney
bieber
pearl
##áo
nhuệ
coca
huyên
sán
mị
kl
free
kèn
trớ
las
grace
sệt
sùi
donbass
yoo
night
mbh
226
##hắc
gates
queen
will
blanc
chừ
##ity
ferdinand
kawasaki
mướn
giỗ
nathan
valley
images
##ảnh
ngốc
235
308
chưng
we
123
xx
245
670
171
##ls
##erry
##ắc
boston
morning
ag
tnmt
philips
muỗi
ĩ
thóc
kềnh
nhá
195
dow
##cast
##hỉnh
health
catalonia
kbnn
kntc
vồng
##11
town
##370
box
499
xui
pt
##ck
he
taka
399
trứ
vần
lùn
barroso
medvedev
pirlo
rousseff
ngượng
qltt
rêu
pelle
op
hời
##uala
beach
xốp
hoằng
trầu
gồng
total
uk
check
cui
480
nhô
code
bốt
##35
wa
##iệc
sin
298
đổng
drive
vinatex
denim
tróc
richter
diều
đtvn
kèo
sms
1930
##ko
560
249
dẻ
bitcoin
gao
éo
ngáo
click
múi
##54
rose
##80
cah
stoke
florida
nguôi
đú
giông
bỉnh
neil
húng
##ney
440
berahino
campbell
pharma
gerard
##do
ed
xoan
general
202
186
##vcb
vớ
##se
khơ
tề
berdych
elizabeth
ngửi
bgk
ngát
chội
lìa
insulin
1959
gờm
##0
tía
khảm
btv
##as
458
gio
156
ultra
##nd
cienco
hđlđ
emily
dượng
kcx
moser
cnlđ
chơn
ngót
road
wu
wong
think
ngải
##va
390
vía
crai
para
scott
diết
pvx
cỏi
india
gm
133
802
ja
sến
lexus
tót
sungmin
miller
rợ
travel
nhối
brent
kv
gióng
rông
inc
dell
yg
##itar
cưỡi
frankfurt
giggs
kardashian
ruby
qp
##achim
412
thoi
152
dv
##ủa
luhansk
apache
lhtn
panasonic
yasukuni
khùng
gym
somalia
thiago
hớ
núp
chau
ree
salad
om
cằn
fox
bềnh
lượm
maximark
jeff
thét
paik
mướt
verona
ips
joon
đày
carrie
hê
lì
hổi
national
francis
civic
vinamilk
toshiba
lumpur
delhi
ngợm
hẫng
bưng
fax
short
rahee
roja
vlad
thong
ó
quàng
##et
ắp
299
kangaroo
lewandowski
bosnia
formosa
viktor
glass
rầu
rocket
mích
1953
cộm
215
jp
sò
sụn
biếng
crop
senkaku
snapchat
jazz
flamini
quặc
bỡ
guốc
xiêu
leung
qlda
kén
latinh
tpbank
vin
hh
cnvclđ
ibaraki
strootman
airways
insider
garage
adb
vnmedia
logic
##05
ló
1900
##83
sol
pi
hởi
phồn
nestlé
pvcombank
phanfone
cherry
dĩnh
joo
sải
bb
hill
eps
##ụt
142
cặn
alba
hae
lens
##34
thỏi
râm
134
tễ
low
vib
edward
660
presbyterian
xiếc
little
sùng
118
danang
1949
vp
rain
cut
ia
310
bợ
abc
margin
project
baltic
neuer
siberia
xhtt
macau
ailen
blogger
hỷ
chiêng
ppi
430
romania
hall
##go
##itco
630
sững
gỏi
luxury
múc
nấc
epa
##sen
205
usa
##92
đóa
nhớt
mike
kata
viglacera
vênh
morgan
ngầu
comment
nheo
kkt
##tags
rôm
##at
370
nv
ye
jun
dimitrov
ming
lấ
##sky
matt
999
sur
dropbox
espanyol
marcelo
zhang
sẫm
lợp
xói
dan
rèm
sần
3008
8002
kdc
trợn
##idol
tc
136
mic
ballad
gplx
ltd
hẻo
paper
hol
tpcp
ố
bush
book
lồi
052
##ov
##ms
3000
bùa
corp
##li
ok
karim
hernandez
lithium
toulouse
chocolate
nhỡ
pierson
size
cookies
soái
vata
master
nấp
dùi
wan
508
phui
ndt
##ca
380
himalaya
gazprom
microsd
hdbank
chuốt
tiin
lịm
1961
bolivia
hấn
https
truất
080
248
bvh
##ct
168
##tt
po
nặn
bướu
oktoberfest
bremen
dailymail
valdes
amber
nfc
##um
chảnh
##200
tã
sáo
162
hũ
ck
##ơ
ổi
takumi
vanuatu
scmp
becks
rục
đna
mpx
dỗi
##ino
##est
khóm
hop
176
khít
##99
chưởng
hawaii
kesha
nháy
##ti
giàng
hới
801
dunga
dha
sports
te
pacific
kyoto
gù
santos
mịch
haivl
vama
săm
gts
đb
ad
congo
##me
sma
cola
tđ
##ước
sara
ielts
billboard
mikel
nẻo
jr
ctv
nạc
##ion
eos
##đtv
161
mode
koke
275
##ho
milo
tuất
pedro
marseille
qbv
gomez
đằm
opmart
chột
vxl
toái
khỉnh
bết
chae
líu
lock
255
138
777
lyon
step
##63
nghê
draxler
sassuolo
renzi
html
toản
sakai
lđlđvn
##ể
khế
tuồng
##ải
audio
org
vụt
805
thuấn
324
artur
bịa
##ley
##hr
ali
950
adrian
mướp
christine
harper
aeon
lđtbxh
ngạo
phình
##orussia
580
199
183
coutinho
hattrick
satyarthi
fashionista
arteta
gameshow
kiền
bđg
chun
gpu
1963
xii
ey
##hạnh
tủy
duẩn
ù
hiu
gara
149
##gr
gil
tevez
senegal
cafeland
ksd
sporting
1947
bệt
##icente
##pe
157
gạ
##2014
oán
luồn
ninja
jamie
volkswagen
attp
trầ
amy
##ki
stefan
590
lỏ
##ff
bở
139
##ầm
hamburg
lloris
vắcxin
upcom
ngẩm
cadie
evo
bashar
nọc
back
highlight
team
hòm
thỏm
ói
ip
sina
vén
quầng
crown
huê
ivan
ht
389
dền
lẻn
nhún
mertesacker
hực
giun
hèn
lăm
chày
sạm
key
gon
599
##52
tk
890
with
##nt
##hoạt
bravo
orion
nhúc
##de
rít
óng
##ằng
khcn
girls
đanh
hui
fire
chuck
veyron
điếc
raqqa
quẩy
hươu
vừng
lình
cật
nệm
mrcc
sergey
cừu
thớt
lóng
mary
265
##ium
phàm
nnt
soc
ừ
ttgt
ns
119
rú
mó
lừ
nẻ
hongkong
huntelaar
blazer
jason
vựa
nhút
1958
1956
cpi
153
adn
héc
hsx
event
lhpn
mats
suk
hỉnh
tran
loang
lane
##tr
##ến
##vf
tehran
raymond
itunes
austin
mửa
banking
this
emma
##68
nháo
yoon
##te
rè
dụm
mila
tag
jim
mignolet
stuttgart
quẹt
ama
hitler
nicolas
bậy
tomas
oman
đờn
ny
buk
thx
hero
144
icon
##ga
dempsey
tmđt
deportivo
blancos
luiz
bctc
pepe
baden
abs
bvs
rôn
yu
au
hari
##nm
##ey
##ex
benjamin
drogba
leverkusen
taeyeon
rcz
navas
allen
georgia
goal
giễu
xéo
##ur
vios
anne
##so
jen
gov
vol
mou
209
##uổi
phốt
lằn
ds
alaska
armenia
germain
nasdaq
schurrle
suboi
biếu
samud
europa
phiệt
uav
234
phào
##hqs
ivy
ace
mbs
sc
##set
##ron
1920
204
or
design
hermès
vietgap
bangladesh
cooper
vienna
dặt
boots
francois
nuột
cnch
hsc
ivs
nbc
nộm
256
kb
##mi
##dier
morales
peskov
aaron
carrera
sctv
joseph
kenya
sticker
phiện
pkk
490
pá
phàng
192
##ac
880
vãng
##27
vồ
motors
137
catalunya
corolla
nutifood
yểm
cardigan
manila
cbcs
leonardo
bauxite
gcn
sảy
viii
apec
nba
cbcnv
305
mào
pak
##90
roman
158
##rby
iris
mayweather
wikipedia
luống
benelli
happy
muller
pizza
náu
tiki
today
##49
great
050
bel
##lan
ce
lẽo
mcdonald
hiphop
nvidia
yatsenyuk
simeone
bruce
electronics
hunter
nậu
khiêng
mls
fe
idc
ps
385
bổn
kashmir
mohamed
nishikori
phũ
nouvo
xwb
school
mọng
atc
xỏ
daniela
safari
nín
##86
##be
bấ
ice
lác
good
825
find
460
want
221
luông
vietstock
càphê
jakarta
vuitton
đhđcđ
burnley
eriksen
ubtvqh
geneva
cđcs
zarra
philippe
ihi
thướt
xình
nbb
cause
hững
bird
1955
sana
saga
format
##di
hussein
ắng
tthc
hollande
pastel
rosberg
beauty
187
##26
jon
##ss
223
dơ
mw
yi
trịa
##lin
giỡn
kvitova
malacca
sấm
chartered
busquets
feet
ngưởng
moóc
hack
tsn
yuri
nua
hí
raul
##hừng
##1000
##haco
mariah
rốn
walter
ft
miến
201
benfica
handmade
gibbs
onecontact
nết
xới
ạch
mút
fao
eyes
jonatha
151
thệ
psak
hip
đù
620
chuồn
lisbon
vẹo
hkbike
mosul
joko
xiaomi
natri
lahm
hvg
##hóm
duệ
vr
nghén
vánh
fair
đản
porto
925
213
đát
classic
690
ngông
nghè
mclaren
shihao
cnbc
teresa
sxkd
sirius
lily
ypg
malaga
nhấm
237
jonas
gel
end
khàn
232
esp
fu
bít
lự
nakamura
vinpearl
lđtb
seabank
revolution
neves
credit
vinashin
trề
##den
doping
##mizu
1940
218
##51
talk
##lo
325
tie
pg
246
sxh
520
pad
are
đay
##ary
vắn
krystal
sociedad
boxing
shopping
dậu
gdck
loew
loát
stop
control
hqc
##ù
nsa
##fi
##dong
##ssel
##up
phích
bả
mon
sú
xiên
gán
##vnđ
470
cứa
xhcn
estrogen
wuerttemberg
england
melbourne
đươc
snowden
ubkt
vettel
villarreal
phăng
chôm
eid
shiite
hindu
636
acv
family
ccb
trụi
harris
valeri
##ke
thơi
piề
##ano
olivi
vè
ecuador
funring
lithuania
tardelli
buffon
claire
ppc
hilton
harley
xabi
iron
week
vcg
salon
randy
184
172
narend
181
182
##ine
atlanta
horizon
kailash
thẹn
yanukovych
mastercard
torres
fit
ebay
guinness
sabah
telecom
aveo
newton
ssd
1944
ipod
sofa
sharp
nhăng
player
brian
care
kit
##tor
that
##yip
xp
251
thía
##star
siri
tone
bc
khóe
word
monsoon
untold
igor
94301
vpbank
vogue
fury
room
alumin
veo
bính
214
##tb
hù
nôm
188
##cg
570
ml
nhạ
dũ
gả
number
##74
lewis
slovenia
blhs
bulger
limited
weibo
phèo
spurs
cilic
nòi
gút
rìa
tằm
242
midi
241
##illy
chef
oi
##gi
##ll
xd
đáu
melanie
rakitic
methadone
ubmttq
bobby
martinez
katy
paolo
chievo
hênh
hạc
hớn
xẻo
philip
##iều
chiu
marie
tl
nhen
hàu
512
chịt
##ăm
kompany
poltorak
sigurdsson
phộng
tomboy
##baut
cocktail
gucci
allegri
vegas
bgtvt
jaguar
xẩm
ntd
kilo
vát
vhg
hamas
prayut
britt
xở
cheng
war
680
phèn
193
820
vali
410
lòi
216
198
beyonce
ethiopia
mazzarri
ttatgt
zakharchenko
zidane
khiễng
motiti
photoshop
playboy
ronaldinho
wushu
elche
cyrus
hót
khờ
159
lupin
perry
lốt
page
154
##tel
sk
táp
594
pk
##hkqt
grande
bđ
540
##han
cat
lisa
##85
albert
206
prime
anderlecht
bouchard
people
channel
quới
bự
vdsc
quăng
nylon
gabi
suyễn
vẩy
rẩy
korea
jet
dual
147
az
##gs
##150
karl
##ai
dominic
download
dấm
phnom
natuna
ontake
massachusetts
xoong
ôxy
dioxin
vẹt
pxs
sapa
nghiến
chóc
qx
form
je
grazia
1800
##500
ổng
##cho
##pa
910
mành
tể
higuain
keefe
selecao
msbs
sapharco
đhcđ
liew
tskh
thụt
klf
sẩy
miết
cọp
bigc
ms
625
274
your
rs
##tin
tròng
163
212
uẩn
169
kw
now
##kov
##bank
rả
food
wo
system
birmingham
koeman
surface
shinoda
joshua
guồng
arập
hdmi
mongkok
modern
emdep
venus
oa
alfred
rớ
4000
ú
wun
kq
285
bẽ
194
bayer
167
hột
chò
##io
mão
maritime
alcacer
cadillac
marilyn
masakazu
platini
wilson
mikhai
ohio
gilles
lysenko
scenic
mailisa
diệm
ecb
ricoh
delta
##iwi
pắc
##ry
mariana
dior
174
bươn
sinai
kheo
nhảm
thò
dc
há
##ve
sri
cris
##ty
##32
maxi
trump
lọi
##rịch
##ria
fort
##ek
ota
mal
ngác
nhặn
cruz
dzeko
geletey
jagielka
minamino
nhcsxh
piaggio
vietravel
nỡ
ngáy
glazer
ptth
nhòm
sủng
177
wen
##ang
295
dòi
pri
##ồi
mồng
043
575
chùn
fat
shanghai
adobe
poggiali
riềng
jetstar
watson
testosterone
kosovo
abramovich
thoắt
lille
trading
chùng
ncb
rằm
hích
diêu
đờm
phủi
biếm
chow
920
##tp
##98
244
cọng
giê
614
lukas
530
090
224
research
goo
đk
har
almeria
amoled
angola
etienne
hannover
ashton
##ô
logistics
lỳ
shoot
hssv
nhạn
rởm
nhẩm
zhou
trĩu
marca
##show
boot
tbt
vnr
nhói
##ps
##press
304
##ặng
tánh
npc
giãi
kis
##82
##59
chechnya
hermes
lovren
margerie
mblaq
rạc
vinaconex
whatsapp
quẫn
explorer
cbcc
kiệu
dầy
kđt
lèo
diana
yoona
rinh
ksh
carey
lảng
mền
khư
##ling
roll
mali
##nam
##rey
233
pm
##po
marin
##ặc
cx
cnh
191
624
andorra
arizona
arthur
khadija
kuwait
rihanna
nijia
pierre
ubck
đẫy
vksndtc
valentino
yểu
zoom
##ktt
br
edu
penh
nin
info
cún
tal
lòa
##lade
true
kent
dd
##ũng
ox
amin
ent
maribor
monroe
paheredar
residence
shutterstock
yellow
kennedy
wesley
virginia
continental
tóe
baht
cambridge
opec
nhừ
lụi
speed
đênh
die
sochi
cello
ic
##dec
780
##il
##ev
vnen
um
211
thổn
980
166
thình
##air
##ker
##addy
hđ
kham
mun
bét
yuko
donbas
somali
fonepad
greachen
lincoln
skinny
johnny
abdullah
remy
vữa
noel
ỳ
ssc
sfc
##ap
por
##hếch
kd
tech
lâng
##72
##elmo
##bo
khất
maradona
moody
gonzalez
sb
đuống
giùm
kyodo
lếp
bcđ
server
psv
kị
market
ar
khiên
bee
640
cựa
699
aud
##if
217
##300
atom
ss
py
update
vaccin
spark
soldado
foster
irina
guerrero
đhqghn
đoái
ttcp
diếp
ttcn
chase
acer
marina
##ào
rfi
bxd
##gt
mói
##cv
hiroshi
kei
189
##ĩnh
les
gọng
##itte
##news
ctg
##400
##66
##ít
scr
grad
##kin
chùi
klopp
merseyside
oxford
rostov
hellas
college
karate
oceanbank
panetta
poker
pasteur
praha
ngậy
liếng
kathy
thads
tởm
găm
nớt
cii
raonic
guide
pele
nhằng
179
mĩm
##ung
voh
siro
press
##ers
moi
sing
vb
wear
##ê
bct
510
helen
##ợ
nán
ngò
425
nhọ
tuồn
cuadrado
debuchy
lăk
matthew
kharkov
asterion
potter
nịnh
muội
fband
kagawa
sính
bướng
oải
gien
##65
tầu
active
cairo
milk
##sk
share
hộc
960
207
595
xo
item
diamond
víu
##76
mash
nhơ
##bd
nitrat
affleck
charlton
deschamps
electric
khuỷu
liechtenstein
moldova
nozza
rahman
francesco
cạy
cbtt
buffett
digital
infiniti
calum
ruble
aag
fda
nép
gặm
1948
hello
##mw
rái
bĩnh
qhd
xén
tấy
##ello
##yev
##cim
gui
##31
##ặm
nom
gô
##luan
action
ronald
display
masterchef
remix
tip
liberty
ogc
bonucci
##380
atlas
first
trỏ
##600
davidson
1957
pcb
##ẩm
##ena
##xd
edin
bim
arm
tắp
##ommy
him
##box
##ễm
chíp
láy
173
quad
ụ
612
cút
abdul
shea
##hĩa
phoenix
redknapp
skrtel
stewart
fbnv
sebastian
iaea
gotze
advanced
holmes
clarkson
casting
astoria
ghẹo
sudan
mafia
rết
buốt
infographic
ufc
bđn
light
1952
##36
minix
##ran
##tra
768
teas
bàu
##id
xl
##ji
025
leon
pvt
ict
vái
lơi
bog
mat
chồn
ross
lizzie
marathon
monrovia
scholes
theikdi
warren
learning
torino
liếc
anderson
gẫy
riverside
núm
space
tưởi
mbb
hến
paulo
vj
tịt
##uột
héo
##rr
##48
innova
239
##chi
##lock
hyo
##ight
bth
ever
##age
##imex
oc
##dll
##800
oil
xan
tiger
gấm
palermo
recep
crossover
inox
socola
belgrade
đận
mbke
ahmed
complex
stepan
228
hugh
adnan
ruốc
comey
mún
let
chấy
dbc
##que
##scilla
ber
chẻ
film
432
747
ktm
state
julian
bad
lớ
way
bild
##ph
##shiya
##ấc
2050
tdh
##vietnam
##der
##xh
##uk
##ja
lươn
heart
clooney
cotton
futsal
jpmorgan
qncn
schmeichel
toronto
ubcknn
wolfsburg
icrc
iguala
tiote
smalling
venera
venice
ngươi
525
ugl
tèo
vcbs
##huần
bca
2560
phuy
363
vảy
kin
thảy
dĩa
ball
##mt
face
nuc
máng
koh
vỉ
585
shim
giũ
conjuring
dolce
management
pochettino
sapporo
schweinsteiger
tiffany
mccormick
petersburg
amanda
vnreview
tkcn
caffeine
amway
rứa
seven
rodong
hửng
nole
comex
boong
##gđ
vạc
cent
hassan
martino
stb
##ane
##hi
##wa
##lu
##57
##gen
197
beo
diễ
thố
nài
196
lab
ward
##ian
hoe
lead
bryan
network
##53
##eepinginairports
jerusalem
nagoya
azpilicueta
powerpoint
vgx
mueller
vpcp
toeic
defense
chực
nhầy
hapro
renta
tncs
kiểng
##manja
biếc
cloud
tsang
chừa
dpm
vfa
viber
sher
sr
##79
ná
975
tiệt
##kt
vv
##hớt
##33
##atherine
đì
seri
kerr
tuôn
calderon
fernandinho
morocco
subeo
nướu
ghềnh
kiyou
lỉnh
ciem
xiang
760
des
nhám
luộ
860
tmt
##cy
247
##iết
cmc
pass
anti
ilo
##arry
vita
earn
##ển
401
##04
boa
mar
##asep
from
agpps
jesus
tươm
composite
lamela
ccq
premium
vfmvn
dhl
nực
rocha
clinic
lazio
pctp
screen
chãi
laura
mid
tành
háng
##eta
macd
375
gồ
susan
##320
bob
island
##enko
##ation
điếm
278
810
rachel
phớ
haram
canberra
enterprise
gamuda
mariupol
michigan
manhattan
retro
thẫn
fiat
carolina
nhót
hợt
valer
rầy
bd
##iwa
272
mạt
donga
plc
##đq
##ễn
not
##ợc
##ương
##ợp
coc
##rd
ze
mel
rạ
sha
rá
láo
choe
315
ghost
mascherano
nadella
motogp
ribery
ramires
naismith
elise
đakrông
lell
adiz
vót
qcg
đần
annie
gun
rudi
vèo
vieira
bặt
nhố
dằng
nơm
tvc
##tain
khêu
down
stt
josh
xiêm
rứt
tcc
gene
gerd
pre
thau
##oái
##302
##book
val
pet
366
##ard
##san
kid
mụ
chơ
##phunu
##gv
203
santa
latin
##con
3930531
demichelis
huracan
pradesh
donald
ecopark
gruzia
lukaku
miami
bradley
petrovietnam
abbas
celtic
nhợt
coffee
holdings
cbr
ddr
rìu
mangala
parker
paula
266
tien
1440
cinema
##ua
##ni
nhấ
447
cùi
bell
790
##95
over
bass
port
đạ
##00000
bươu
cameroon
colorado
foundation
kyrgyzstan
messenger
widget
dawson
discovery
##ster
marvel
##fitel
square
chằm
uổng
tuộc
rói
lổ
beast
khkt
password
296
timor
khấn
hhs
262
vó
227
annd
head
##ạm
pơ
##avel
kar
mas
##tz
##singer
268
222
rr
lạy
tanzania
vedette
ghẻ
granada
grammy
monreal
fiona
elite
dunne
cnvc
willian
kathina
guam
thuộm
lặt
quệt
turan
giếm
dead
xối
maps
diavel
nhạo
ship
deutsche
ngoai
mason
589
dô
hsu
bnd
philipp
238
rủa
bôn
605
pôn
ngai
##eira
csđttpvtt
hud
356
aleksandr
maxim
boko
345
kyu
akasaki
alzheimer
dabaco
haniff
heartbeat
lazada
odessa
sheffield
bgdđt
vlxd
##net
oslo
monde
chloe
sscđ
collins
oplus
amano
tncn
cologne
prix
đượm
sồng
sình
294
hám
nav
##56
vẩn
tè
qg
tơn
pca
twin
328
tùm
711
##87
hạo
bọng
##city
đờ
small
lauren
zalo
##lienvietpostbank
bellarabi
exynos
financial
juanfran
kiatisak
lufthansa
neeson
toilet
zlatan
houston
ubtư
mediatek
idico
violon
bavaria
michelle
toại
loẹt
##ward
xơi
dật
neville
##ak
thúng
php
259
thiển
xra
scan
moss
villas
ite
nè
bean
fly
turin
mayer
slim
drc
##39
##one
khoeo
##ns
##ies
##ogas
pink
trend
vù
brig
##house
work
rì
đoản
gabbana
wimbledon
saddam
gasoil
novaland
panama
batman
fabio
immobile
metal
sophia
chromebook
diame
fusion
retail
review
if
hpv
ansar
isil
tmv
amd
1200
nải
##ist
sấp
946
joel
##tu
cỗi
pmi
##ldorf
ifa
##78
254
ex
nhím
##ờ
279
##ớc
349
nx
loc
herman
##75
rica
tnt
dhc
nhuố
##edvard
gallardo
interbrand
wawrinka
yadea
ahmad
clinton
229
candice
english
melissa
nứa
universal
education
eeu
bitel
tóp
slam
ứa
257
ellen
##sson
bike
hdd
sọt
call
1914
east
trám
##mk
nani
mit
bra
rob
##á
feli
mask
007
csm
duma
##phone
hẹ
dae
bluechip
rằn
brantly
carvalho
coentrao
heletey
jupiter
unclos
voucher
investment
oceangroup
woolf
maldives
cantona
gdđh
carotene
ghani
speciale
caro
boiz
markovic
cợt
shum
sbs
pồ
gôn
kyung
1951
boys
rice
ger
2022
haiti
##âng
ix
clo
sum
nb
##tmcp
ema
ks
517
##ã
1500
ying
dt
rua
##ler
020
875
shah
##ỹ
##03
heat
challenge
vne
science
cagliari
gartner
kendall
kyushu
loáng
nịt
unicef
salvador
thomson
adren
vinmart
hanoitimes
oceanmart
morrison
maryland
xcơ
lức
technology
nusra
search
đuốc
canter
nhẽo
slide
mwg
money
water
##un
rapha
khò
ngoi
6000
ttr
quệ
ep
##ihl
316
bụ
##yoo
710
ttc
cash
thuy
##ựu
vằn
aquino
atvslđ
biaksangzuala
indochina
sinmun
hashimoto
tđqt
halep
sushi
##oglu
liban
vpop
usaid
nielsen
ndvn
kazan
hamburger
tuốt
qik
nùng
vầy
gmc
##iền
huang
##89
haiyan
##ru
sắng
##antha
aster
plan
033
##op
claudi
nhẹt
lọn
562
ext
##wok
##96
333
##ban
wolf
gàu
##au
##tec
rom
##ighton
pct
sỏ
houthi
bsi
afellay
brisbane
douglas
eindhoven
sessegnon
wozniacki
genoa
atkinson
virut
knock
ngoặc
##qkd
atlantic
southern
spears
lết
noãn
rưới
npk
proton
luta
secc
edge
hoóc
coco
bẫm
avg
##tran
mhz
409
pena
skin
ngoc
##rc
iq
##mar
##ếu
mứt
andreas
sev
eco
changi
##09
##zen
253
cbs
##hóng
mé
##01
416
##min
hiro
##ah
##master
##su
thằn
vigo
##hu
alibaba
carvajal
cindy
zabalet
tweet
jules
samuel
renault
woodsland
lloyd
tulip
gunners
gáp
vietnamplus
wags
lụng
vivian
đttc
droid
##fa
mánh
khuân
thinh
nhão
đềm
pvb
##rs
davis
##64
##mart
##hộp
nah
bun
yun
2021
sean
hom
sub
##ol
add
er
bờm
rc
##hgd
ngụm
##dp
future
cantlie
chấu
fletcher
giovinco
gubarev
hudhud
murakami
qwerty
tornado
vktbkt
cortex
icardi
kindle
bitexco
tttđ
eiti
pvep
analog
citizens
nháp
woods
lủi
sound
force
datc
silver
mọt
aaa
utah
415
gout
lanka
sậm
ccn
vista
kẻng
368
toang
##hy
fast
karen
sanga
cnc
231
##ụp
##41
px
338
ae
##dot
rami
ubs
##ning
cheo
##mandy
##ejo
trans
grigor
cuồn
azzurri
firefox
gardner
hatchback
inzaghi
sofia
stanford
jimenez
munir
secoin
pistorius
downey
legging
giorgio
wiko
núc
suzy
sender
vbiz
saab
xốt
parkson
zăng
jeong
##mc
mống
##ini
centre
blake
riêu
bqt
răm
##chan
##101
740
xix
hell
jerem
leng
arj
##hs
hills
demo
ớ
đtv
hủi
gá
459
bond
môt
840
##ẩy
##rk
075
317
475
dà
##elta
264
nicol
252
gờ
buffet
gyu
champagne
hopkins
mumbai
odegaard
rompuy
vintage
đná
gignac
miguel
95078
cscđ
winter
queensland
broker
bsgđ
ghana
ozone
skyline
about
mascara
síp
honey
thỉu
lana
sumo
ibra
##ese
khoải
sới
bvđ
finance
##ablo
nít
ab
wonder
cube
apps
jordi
isi
870
grant
##kh
rossi
##per
cồ
##enberg
lia
##ez
##stan
hal
get
gh
gate
sil
327
par
fer
stars
##nst
258
guu
243
##ối
##com
hana
df
balo
##wakefield
##hục
service
thỉ
ghề
##141707
klizan
nikkei
interfax
baixu
hkphone
ibrahim
jenner
vsip
nẹt
button
gtx
fz
nhản
thồ
byt
stephan
brit
##rry
ricard
vincen
bum
luka
##eila
##zi
##less
sale
##ị
zero
770
nãy
##lia
##ku
091
##lóe
lù
488
dig
rỗ
court
gorbachev
istanbul
lockheed
verizon
economist
nghía
mapping
zeise
intercontinent
cruise
clara
đoài
quạnh
fedex
csđttp
filler
marcus
cell
motion
tcct
bing
stefano
vựng
tráo
fighter
286
1932
nico
hdr
choạng
place
soft
uhd
rốc
barry
##06
alexe
demi
##islav
##tan
antv
rama
##hách
take
507
##ju
pci
##vas
##liam
##able
ric
##250
##uẩn
ev
diaz
##71
292
trụy
four
##az
vê
match
609
clark
##hammad
cleopatra
khorasan
matsushima
occupy
ospina
yvonne
digicity
alessandr
vidic
jefferson
fincher
virgin
gổ
folic
hawthorns
ebc
seul
vargas
muồi
cữu
focus
##cio
sales
1931
##69
vera
union
##ius
##tech
rating
toanh
human
cara
##hiểm
##02
##liant
et
bid
312
##ina
kai
ava
anton
##oon
bae
337
322
hub
454
poly
sgd
##akeup
chips
thím
##94
##che
phillip
biker
schneider
avatelecom
boateng
icdrec
jumpsuit
montenegro
mustang
paparazzi
rượi
schmidt
vanessa
wembley
brooklyn
cyprus
abraham
flickr
techone
masaya
niềng
santiago
nacho
hoắc
lotus
jpy
1939
nice
copy
típ
msci
evra
task
palm
megan
331
side
sủ
##ller
281
##91
##yan
306
nail
dock
vice
cữ
##ò
more
spam
##nor
398
##eu
##tek
##dr
495
##ment
##đồng
cushman
##ber
##ryong
trắ
408
##uỗm
##ăn
cocain
keyboard
kimmese
nicholas
pennsylvania
versace
##enzel
cbpg
kristen
sunday
essien
đẩu
nancy
oliu
only
levine
tễnh
eiffel
tandtc
hỉ
kwang
nhọt
thvn
drag
masia
##1200
malmo
haines
##bury
glen
accord
gap
236
##af
nigel
##men
tcn
##ny
970
deep
##44
757
yan
565
nhó
649
##don
427
lp
##ick
nhè
##fe
##moto
##út
hoen
res
jeon
ajinomoto
aleppo
besiktas
hambali
ktstq
muslera
purgin
scooter
stereo
vissai
yzf
bordeaux
gunhee
mecca
##oquoc
warner
bruno
vhnt
gợn
melanin
cabaye
nature
gallery
right
##inamo
vfc
lóa
sbu
kỉnh
emerson
zaw
spring
đảnh
1280
martins
chề
masan
629
ir
##ạc
##ds
multi
##58
here
nikola
tor
##dium
uế
luy
hand
huyen
613
##ử
##may
plug
319
##eung
##evich
##óc
xv
benneteau
equalizer
islamabad
litvinov
shoigu
unilever
văcxin
trượng
dancesport
davutoglu
hkfs
parma
giồng
vietjetair
caribbean
diplomat
dustin
axít
vaart
prông
shield
cannes
thênh
hornet
plvn
gmd
kato
markets
weekly
kệch
sense
village
pico
hms
paint
phiếm
sơmi
mớm
bros
775
khấ
swan
bella
mbv
ky
##tlt
604
dãn
cool
318
##ova
##tios
copa
gó
##ốt
ptt
lego
cross
##asco
eve
##ita
010
excel
kara
sch
wat
come
cis
##330
##sat
1941
aux
columbia
liềm
mistura
photomarathon
pratova
rolex
slogan
sulli
wireless
gordon
jeep
yuchen
filipe
titanic
elvis
barbara
sistar
jtc
coleman
##rhaps
rựa
##erder
baggio
dnsg
kasper
dốt
hớp
đùn
dnt
rộp
loft
castro
##28
hên
1943
shuj
craig
soda
##ee
##logger
dả
##ye
look
##dy
##èo
bỉm
trư
lima
case
##ford
kìa
tuýt
##ường
##ot
ngoa
mba
henri
bmp
555
##ul
617
##wood
zi
nikon
forest
aqua
nhẽ
##unpon
huffington
annapurna
escalade
griezmann
illarramendi
laporte
magiê
prudential
sinjar
thermage
thyssenkrupp
xòa
zenit
##xtrây
nhòe
cruiser
before
thãi
cạch
switch
thây
nớp
bamba
384
paco
ửng
ktnn
tớp
cesar
lùa
ttyt
nct
pitch
hwa
tea
rên
##ice
##tic
chóp
joong
596
phết
hard
zak
hòe
054
344
icc
keng
##pi
asm
##out
289
##pm
bac
##ở
##viet
##je
##hard
ghim
api
##xxx
god
name
amon
378
##ệu
##minute
xó
402
aps
tara
af
352
antoine
charmvit
eropa
herzegovina
khọm
mubarak
shakira
udic
vlxkn
natuman
sitcom
chadli
kosuke
talkshow
glucose
acoustic
tegra
fdc
nhuế
empoli
woman
trê
chửng
qsdđ
roland
##elie
hannah
haruki
julien
mạp
yak
##rúc
tian
282
bagan
ruy
ttđt
##mon
277
bru
dien
diếm
felici
massa
##ện
##qg
377
##yahu
mer
đtđ
##ana
origi
bcc
##ém
tree
##ir
##mex
##ger
940
mú
prince
##ville
##912
pepsi
daimler
florent
geleximco
hangouts
hoffenheim
kolarov
kutcher
leyva
mizuhara
mohammed
monsanto
platinum
rắm
townsend
tripadvisor
british
handoff
sewol
bueno
mannschaft
ngáp
bbq
suzuka
earth
sunny
delph
hanel
đước
ngăm
kwan
party
landmark
ssl
nvt
trail
##ray
998
hĩnh
rọi
ngấy
ocb
qe
joy
roberts
samba
dm
moo
##ode
##key
tsc
##olivia
928
colin
java
lè
##dad
dean
teng
816
##61
ian
gabriel
tửu
rogers
336
##ishop
seng
dark
iu
zin
##ik
##cher
##jo
isamu
lipo
dđđt
ghì
homestay
lilama
mandzukic
mistral
moerner
penthouse
poseidon
robusta
sagna
thegioididong
udinese
đctt
burger
primary
sanogo
mirage
foley
naked
phonearena
whitman
trôm
barkley
volley
betzig
smile
durm
vermaelen
đhsp
mainz
frontier
robinson
ballet
cream
maidan
csis
dtz
poy
worth
569
pvl
dlg
franco
##bi
pti
##ld
##ow
dana
erik
544
phỉ
qt
indiana
##rin
brook
##ive
itc
##ppe
facebooker
##ĩ
724
ein
##ter
##ruồng
fund
##dan
##nic
##199
partners
dove
hơ
rờ
airport
apollo
boyfriend
doraemon
mccarthy
osprey
paraguay
shinkansen
gibraltar
nguời
huề
yeah
owen
andriy
sampdoria
dilma
gcnqsdđ
price
boris
magazine
football
chửa
##mol
traphaco
ranger
voa
emory
vds
module
buttanavong
story
dặc
andrey
stream
just
ibt
2048
bhd
oliver
ogd
aero
##ich
vích
bcs
milik
rex
##ula
995
##car
bok
lynh
law
##hành
##ệ
klaas
##ose
tuan
stone
phơ
##ata
##cs
range
##it
thtt
##ef
485
##qt
miu
001
cts
##gd
suite
nike
465
##iner
##ski
##pro
shock
329
##post
hr
372
trạc
pê
holding
magic
academy
chrysler
crescent
damascus
fernandez
hamsik
maqdis
missouri
nistelrooy
spiegel
adidas
columbus
sukhoi
nstw
collection
sinobar
baidu
franklin
koryo
jetro
thẫm
wedding
kabul
gẫm
dượt
magie
ttks
racing
stones
quyệt
koi
maybank
sbt
anbang
russian
petra
##tc
enzyme
kies
nhông
##88
drama
duong
omar
eugeni
584
##cp
578
pà
devi
339
idi
tele
poor
chờn
675
515
##lett
##ge
lẹ
pit
trịch
##mx
##ựng
melo
##du
lạn
beng
##002
##plus
##respo
bur
citi
mountain
capristo
dúi
gundogan
kinabalu
kuzya
lescott
phelps
ricciardo
rosicky
sytycd
vneconomy
đéc
hector
spyder
vitours
linux
spider
hecta
vietabank
algeria
mashup
gangnam
dennis
lucy
luna
giậm
adha
natalia
cocaine
bluechips
building
gmt
lổng
nện
duke
easy
miều
449
bòn
gmp
788
vie
vos
fm
kunis
vnah
kip
##ọc
287
##aya
##town
538
half
462
405
sos
psy
fuji
355
##uta
shia
##vi
##horn
335
##bs
lũi
khè
cape
##hd
##ica
##spa
papa
rin
ter
745
288
thayer
536
608
006
284
giô
í
##non
##81
vni
russia
transformer
bahrain
becamex
cillessen
ernest
hathaway
mitrovic
olympiakos
spirulina
symantec
xuyết
sandwich
yilmaz
ariston
guiness
hobbit
seattle
xklđ
russell
khđt
reset
what
nấng
biogas
nsut
computer
dylan
alice
panel
hụi
đìa
##77
cax
đọa
cuông
516
mtb
758
##ins
200000
ricki
094
pai
##tro
còm
her
custom
##saru
cũn
andres
##ea
pat
hác
col
##ship
##obin
wake
##ella
amal
xiao
nhe
lx
##ặt
##ham
hoon
##gram
vac
mòng
888
##wanda
##và
ncl
##hiềm
##ichi
year
sandal
373
detroit
griffith
ladies
metropole
mozambique
mulsanne
oregon
sayyaf
cesena
orange
tesla
italisa
rickinger
bottas
prague
sector
staff
pullman
brunt
vitara
supersports
robbie
qtdnd
fsoft
blđtbxh
prada
emilio
five
antq
ihs
rangers
soài
betty
kfc
##eg
huong
phờ
mót
boer
jw
trust
sanna
vga
phat
ớn
##young
rớm
privat
choạc
mil
##ska
##ant
gí
gran
##bit
gonzal
388
color
marine
eto
xẻng
##shire
##oore
givi
##bu
abt
bic
zaza
346
ul
hawk
santi
##ren
mars
rọ
dó
pos
ku
rod
799
shei
403
atk
belle
dử
##dine
##sele
463
adebayor
benghazi
independent
lagarde
lebanon
lukashenko
scudder
sikorski
ttatxh
viêt
vnukovo
nượp
robbey
vissan
heinz
zeiss
patricia
fazio
kitty
sportbike
creed
phuket
aspire
cctv
scpe
hadico
oracle
cttc
kno
ttdl
sậy
pclb
cchc
techno
xụp
669
đăm
fmc
nghêu
bright
romeo
shinji
##cb
lada
##sio
polyp
fl
este
milos
moren
##pin
selen
khăm
645
404
342
332
xỉa
tcl
##rad
franz
living
##lab
885
##93
eli
##125
chổ
##ưu
cas
ngan
wim
es
511
vix
bio
##stein
##lgd
cla
##px
##bl
abdel
ptc
##ota
pol
uber
##iếm
ewa
426
sec
stan
joa
024
hì
kay
##ội
caulker
dicaprio
incirlik
metropolitan
mozart
oecd
rupee
verratti
aventador
gorilla
jimmy
janeiro
imove
truân
marussia
shtp
amur
nvcc
giver
flip
chường
ttlc
social
stda
kaki
webos
sandro
giũa
##pen
liệm
lợm
rảo
wook
kiềng
masha
cầy
bsr
margaret
914
usss
troy
osman
aji
melia
oánh
rick
##hen
coat
##ura
ksa
ora
siu
ie
##pan
nhú
423
kumar
loe
##ire
abrams
rón
##world
301
giãy
##ure
vsa
gặ
314
##ver
##dn
uột
005
hair
588
##ec
437
0904
kean
ocha
mak
##las
##mo
dna
##375
093
vaio
jonn
vlog
lc
393
mân
##ên
##ppi
##ud
357
hans
##field
xvii
367
ayl
potassium
##141908
atvstp
boavista
brehme
ciputra
cortana
duerden
edinburgh
gdkhq
hokkaido
jersey
kalashnikov
kurdistan
montpellier
ortiz
olimpico
rocchi
haswell
nirbhay
adele
fecon
running
jacket
poco
rouge
lucky
giuse
fitch
nkis
excalibur
flowers
nelson
wood
pike
xẩy
extra
khxh
xuể
sbic
hospital
lém
nịch
fitness
fang
nhúm
ilbo
xép
uric
laden
hyori
final
shyn
ksk
thóp
vicki
mri
cage
008
717
hunt
326
tms
587
##room
thien
alberto
1000000
##ona
xtin
rích
##oh
queens
húp
suh
666
##qp
santo
##inch
thp
##ách
439
435
uv
ryo
267
##emek
##eva
apc
##ủng
##eda
vote
roth
trade
009
659
cac
261
##lyn
##chq
ato
##mann
##áy
476
direction
second
cạ
couture
detox
generation
microusb
pronto
security
stochastic
trấu
angkor
gyeonggi
moswc
shannon
ryder
software
whitney
juvederm
chennai
cordoba
rafale
oằn
csnd
bhtg
judo
mossad
hogan
848
ethanol
lipid
kaboul
knox
noah
oăm
cosplay
pia
stella
hope
hyuk
flex
daewoo
611
nhãng
nhem
ngòm
tét
fran
nái
arseni
##ịch
070
##ích
bina
johns
##art
##lf
469
syr
nsc
nia
##we
309
0909
juliet
middle
539
004
volke
269
##fried
cmt
nhoi
##sdc
ngọng
khảnh
778
060
two
##nan
hoc
##times
##ật
chee
alexandr
den
xiề
545
polo
##cl
387
##onna
darre
1901
tộ
812
##fps
imp
##isty
##band
##í
supe
012
##gnoli
marquez
blaugrana
cayenne
creative
heathrow
manquillo
roaming
schindler
darpa
bellerin
klose
ftse
nhoài
romario
ericsson
haute
quick
dynamic
##hai
ttxd
hiroo
mutv
transformers
rươi
markin
report
riệp
lể
tuốc
thiềm
506
ole
mếu
zone
dw
foot
mono
sars
rabia
drh
##ertha
driver
kiss
ahn
ef
##ram
have
gor
shan
##ting
321
ott
##ầy
##73
##38
close
755
769
303
fred
##kit
533
576
448
cal
364
indi
chum
529
slate
sheik
dam
##lon
697
arda
##ene
cf
##media
large
##sh
##vnd
734
ois
nệ
##204
trườn
citizen
women
atalanta
benchmark
giụa
honduras
intermot
kucka
matuidi
notification
penelope
pharaoh
seaprodex
sotloff
steinmeier
clutch
piston
maroc
vinasun
beatbox
kangnam
classbook
hécta
clear
glow
popping
zen
onedrive
##bient
thiếc
manager
835
channing
image
bhtn
help
pích
iot
nasri
cheryl
lủng
rmit
jenny
fico
mển
avf
xxi
hùn
katherine
thuân
valle
359
sonic
sên
383
obi
737
georgi
amoni
nhk
adi
ez
chosun
##rij
##van
##lph
652
##mura
tango
##ique
##ăng
##tiva
##pay
##nikov
##ăc
alla
lững
##át
##les
giòi
##aggie
444
ngh
0942
mor
343
frans
ctđ
rsi
##nes
##ữ
fps
988
307
main
arnold
cabriolet
carbohydrate
floyd
hỡi
izumo
jyj
kenyatta
khhgđ
photocopy
rưởi
sorento
tajikistan
ảrập
aarm
huntington
khalifa
siemens
crouch
orbiter
saigontourist
95032
country
sportback
bowling
kyle
ruud
fortuner
icao
scarlett
thaek
ayun
nsx
marou
##zek
đuông
slow
seok
mont
tourist
elle
1937
rico
bis
chạ
rương
413
##ệch
cj
tđcs
phới
513
hba
##928
##om
shot
436
cưn
bosc
ry
kc
ngâu
yulia
cdn
291
thớ
##port
##eforce
wind
bẹ
bil
##roon
##sl
##gan
kr
##ase
##uku
chác
502
##gh
khat
##ình
263
##bach
##eaf
##oóc
##ero
##bb
rafa
##tti
ryu
db
##thanh
olive
334
##ington
##235
denis
read
command
fall
caribe
abdulrahma
alcantara
augsburg
boomsound
carletto
guingamp
illinois
jyp
kathmandu
kukushkin
nịu
professional
recaap
securities
spirit
stoyanov
vinmec
cruzeiro
fendi
hahnul
judge
nevada
johansson
stanley
again
goetze
ottoman
adiva
burj
viagra
abbe
pound
zalora
winner
nhtw
adapt
princess
yaris
cites
myung
graphics
nnvn
howo
holic
hói
iea
olympia
thẩn
sẩm
tfa
korean
acbs
chỏ
##onie
khuâng
276
singh
rui
##pt
297
dề
##bat
bua
##for
##ish
carolin
siem
##yeon
shake
khuy
carol
allian
##xl
sat
qc
hamlet
729
wp
reed
monte
henin
379
nhẹm
674
mòi
phẩ
how
layer
371
##dar
##mttq
vạng
dole
##mer
far
##sđt
##lv
##pol
agr
yoshi
aa
gaz
##ite
marian
##mobile
vẻn
##bic
hara
hâu
##ằm
ngoằn
window
ping
brasil
bêtông
ciudad
convertible
degeneres
goethe
montreal
radcliffe
rainbow
schulz
timmermans
tĩu
violin
brahmos
kimono
copenhagen
iriz
nestle
title
dnepr
florenzi
rudiger
hđmb
htnd
audition
abbank
ellison
christina
pastore
depot
gwen
experience
phầm
brothers
bento
chồm
tmz
giles
things
bnv
sarita
urban
ộp
1942
rĩ
tăn
##vc
gardens
ké
én
9999
##nny
allah
sto
rosa
##din
aegis
tiễu
##signe
##ate
453
479
ver
##lg
##cn
##có
016
our
cườm
972
dp
ets
gla
xhh
382
jacob
031
pac
##oo
gong
julie
##ọp
lei
deir
mx
##lester
##hp
658
##wan
manga
719
##5000
iig
bl
##pire
bridges
aw
soha
##vich
##tafe
hv
##gia
##ue
855
gile
##erson
552
807
##king
august
##hdqt
##iêu
##fu
legend
nino
##gang
lid
##ậu
##tory
bui
##sin
oxi
she
wid
hormon
##can
jesse
extension
thăn
bauxit
bautista
benitez
cedemex
corriere
déc
flanagan
kopacz
orlando
oviedo
pacquiao
peshmerga
quaresma
rosamund
turmero
yudhoyono
adolf
faroe
giadinhonline
madonna
morsi
wisconsin
lutein
schneiderlin
harisu
##llinger
seagate
alaba
bailey
folder
yorkshire
hew
nhiếc
mills
bolt
oichi
corporation
campus
quắt
herald
satya
musk
services
where
sync
vdb
##wind
thunder
kota
hahah
sand
raider
walt
disk
##tch
novo
smc
sls
btp
caosu
ched
leste
falcon
mố
rosen
##kcb
fob
vas
nara
beck
tẩn
##ito
rắp
553
##37
2500
557
##lla
381
##óm
##372
loi
manor
##chenko
lag
##ida
cpa
411
##ola
##thal
list
nim
mọ
002
jc
##si
##ới
abi
##hòm
ré
lip
##vis
283
##ềnh
456
626
inca
407
gtn
0903
dx
731
##berry
mề
pp
##ag
hydro
quặn
445
chxhcn
aspirin
cassette
caughtoffside
jayalalitha
klimkin
vndirect
wojciech
bonsai
hwayoung
karlovic
volvo
woodward
wsj
huôi
mcqueen
tddc
fixed
hutech
##onymo
feyenoord
ijc
county
barclays
qian
webcam
webplayer
ctrl
cohen
vức
wreck
otc
bgm
vector
youth
macao
material
đs
ghiền
ndf
giôn
coọc
cộp
idp
systems
carat
lèng
tccn
##alp
dắc
bằm
##ible
##zin
đak
ctr
chul
meg
ỉm
nafiq
hoy
2023
jurg
self
##ten
##dhra
1400
vand
wild
##wu
chime
mama
##met
bts
evnnp
caen
059
464
ig
universe
493
qi
marcel
##long
nhắng
hac
##oò
pot
zoe
boss
linda
bou
787
eng
0936
jasmin
##bt
wing
##all
marchi
442
397
273
tco
##ala
gul
##wi
ngùn
665
ilovaisk
chicilon
crawford
dorrans
galileo
iraizoz
jammu
leipzig
moskal
oranje
paderborn
paypal
signature
simoncini
svetlana
sôcôla
tẹo
zhunyi
hangeng
marcelinho
packard
public
zaragoza
aerobic
josé
seongnam
abadi
stosur
bahnar
rumani
kruger
liverani
everest
nitơ
install
raptor
smartcom
sylvie
naomi
disneyland
technologies
vđl
trench
brca
eduardo
patek
bartra
lậy
options
emmanuel
100000
tebas
nđtnn
danielle
harrison
bloom
psb
dijk
warsaw
has
docomo
sprint
núng
upham
tile
mauro
truồng
divo
afd
khoắng
walker
nishik
nicola
lemon
##ut
348
713
sym
7000
##gu
snow
tuyet
nas
rần
302
guy
za
zo
806
751
395
fcn
federic
kao
gig
##irish
banks
##sy
##tvqh
vmi
tủa
##zan
tata
fn
##ricio
blu
##assan
ngụt
glenn
##tiago
##jima
tuk
##ide
joan
##lby
473
##ssa
bran
cep
##iennhi
bak
baker
mag
##yo
mangan
chuy
rue
championship
mancin
baggy
basque
bazaar
cleveland
fraser
gulfstream
kansai
kihno
kozacik
laferrari
levofloxacin
micheal
oculus
tatarstan
tomahawk
zurich
agency
amidan
icaew
bergling
fiesta
virút
guzman
aziz
citroen
monster
playstation
điếng
aquo
quằn
maldini
interpol
pull
kclo
myhill
hammond
đrăng
nauy
fsb
chronicles
pharrell
mccain
plastic
heather
muốt
##rer
alexandra
quắp
bjc
thềnh
balô
vfm
mooc
##ẻo
téc
1936
653
##ernst
dolly
##yama
gregor
bugi
863
##beit
944
xenon
lãn
penny
upu
save
pong
561
nhép
##tutu
487
##62
574
camel
bea
yes
farm
##êu
masa
mhb
xuan
##apua
oang
##lt
clic
phìn
viac
ned
##7001
##ful
##ance
##iệp
##tm
##lian
bsa
##trong
bsh
nhít
lẽn
typh
##ride
bag
##bis
cod
dak
##raj
##ôn
293
351
gif
##ess
##colm
coli
doha
##yves
##pl
535
aip
norman
panh
##tex
##sman
burn
##chao
##iel
##light
494
556
uni
ktt
##dau
##eryl
mế
hooc
khem
##mac
369
ala
433
537
special
caballero
gibson
kumsusan
limousine
panorama
patriot
ringgit
samnec
shellshock
tombstones
viêc
zagreb
citigroup
crazy
faith
freedom
outlander
minaj
yamato
shizuka
vpbs
sparta
rashid
societ
bridgestone
giầu
firmware
bankplus
bđvn
version
noxh
peel
swarovski
natural
cheese
samson
lennon
lpr
dớp
snap
elig
rịn
agni
wap
ttll
gyl
karolin
ebd
ufo
gộc
marty
mẩy
##avus
rỉnh
rọc
gẫu
kbs
kane
forde
lit
fcc
cir
##iya
##illo
773
quạ
rây
##her
##edan
##halid
735
##ware
khuây
úa
##shs
rich
tono
##lorat
431
jeh
hin
##kova
koo
ivanov
504
##ieran
cđt
##ệc
##ness
##he
391
aso
362
0166
603
455
ivo
##cf
996
361
##gar
toi
suit
##gold
081
472
##lee
##dget
386
##rice
##masa
sền
mom
##schem
zac
hum
##ă
##the
agut
##fone
##lum
##vo
##link
lap
817
##wti
under
##insula
cụp
vc
gennad
satra
663
rhi
zip
##lov
602
722
age
##lene
##by
##idag
##kim
1001
aviv
dalglish
florence
gsmarena
jazeera
kretschmann
licogi
mccartney
nottingham
prandelli
radwanska
swanepoel
uganda
yeonpyeong
yokohama
olympiacos
amazing
bhnt
delaware
pureview
đhđn
maxwell
organic
vinecom
qppl
siluano
mickey
shrek
xiển
##oboda
mobira
ramadi
xẹp
piszc
shearer
truman
lfp
pires
forex
hallyu
nora
fabian
vietnampost
molly
cisco
friends
patin
cheol
cacao
newell
matcha
bongda
ngỗng
btl
sanaa
mount
pages
##take
524
hwan
358
ntp
lake
##bar
field
lìm
592
móm
##smea
nhổn
kenh
mie
bặc
vẳng
865
##sia
##tion
candy
last
##game
##ều
##zano
aram
ngoe
luk
##hcm
shu
tiu
bever
##cvn
##top
dụi
678
##olga
##cope
##eopard
hdv
096
563
cad
##tade
##lts
046
##650
##ping
ff
##ks
very
655
895
##table
bk
##méc
837
392
mos
965
dominica
765
##elly
##park
##ris
##rat
race
##ý
##mila
table
##07
##yong
598
##shan
767
##erste
##đã
##5500
record
morris
cousins
foxconn
fujifilm
giựt
imessage
kramer
midori
nguoiduatin
nutrilite
pobprasert
roosevelt
trackpad
tymoshenko
vanhaverbek
wisong
avatar
eclare
jihad
burberry
streller
oprah
vinawaco
southernbank
gandhi
vientiane
autodrome
hamico
planner
rosie
guzan
kimeng
drian
reap
pressing
ruhr
avengers
keller
eagle
mundo
toác
economic
tcmr
dộng
kiển
birkin
join
rush
navy
lẹt
xbox
##ớt
blanco
double
duật
chỏng
touring
aces
macan
lẹm
contact
559
lion
sũng
simone
quại
568
della
espn
##rop
##leigh
moe
pose
##oy
1929
amo
maison
bbm
aung
##zy
##321
300000
##của
hits
ncc
bụt
rey
indian
padd
##nk
##rit
mol
msc
rcc
lải
616
lọng
johan
##ois
hanna
vanh
##mission
##dir
root
022
##lavan
##isse
access
##come
shine
naga
##ys
##hayne
nova
703
##rt
092
nhụ
##tha
040
rem
##vpl
668
##ân
wc
##ướm
axi
##yu
zaha
maru
1600
505
xán
945
jell
vam
xáng
yao
##bin
##of
##time
##ariana
528
met
##grad
hino
083
##stick
##deep
##runner
##nia
dave
isaac
kuznetsov
flower
749
carb
aeromobil
brozovic
bruxelles
butterfly
cortisol
fansipan
fukushima
gladbach
guatemala
hitachi
krasnodar
montgomery
muktinath
murphy
mátxcơva
oklahoma
sikorsky
steroid
velvet
youzhny
dencos
ecosport
kanye
kumite
streep
vinschool
clinker
einstein
thethaovietnam
vbsp
centcom
tréo
barbie
device
alphanam
gpxd
playbook
franchi
vnsteel
xẹt
bonus
steel
erin
economics
sugar
bach
create
ebook
chồi
mẫm
yolo
sohee
tsui
siam
1938
vbl
profile
1927
tacn
coban
489
amino
##ison
board
helio
bqp
##mua
##dl
076
ccs
##iki
verge
gar
biz
##247
##yang
linds
toe
musical
dons
##xin
riu
fv
conac
chạn
##end
ade
rf
##zer
dùm
salvato
##elby
mma
fish
tlv
boj
mother
##fest
natali
783
##lay
lazar
376
##nez
##đt
but
jpa
generali
##ẽ
##rton
452
##gate
##een
đtc
bat
##horea
phuong
wah
cars
pd
lởm
##700
##ược
kor
607
##ẫn
klein
nord
gw
ted
##lca
##owski
salah
##laude
0511
tttv
579
orc
kgb
friend
##iz
##cxg
beautiful
bjarnason
bltths
charlotte
esquire
graffiti
grozny
irureta
magnus
nsđp
pattinson
vpđd
witherspoon
yingluck
zamora
borneo
gigabyte
three
dolphin
russo
justice
carrillo
patricio
blackburn
mandarin
kissinger
branson
carter
elastin
nuland
company
bingbo
twist
scolari
comfort
nguoi
jenna
nẹp
phò
polymer
dúa
runway
spice
depp
oled
iowa
belas
never
phẩy
cannon
##ioli
inspir
electronic
xệch
nitrate
bpck
award
bread
##bc
criss
vqg
014
1844
lorenzo
tar
vcs
gmo
vhc
chibi
taiga
tạnh
nll
taken
feed
072
mimi
oleg
1536
apk
lukashe
571
##cal
872
luca
638
923
khom
808
jena
##nlđ
554
354
ampli
aid
tém
##iễn
##iro
641
794
##poo
zinger
cpc
bốp
##ester
cùm
##mee
bate
juli
nhâ
trằn
##720
548
018
##jan
##asia
##care
victory
##inho
##mark
text
alt
##br
047
##nf
tyra
##ét
đẻn
##001
tnv
##ama
##pulau
zhi
ngỗ
##neak
comic
born
##97
asa
pác
stu
phay
pte
##burg
667
dere
bau
mira
##owell
lever
##ầu
##kip
##780
acca
seal
miroslav
vượn
visit
##rtz
valentin
activation
arbeloa
christensen
darmian
folate
kluivert
lavezzi
lavie
mestalla
panmunjom
simpson
sutil
vertonghen
amiăng
athens
diaby
kungfu
nslđ
globalgap
upload
aleem
edwin
xdcb
lightning
avakov
besra
dhabi
morata
cnpc
idris
hiroshima
pepsico
xttm
wigan
crôm
muhammad
aqap
keith
sabeco
suju
fallujah
soryu
balance
##ía
duih
holly
##đttp
maybach
hleo
push
bastian
xinhua
giập
958
daddy
alam
dnxh
náy
1933
##nther
dieu
mbps
reddit
341
471
seong
##stone
cỡn
yama
##hifu
##atre
##kho
725
nhại
coast
nhộng
##thi
##ei
##tley
cra
##uyên
639
xổi
vir
elo
918
ave
##silo
313
kam
084
##ew
422
foa
tool
anka
374
meet
varga
##ashi
diet
##lik
edit
##chai
##xxxx
##ft
##8888
robinho
##alina
highland
điê
gti
##ets
##max
701
657
##hin
##mas
##iểm
##eign
451
tee
##chem
tnk
323
##ợt
##thu
bor
##610
cec
yoha
welle
##ồng
##die
mate
##pp
##nov
643
##rita
661
##xx
pier
noh
caf
##illa
konstantin
##hình
486
##od
raf
##ement
##uan
##cha
kano
##mazda
##êm
##yna
##online
417
##alvin
057
yoshihi
##óp
sharia
597
bastia
438
weaver
cupcake
827
##750
cookie
705
##taye
henrique
albiceleste
albiol
boutique
cefaclor
connolly
damiao
diwali
elearning
freiburg
hapulico
hotspur
irvine
iturr
mcgeady
melatonin
monchengladbach
mukherjee
netflix
pocket
rebecca
scrambler
shinnosuke
sophie
taetiseo
talisca
vodka
yanukovich
đkkd
##sp
circle
sharif
parchin
safety
spectra
taruta
firechat
gunnar
kruse
marshall
restore
yosuke
reeves
garner
shawcross
wanbi
ariel
presenter
ngoèo
reims
dbsk
chernobyl
corset
441
fake
tippi
gdtx
jvc
copd
basico
ciaz
dohc
animals
bernat
##ugro
valentine
gỏng
western
topaz
genta
felix
adf
selhur
host
upton
paus
443
phillips
futures
đốp
tamara
pxt
rền
abel
local
peso
428
nhèm
beats
##ving
bota
cache
thòng
mbc
ifc
1911
lpi
##ara
##iano
nhử
lới
##ajes
toáng
##ric
496
##leading
956
ego
##clq
pang
##tani
##esha
943
vờn
acne
##fc
##huyễn
pic
##raham
nat
011
##fs
##ert
dich
##rung
pra
đâ
##war
lancer
##live
charge
lea
##dt
##sun
##qu
ath
days
792
##law
##281
##rong
vinaca
willi
##val
714
715
##ạ
756
jacobs
marti
ktx
##ẫm
##ast
env
terra
sachs
bert
ròi
##kine
##42
##ẻ
elias
##đyk
634
och
nae
##ác
pole
##leica
845
##view
daniels
##ọt
buy
wt
##dia
kos
##iraj
##aspe
quin
##cat
##kan
thor
evgen
418
066
##ục
fame
##yoshi
mess
##ab
platform
blogspot
blood
carotenoid
harvey
interstellar
laudrup
macaskill
maddox
nakatani
nhẻm
nsdlđ
otofun
pharmaceuticals
pienaar
pjanic
queiroz
scarborough
scholarism
suruc
tractor
umbrella
verkhovna
vietnamobile
wantchinatimes
zmapp
glamour
remote
seychelles
shimbun
trekking
wisdom
outlook
braun
mokpo
inverter
sabina
apoel
wwf
amaytinhbang
microphone
shinhan
##udoin
development
gopro
montblanc
heard
ubtv
downing
drew
horror
visaco
kasim
drăng
sjs
erp
sahara
fields
corner
##84
réo
nolan
lét
milky
veston
liva
lotion
luang
merc
wai
flapp
fsa
fog
##unique
nhặng
koichi
enzo
interest
six
studios
ntt
hrc
##erini
soóc
isner
dềnh
bân
nhũn
etc
saso
622
##cut
ngộp
heid
##340
teens
##ế
795
694
pgm
cmi
anastasia
vitali
##ghi
lói
478
cio
pao
396
##ous
623
572
##ark
fonda
qk
##860
sheng
1912
dap
yeu
056
milano
##910
501
ifr
ngồn
##mond
khệ
424
##rgen
##hien
##hon
098
##and
tàm
##ỉa
mach
921
##estor
ebank
##ile
crom
##ven
đtm
sein
015
736
##hz
##tega
##mall
065
##oun
jam
##ongsan
fx
mur
toro
##har
##onda
sứa
nen
ctc
ride
466
kick
##ari
1020
013
577
sme
##uisse
##zilla
457
##pha
021
rec
##day
503
##hanoi
##igi
boe
electro
##là
chệ
gros
gcnqsd
shakhtar
aftershock
always
aperta
bergkamp
caceres
carragher
decima
delevingne
fibonacci
flashmob
glasgow
gnabry
lifebuoy
louboutin
lviv
nauru
performance
pikk
samurai
sicily
smolen
suvarnabhumi
thompson
vadim
vissay
đdsh
assistant
danube
harcourt
hardwell
qrtd
rometty
yeltsin
tetsuji
davies
lingard
malware
evian
jeju
kentucky
borisov
ubdt
##ndy
dongabank
nieto
roadster
arabica
paradise
matrix
associates
haneda
lagerfeld
iaos
oriental
reid
gelder
outcast
reporter
celeron
aspx
ngái
avenue
bennett
corticoid
dynamo
hão
dướng
robertson
trĩnh
guann
5447
forum
##ze
lac
##inita
847
maicon
ducan
ramirez
thailand
nld
tttt
triton
##anh
##angry
oem
nặm
878
cooc
xvi
509
ochi
1926
blv
xviii
vằng
styles
runner
pixels
bhs
##hong
trớn
fisher
##pdr
637
tusk
zx
##soft
unit
sauber
tak
atv
1199
poli
601
##slav
##dler
hvn
ichi
austr
paz
##sis
##upert
492
406
0966
thít
##over
hcmc
mahmoud
##ou
##skaya
stoch
hf
917
ctn
##lly
##cu
##rus
##eck
hua
##reese
fich
vại
##ier
##more
camille
mir
zhu
đên
zor
keep
##à
combo
alli
vela
##mendi
##awi
zu
trọi
lợ
635
nhom
eib
sumi
##yr
kill
##back
chễ
##ore
gsm
##idi
##amus
wg
##550
dier
##fit
wy
evan
##ự
##pk
##hoăn
nishi
riga
##work
##fogo
hour
##station
##1440
##quang
##aco
##berg
##watch
meo
doctor
##yeong
caffein
leonard
architect
airblade
alejandr
bendtner
berkeley
cincinnati
clancy
dispatch
foodpanda
fumio
hungazit
ideguchi
iskander
itims
kaliningrad
megumi
okugawa
ouija
pajero
rabiot
sheraton
winfrey
dnipro
fulham
spotlight
ambrosio
facetime
inspiration
shayk
batist
taehui
kingzone
croptop
20141016
marriott
quẻ
smtown
dairy
sawaco
gtat
calories
chọt
cicc
jds
chuan
minishow
rennes
globe
kanna
dtqg
rsx
gtnt
tanaka
dioxide
battle
icd
ipx
tths
chucky
##ares
632
maze
hadi
phạ
sgv
##tho
tripoli
bally
eia
towers
mann
jak
467
##lio
##wari
imb
panda
##473
kour
baek
links
strip
shear
piot
1908
##oral
854
##nova
##vr
lứt
factory
nhạnh
ptl
##lam
0913
files
islam
8000
kmr
##mos
761
bucke
cox
781
718
ktn
##sc
user
ring
osi
##ó
##684
capo
jacque
531
##resco
node
gift
phôn
epc
##107
##vcfc
gạn
keylo
lien
chởm
311
##121703
##lter
sy
##abby
##ach
##cia
chá
tos
apa
tex
sạ
##icky
##iqui
suga
lak
ailee
686
##eil
bose
giu
phr
kawa
ash
##eh
watt
##obra
##yl
ami
ily
mobi
mhc
##ụ
929
##pgd
##pad
hare
0932
tủm
##dx
orient
583
573
speak
##qc
bíc
feng
##lut
##9000
##ada
select
##play
##ntn
##ẫng
brother
##daily
##zawa
australian
dia
benedict
engine
afweyne
alcado
baluchi
blatter
broadwell
cardiff
exchange
fuentes
hercules
hotelquickly
library
matxcơva
nebraska
pulga
stéphan
tikrit
tymchuk
underground
vovinam
vtvcab
golmart
jamaica
madut
pixma
furama
greentea
colgate
capitol
seohyun
medical
curie
caramel
peace
curti
noble
robson
hirose
hudson
thacker
puert
stegen
escape
bath
hđba
franck
lichtste
jbic
ptkt
buri
cở
cnxh
zico
grier
ngoắt
bihar
bernard
porter
stubb
hhvt
cartier
dẹt
battery
##kers
aslan
connect
toạc
sandals
toyama
army
prenn
468
908
tatum
sệ
eastern
váp
bazan
training
##ngnang
lèn
hyde
katie
ione
353
shorts
act
691
rỏi
##ovich
bgh
hajj
##sseldorf
honor
plei
anders
##ep
alvar
082
8888
dea
sock
jump
away
ser
ranee
tamang
567
1923
pvr
wells
fidel
1928
lara
##enstad
695
##uân
rum
dame
ado
lero
idn
khướ
jourd
matsu
##cion
spc
##ok
474
bands
canal
shn
##kpo
thula
##được
kah
##ens
vnf
##hae
##fo
thiem
542
dona
gross
628
kro
434
amir
##wc
##ọ
546
##ểnh
##nien
hươ
thank
##mv
ahme
stra
069
##side
##ồn
scho
mili
##rsten
##mit
087
##cky
vla
meta
547
goa
759
948
tuyen
##ani
zíc
send
##rnia
048
sia
movi
##ỏng
##vender
ive
spec
##anne
522
##nar
912
thoai
hw
##isle
part
rogo
##rz
##bok
##ề
lou
sama
ols
##rias
##280
##osco
kors
##297
##ẹ
##wd
fal
##ip
charm
##tour
vw
##900
use
##ép
enzym
roe
##living
##suit
##travel
follow
862
446
kan
##mai
mpc
##ery
##oọc
ashraf
ballesteros
boulahrouz
celadon
dabiq
darwin
depardieu
exmor
frozen
grabtaxi
harpoon
heletei
kharkiv
lycopene
maserati
oleksandr
president
raikkonen
rotterdam
rouhani
sinabung
toxic
tunisia
zombie
bltd
bruyne
chinese
flynn
kfir
mahajan
moutinho
volume
after
brics
picnic
madden
marketwatch
hyoyeon
sunfly
capoue
heatherton
optimus
goldberg
admin
termina
ngoáy
russel
kinney
houwei
hrw
trẽn
senator
touchid
rudy
ginter
program
evening
loading
dolls
greenland
##ych
tttd
##rướn
devon
seungri
uvb
hydroxyt
bllđ
##defence
fiji
hhdl
router
velt
signal
grai
mori
sakho
##zo
imso
mercy
geographic
unian
zimb
909
wright
burke
ẹp
xồm
baiji
nardi
aleksand
elena
senta
goldma
sác
tamil
dodge
gột
scb
pas
cali
##vu
xuka
efi
becker
##ras
thuồng
hbo
ttf
joey
1934
rocky
##era
1935
##tia
##igno
asen
duo
xìu
1924
##res
954
cắc
qs
pyot
adc
##132
hamid
aki
ceni
march
##103
##ooc
685
##uart
sav
789
elia
##ời
wd
##ẫy
bmm
sino
##hẩm
##ejan
bủn
tune
qq
pve
##eau
##esen
##utter
ferr
##matra
2222
##ves
##dor
nor
xém
vẻo
##rick
##hee
##lê
graf
bỉu
##3001
basa
##pg
##nik
tíu
##dc
##xolo
866
chụ
##bg
##hát
##ớp
fcm
##cey
##umph
##ble
##llah
eddi
gro
##jet
kry
wal
##ười
##rid
patric
##ky
##hyaku
wag
##nđ
mồn
nap
##arton
cast
##loa
kenn
dad
đư
cov
523
brand
086
##bol
##ele
##mont
apo
##chka
mato
394
marit
1902
707
035
see
271
##andro
gú
sci
there
garfi
##08
952
##rim
sata
586
696
##bia
turn
greg
##db
font
##clair
trờ
encor
543
##azir
##farm
nù
##868
##sm
khú
sleep
virtual
bethlehem
bvhttdl
ceramic
committed
diềm
entertaiment
evernote
kadyrov
mangalyaan
mgimo
muzhenko
pereyra
placencare
quẹo
recovery
saenuri
skyactiv
support
thunderbolt
timothy
touliver
vancouver
vcufta
vsattp
vđtg
zeppelin
anphabe
bellissima
goncourt
palawan
ultraformer
worldwide
yersin
btttt
denver
evashop
kickstarter
matsumoto
caravan
cbnv
dantri
generic
psdb
kilomet
miracast
melinda
podium
louisiana
nghiêp
left
level
danilo
geum
reading
forward
startup
tucano
bolton
yxine
newsweek
##cillo
keita
sakura
paju
drake
onai
ehome
itpc
rolling
hansen
38235
musca
horr
roof
peron
drone
suez
mtth
cyber
lenta
xịch
clough
speroni
cruze
rữa
koln
bitch
smes
vphc
frame
tracker
chester
catse
bẹn
rosso
schuma
shimk
urê
srt
emmy
queo
##ruise
##meer
casio
thược
1898
arseny
aires
bulls
zine
sato
nori
nhứt
tinhte
toong
dtm
##bbie
bĩ
1618
ashok
##tre
1918
498
hyuna
bợm
##tgd
resorts
##eli
853
sba
##ơn
alsto
0918
lanai
926
xum
sidi
##jb
##bus
urus
##pcw
971
vsd
pala
boost
##òng
beer
tbnn
anatol
yumi
491
phuc
xị
##rul
fec
zara
chad
##racle
##rie
1915
##isal
##win
alekse
sabia
kath
##glia
##quis
##4000
vasilye
##osama
##ushin
##ư
##rê
door
yasu
482
musa
##142
##hit
fin
##shi
##itz
##irr
739
##hua
688
piet
imi
kings
##erna
late
##én
gru
vivi
smm
lor
0968
cq
terrib
992
takahi
sed
##anyo
md
shawn
##list
june
877
stand
wase
##vina
avi
usai
762
##óng
thea
##vpt
##thout
lance
##0537
869
##olo
đon
cic
9001
##argan
complete
##stat
boo
##verse
keys
equi
##tus
chea
est
fo
sera
##gam
##eb
0902
##family
##hat
##nguyen
##với
pub
##player
##nocchi
kol
646
##kqt
buckingham
barriales
bermuda
bulava
connecticut
default
deluxe
hedren
hiruscar
hudgens
khắn
mayonnaise
minnesota
muthanna
neokid
philadelphia
prabowo
rụm
sevastopol
êkíp
balkan
dnipropetrovsk
zarif
aurora
bisping
easyjet
geisha
puyol
armani
makarov
policy
sunshine
vitarus
montana
fissler
hibbert
rodrigo
smartband
sabri
obv
portman
straits
jollie
bonghwa
nantes
##head
community
surma
hơp
##pur
tptn
lopes
lugo
history
39305318
btnmt
oger
lybia
cotec
memory
camaro
tools
lẹo
thaad
bahn
eurostar
candle
rory
donna
arms
##defender
ngắc
wings
eic
chạo
rọt
hayao
heath
##und
robotic
mogh
ncs
1880
niê
lgc
huyme
##oux
gray
anten
mev
##lle
date
capita
troll
chiền
cleverl
chula
##raine
nec
cif
moong
vido
##vin
##1010
##fm
896
leader
btu
bđtv
##aine
teri
bowl
abduli
##hara
lena
give
##ette
dara
melisa
884
bện
##uchi
##yuki
##bra
##ờng
stick
moda
truck
chẽn
##zum
##tah
##mate
octa
phạc
marut
1917
vón
cen
reach
pasca
##kl
##tk
##anda
gằn
lian
##ros
1919
##kai
pure
##rine
##unho
săng
1520
##nev
zee
##43
##asper
hoo
662
##elle
guo
origin
##sanco
edm
##chu
##dison
é
yeg
sel
##ổi
nghỉm
xuề
av
gre
##ỉ
##kami
leech
##ae
##amata
mers
##ora
sho
##arson
matthi
vis
933
##tsev
##dley
anatoli
038
vid
858
yuki
##ize
##esh
##sport
##kano
sisi
484
eb
##strom
##222
##oria
hòi
##ream
##ilian
osc
733
said
ek
##iss
785
##mitsu
##worth
##mbps
##unov
franc
##inco
##joy
direct
##dal
##vision
iss
gou
sì
luxemburg
oversize
061
guard
##zu
achilles
antikythera
apasra
backdrop
beethoven
budsaba
extreme
flemmi
gamboa
geletei
gervinho
loefven
mandanda
menswear
napoleon
nicaragua
paracetamol
pospisil
prokofiev
pylori
rijeka
salleh
turbin
vodafone
aniston
baekhyun
dotcom
havard
jeolla
natasha
pectin
polycarbonate
yhct
ballball
bravia
erwin
mandelic
walmart
soundmax
account
borini
caramen
nguậy
juarez
promotion
96769
jokowi
headphone
shelley
hanssip
brembo
seagateway
queensway
carmen
kbps
mtxt
gazeta
nagano
collette
jacqueline
destro
sleeping
fallon
shadow
bđgts
yoko
burak
kirk
perth
revs
michelin
richardson
jiao
tcđ
location
gallon
xoàng
transit
đẫn
prana
habit
##ăp
kishida
thpl
propert
##ín
alena
cristina
flag
ismail
architecture
ngoằng
invest
477
erika
khểnh
##osan
motta
##sea
814
##ated
filter
hgh
giadinh
europe
dax
##ounge
kô
nghễ
gbps
698
pebb
bứng
samir
##jin
whi
##chat
ktb
##td
721
rss
##fish
neill
bni
088
##ndez
turing
##202
##ding
743
095
lost
##308
jaw
kuy
##yaw
##tar
silk
bern
029
aes
##ashima
##lor
ptdt
##113
521
3333
##hta
##erome
vl
746
##sey
##tham
##use
774
cùn
kash
##xinh
arv
koch
norik
sts
##nsna
##ence
##ầng
tuabin
pack
xiu
##oan
hau
shell
demb
ttl
pji
qr
lorenz
##rô
cop
955
bela
037
##minato
##rica
##angyo
stre
shao
766
ciro
##34010
##ái
##ale
##tum
bol
##111
##das
566
793
##bon
##auer
627
ktq
airline
##cam
mei
##đh
##bang
##my
besi
pal
##yk
##908
##edo
swi
##999
##ohn
béc
003
alfa
trini
javad
532
nhợ
##inson
khì
1300
##chen
barra
mota
ukr
##rise
ux
##lô
##ellen
##not
colt
##gin
tull
##ote
##yssa
tot
461
##jerg
786
541
##tvl
zhe
base
berg
726
medi
##uddin
ars
htd
some
838
651
cry
##style
##shaw
chử
##mail
jaafar
##1020
949
pì
uniq
##sale
cristian
philippine
caroten
##ehind
divine
energ
anthocyanin
balmain
bratislava
candreva
century
chapter
cordeiro
costume
cupertino
dublin
dúm
fenerbahce
gazzett
gracia
habana
military
monoshock
mosaic
nastasic
nhùng
paralympic
prinsloo
restaurant
rikuto
rosneft
samphaodi
shinawatra
shopdunk
shroud
tabriz
tarpischev
tejas
thrones
urenco
visakhapatnam
alamuddin
asphalt
consumer
halogen
irevo
vinci
clyne
koerber
dawn
nicosia
presley
reagan
gepard
mimosa
sggp
tlpk
developer
eicma
oasis
litva
bynes
mckinsey
superior
truật
split
norbert
mnp
đttn
mccall
moses
cbcđ
bluestone
debut
mandalay
##heim
haruo
micco
##abwe
tizen
gustavo
flavonoid
heineken
middleton
##quim
boney
skop
guộc
electron
mdis
xược
yoshino
jerry
bohemian
baba
tires
sượt
shirt
rận
ldp
wearable
urani
dwt
kịt
dunkin
ktxh
##rn
networks
yale
sjd
##lcan
bandar
aidar
chẩm
seol
cfc
pictures
ascend
osin
pctn
child
cnet
aden
##ima
yuan
##matic
##óa
bod
##archer
##oku
##ball
##ect
pont
nile
894
sụ
soon
photos
ups
frederic
etfs
##vqs
##eter
pato
##idis
hayley
hhv
##sandra
lpg
domes
bìu
927
kều
968
funk
648
058
##icki
hoác
421
vsc
vani
brando
3200
most
##onica
9000
eas
máo
##lles
##mir
##nel
lord
##anwa
abou
lúi
winst
##baru
grab
mobil
##deon
khứa
navig
##rea
##1008
rhode
905
693
831
pie
##hiko
lom
halle
mư
luo
komba
##cin
##cr
rỏ
drap
gal
##wight
iwork
##uba
##len
##ardi
##tina
nine
taj
##elli
##từ
qld
##cross
534
##186
##liu
ahc
027
##tis
##9001
dreams
xạc
##ali
iip
##â
##ell
##otti
##vico
##ise
dion
##otta
drop
483
##nelli
##kw
##ocker
864
christoph
##uki
sap
##sine
expo
##nix
dic
makin
bal
##328
##lkenberg
##ato
##ija
656
##eo
metz
tằn
984
đhc
##sley
sui
cit
##usz
##ahya
liệ
##stree
mint
##board
709
##giờ
723
kios
##any
canto
galla
mina
phoma
upa
cornell
sù
thein
avervision
beirut
bianconeri
biêt
bollywood
centimet
chapel
cumberbatch
elantra
fivimart
grumman
haaland
haddadi
hawkeye
kansas
kelvin
kostroma
labeouf
lukyanov
machalani
maleficent
oxytocin
pahererad
prasetyo
registry
rowling
rummenigge
sarkozy
saxophone
seleccao
shabaab
spielberg
vinacco
vitesse
wenxiu
zubizarreta
digitimes
gmbh
llorente
quattro
triglycerid
vladivostok
sđd
taluy
callejon
industries
kirkuk
pouyen
taskbar
vaughan
fernandes
friesland
gvnv
katê
navarro
otg
kyiv
morais
philipines
sxnn
blair
operation
windsor
teese
trojan
aqsa
percy
cnqp
farmer
furious
farley
asahi
chuôi
moura
nnnt
krait
7858
bvmt
hubert
dớn
wsg
cafein
devils
combat
tuvan
ready
unlock
thethao
xiểng
knight
nghếch
păng
joseon
when
spf
tẹt
##lobet
mọn
shun
nnc
stay
sbc
##luca
##tico
harle
viola
mette
873
##vietstockfinance
nobi
philippin
mùn
nhuốc
huu
##nee
##mun
shark
iph
planet
amc
hây
kur
##burn
wend
aj
##eur
dta
inn
aka
klh
##off
hep
##tdh
fus
mari
##amco
eoc
mariam
tns
woong
##ado
##è
##print
##etin
meco
##xe
fur
shen
##cif
agro
##bay
642
##astin
fun
099
##lse
dứ
sooc
##boe
##nnptnt
##ao
vể
##liner
thẻn
dz
dns
levit
##dom
##rum
##bal
suri
gdt
##alai
hkd
mof
##ecker
702
đượ
ttv
dec
687
whe
##1001
##ken
hellca
##sing
institut
baghdadi
064
##sta
##ass
pren
##hei
gơ
##850
939
##arita
kal
malm
##ord
994
##ệnh
prima
##av
##gall
##2000
hood
ilk
yeo
change
826
621
trỉ
##ein
eq
esa
nus
##xia
thom
vasily
##ẹt
bram
raj
omo
##zak
##row
##igne
saito
ỏ
sig
serv
##abine
sheri
eg
618
##etz
1921
trek
551
tell
exe
##tdnd
##bike
cacbon
##ring
##contact
##fashion
##talk
##meric
tomo
843
##mhz
##ặp
yeong
##cd
##ẽn
bla
vao
què
821
ins
##ent
hyaluro
allkpop
bardem
berbatov
bhutto
boxtrolls
chipotle
crưm
dancing
document
donesk
eisenhower
giallorossi
givenchy
hemingway
hotspot
hoắm
kinshasa
meazza
mursitpinar
origami
osvaldo
paltrow
panamera
perarnau
photographer
progesteron
qantas
rafinha
raytheon
sanliurfa
shaqiri
ultrapixel
vengthlang
vkhh
muniain
nagasaki
tadic
##profloxacin
lactose
ultimate
unicare
doyle
storm
honshu
freestyle
bongdaso
moretz
##duna
weather
igla
impossible
capture
police
junsu
##uleyman
fedora
tđkt
highbury
backup
sisley
vladimirovich
cedar
kobayashi
bound
cerro
csxh
sohc
parkinson
genius
granite
549
jrai
rivaldo
gaitan
chẹt
kpmg
medium
chdc
khều
horos
syd
đét
sullivan
dagor
taobao
wpk
leeds
prabang
blgđ
bakel
llc
shinee
nadu
nưa
shair
pyd
alps
nand
sciar
jeanne
##thong
wpa
sendo
quoc
mensa
thưở
zhen
wealth
dudley
surge
glong
melamin
tesco
gát
##ious
đsq
awad
adriano
shape
stem
##hia
ngoạc
trối
mz
massimil
rađa
dolgo
##enzo
soul
booth
mợ
tok
514
1143
xiv
##5278
pax
##gf
đễ
likes
tdp
hem
##diger
##corp
jk
##ynet
##form
vư
##tư
nhíp
bớ
weiss
##eddy
815
acm
macro
##ón
jewel
##etta
822
##adi
trới
036
chóe
##huwu
sepp
gri
sae
##tomo
##hwa
##gie
##isio
vlc
zachar
moti
alto
clin
súa
##arez
##fer
##sawa
trố
nhw
##ộ
nes
penm
##896
##raz
##urst
##pix
xim
stro
lơn
##lie
##erald
fs
vd
##tab
thuong
kyli
calci
##nick
exam
gill
##rite
sf
##zio
677
##run
wine
871
##ilar
##tqg
##ax
alo
##lane
##essex
##ống
859
bakar
##pf
##mite
pete
seas
leh
##ền
ttk
##bek
##dtv
##rque
wrap
mulb
teu
shee
moment
##let
moh
##xi
##tal
##enviet
đĩ
##360
##ial
##eker
##cale
cub
##under
##ob
mona
##ipay
763
##rold
isla
sca
##eol
874
mora
thoan
hagi
dởm
fia
##enburg
##ulo
##ayama
luc
maca
zei
##fw
mcc
georg
simple
acet
devil
lot
##imb
sage
704
dick
chiề
##led
##craft
khà
716
##không
347
##787
solar
##allas
vđ
lade
proto
partizan
lử
puli
diop
ghẹ
quăn
##otsu
jenkins
address
akhtar
association
ayperi
behati
bezos
budapest
bươm
charliz
corvette
cricket
dnvvn
eleanor
electrolux
fulbright
gothic
guillermo
guinevere
hedayat
heinrich
information
joffe
mallorca
manolas
oyster
pimco
rệp
serotonin
soccer
squat
together
ttgdtx
tuttosport
variety
vesamo
aviation
bernama
cgif
delaney
hợm
picasso
seolbin
target
camarasa
children
oddity
savchenko
zenwatch
barrymore
jeongbin
url
megabuy
azure
bookmark
powervr
shinhwa
diezen
sacra
hospitality
huddlestone
kwak
harmony
nơxh
furia
ayor
fomc
rotenberg
instruments
reina
guess
strategy
sherman
nicotine
tnxh
##ncert
đoòng
bamboo
lancaster
##eszk
angelov
solution
calcio
tyupkin
azov
##retta
giup
timeline
khoáy
donuts
brands
industrial
##score
halley
sanke
tisco
##qghn
wada
asset
liếp
nuer
icp
0306
lagos
##campin
##mouth
afta
topol
emerg
sparks
bẽo
topic
1894
kiri
birds
899
theron
apf
ddg
latte
manang
jaafari
otto
itp
spy
ol
hht
equipe
boil
1890
src
hole
arts
brg
brain
sting
924
##rock
marta
xuẩn
##ả
846
sweet
navi
yue
##oxide
##wich
oóc
mtp
msm
enter
##628
##rence
##íp
ngạnh
poro
##oul
cake
728
hla
##akir
976
hyung
833
unha
##phu
mèm
boat
754
##qh
azz
##gbia
741
capa
sham
vnch
782
rắt
##310
##code
sem
##ib
rí
guari
##rix
mad
##aka
site
cms
##umba
##dd
éc
##lis
664
##iti
sti
##gel
rb
##mud
##879
johnston
##ullah
##bli
##utton
sco
##arek
##isa
chlo
##avuo
##nda
##erland
##lai
803
gle
delo
dele
angelo
vien
##ebert
##ongsakul
bet
sigma
##lp
##mag
##del
##bel
##ecio
916
##oai
##iec
##miss
swat
kmp
mek
palo
eni
##iji
##bgd
067
cab
frances
brin
kat
##rg
sharing
##xt
sanat
##chev
##tte
##033
##tnn
##inform
##var
inle
wick
##hểnh
##heimer
plate
##uz
tid
##orno
##egan
##cture
tap
##ference
##dg
##ì
839
##igan
##eal
##ecom
##sud
shel
##mmer
##nal
0938
##dou
##sang
##ậ
banker
ste
##interest
deco
947
##otte
##finance
nab
##stv
##hững
##bot
##520
##taj
##group
##rio
##tôn
ctt
hb
pvg
##hiro
albu
ché
xoạc
adventure
consult
casilla
dante
##142409
alcácer
aybar
bakhmutka
berkshire
cambodia
colosseum
davydenko
dehli
dẹo
engineering
french
globalfoundries
idaho
jaejoong
jarrah
jvevermind
kimberly
lexington
lshđ
mcilroy
mercantile
myeongwon
olympus
overbought
pecovsky
rizoma
shaarawy
shiretoko
subianto
tachiraptor
tourbillon
waacking
adrien
cellular
fairfax
garros
javascript
karabakh
piagio
pirelli
revlon
rosatom
03696
armstrong
fergie
joubert
broadway
rupiah
xylanh
melilla
traces
esop
hashtag
uranium
wallace
ecolly
malibu
machine
forever
reason
beatles
sequin
destin
sportmail
emanuel
enable
fighting
subway
zaire
đsvn
eugene
kashin
piper
infrastru
stronger
heeyoung
kuin
rockit
gogh
nanyang
kennet
agusta
madridista
saigonphone
dslr
obs
tetrad
tomorrow
rhian
photpho
forlan
aliyev
selva
elisabeth
##mycin
salzburg
misaeng
kayon
havana
##cai
##nadz
shamu
vitaly
seasons
leisure
sta
633
arcu
fuka
undp
vsmt
chét
swiss
clarke
trahud
##down
mems
vẩu
đvtn
layang
##131601
spain
clean
shota
tsim
desk
ritz
##tner
tourism
ebo
xênh
midu
##ergara
safe
##ẩu
gimp
charger
monitor
ambros
mathi
slova
tito
joaqui
0989
hyeon
##mpx
tanin
opc
olaf
sdt
ueda
brt
floria
quít
527
rpm
gura
richards
##oiva
##vil
skorp
##far
globo
1896
##akuta
##ovic
##ios
681
pcx
third
##unja
samra
##kb
apu
073
hsia
stalin
##photo
myong
##ere
##ough
##sql
832
##heikh
peng
##suke
##orica
##cic
models
0165
vsm
##tonov
muông
tron
##ehun
jodi
867
2160
##elix
medel
narin
dip
taek
849
1820
rị
marne
rok
duc
##kar
##oise
fisch
lị
823
raw
kron
##yến
soạng
##tw
##tify
##cap
stefani
meng
##yomin
coo
030
bata
wheel
##ager
gàn
hawkin
##134
arg
gree
jas
##llard
##vely
2400
##ại
##hui
##tri
jac
##777
hanw
organ
dal
rus
##urus
movie
hut
fas
dvt
kraj
1789
ker
898
lé
##ú
079
##orient
##sol
rink
##dex
yin
shc
##oxy
##ré
558
##atia
fra
jia
##rah
path
##yon
tvn
tiển
domini
0962
##ewell
yag
ưỡn
##ôi
titc
##eine
gụ
##1582
cavi
fil
882
niel
bẳn
##ỳ
##share
chuc
##ữa
915
berli
##sov
852
764
##gbps
##557
picture
anime
##gas
##toshi
727
##fumi
fight
##touch
042
shortcut
collin
german
drift
effort
intelligen
acecook
adflex
aljazeera
badusb
bocelli
dzemail
equatorial
erebus
eurowindow
fibervnn
gojowczyk
gothenburg
gutierrez
idecaf
ilovaysk
jehyeok
jelavic
keown
kiatisuk
linkedin
marcheline
mcnamara
monomakh
mosquito
nainggolan
nalivaichenko
nikolic
nobunaga
northern
pantsir
pardew
pgpv
polyphenol
prompt
quinvaxem
sevenfriday
shevchenko
sooxto
supply
tdskbmte
transerco
turkmenistan
xôviết
yakhont
yamazaki
caracas
partition
salyukov
daesang
python
yoochun
africa
ghẽ
okazaki
properties
shikoku
summit
bullock
orissa
shufr
golikov
radial
mitchell
gangwon
value
efron
lapse
indigo
wardaddy
freak
10201000
heaven
gasquet
liege
peplum
irkut
ubud
hostel
vjba
alliance
##culture
chromecast
palit
winny
##oettinge
chọe
carlton
sweat
wmd
moya
đẹt
directx
kadena
season
gritz
renee
cskv
messages
unidos
terance
kissel
snack
lobby
doctors
zte
maliki
appstore
trét
friday
daisuke
##tracht
superman
##20141007
ldl
gef
upon
cruises
krishna
7220
##hyun
export
tstt
grey
##ingham
sarin
##jarat
##7501
canary
jessen
nầy
breu
mdb
truong
viking
tcvn
bpc
mram
chaek
wars
phỉnh
##vat
blend
##ade
andré
kyun
int
khàng
sdp
mpk
rosenberg
1899
bride
lie
##lya
##seafo
erick
983
##502
shore
kac
bich
bvn
##uyệt
1905
##cuda
##888
##xit
nak
997
##ùm
824
##421
##ards
váo
##igo
2035
aloisi
zha
974
wri
518
##asek
shang
861
##test
its
673
tun
keon
##eek
##252
geng
841
was
alder
gem
nali
designer
##tơ
kroen
pamel
cor
ces
##zuka
##wei
##ilo
đị
notes
##lit
sole
##shot
##rp
##hiểu
##ỏm
772
708
##hier
cher
##uel
shp
bri
pap
##xr
arun
##edric
497
mul
##729
2600
##gio
##lei
momen
##erca
##choos
kcal
##dee
ttvh
##543
776
##szl
elf
##iệu
cun
thames
map
##ault
##đđ
xôm
##bbs
##iak
##ony
712
##drive
967
##tteri
##ybus
##ual
##ans
##188
##vl
##kara
penn
renat
lun
roa
##bao
10000
##rena
schen
##gui
959
##food
##zz
##erezo
##4706
##cclean
##mic
##rillo
1024
nye
##lina
##phan
097
uma
##ocar
##ỉnh
##arnes
##woody
##kina
##bby
lars
mem
geoffr
023
##ology
flo
flor
##tac
##uối
sik
##ague
654
##ỗ
med
##yat
804
904
hsin
gain
##ẻn
pick
mbt
##trên
##iglio
nag
##sv
##uka
593
tỉn
tiê
nets
ral
rossiya
##oxin
beau
morozov
champion
bulgari
gustav
fortune
##torf
##phapluat
analytics
androgen
argyle
berberin
calisto
carnival
chevron
clorua
deborah
department
diyala
ecclestone
engadget
exocet
figueroa
friedman
fukuoka
gabashvili
gaddafi
honolulu
jeddah
marquinhos
medlatec
orleans
pandora
rodriquez
scudetto
springerplus
syngenta
thwaites
ttcbn
tutankhamun
ucraina
vietnamairline
yatseniuk
ẹo
donovan
hepburn
motul
pareiko
quadrant
severodonetsk
dollar
honeywell
edgeworth
gauck
makelele
veronica
khampha
munchen
output
ladakh
namibia
sinaloa
thoibao
bundchen
afrin
karmen
mariko
bolero
burkha
fidelity
acosta
gosling
pandev
werner
peptide
controller
javi
tracking
princeton
qlđb
brett
fullhd
cuội
00488
aquaman
methamphetamine
ttnkt
meeting
hirai
##eylan
memo
munro
ocampos
qưới
bqlda
piste
jude
dwl
thcn
nuno
superga
géra
dfb
diezel
mbed
vsi
hyatt
siwon
ods
pvfc
sentosa
pisa
##20141009
buffalo
genesis
weavers
kuznetsova
contacts
vapa
vhf
##20141014
abay
cnmt
nlp
##0141013
ôsin
bruin
airports
whit
groupon
hammer
jalal
buv
bửng
dumont
dalat
berkut
hóp
ending
vfs
jai
hoắt
jony
latina
sật
guangzho
pais
vieta
ricky
20141001
vf
labs
chỏm
semi
strong
leave
muỗm
elio
baku
robins
andes
##ahiri
hsv
rovers
##inus
levin
##urch
##uyền
amos
mansour
chkqt
aé
lining
xuông
career
938
turk
##zone
##ọng
3220
tls
yau
##elles
##life
##acer
sal
palmo
##imble
1922
vvt
987
isro
##ucci
nấn
##uresh
dua
##nnd
##pita
works
##pack
hulk
##145
0986
petit
silvi
stap
##mé
##doni
##lip
vãnh
excellen
load
imo
##epes
asma
bucha
ale
tdm
##uirre
qsd
repl
mtk
aus
wide
842
##hq
##kata
##ảng
0914
maha
##mrc
ors
econ
886
dary
##hk
butt
atis
kute
##enol
##card
##udi
bj
quirin
##ttle
##sz
##saki
know
feel
baggi
##kawa
##chia
lombard
##ston
##sar
##arina
leso
##hao
##sual
mara
883
##480
merin
##khi
##144
coul
##499
##216
##fpa
yeh
novot
swing
##taka
##asser
##holm
tol
##vang
tank
glycer
##abu
##vera
##spor
##home
##212
1011
vsv
##arov
##uốc
cid
liv
##lc
##wz
hima
dry
fab
era
##carbonate
##bico
vibe
##ago
##enia
miles
nhễ
pinto
##df
##sense
xốn
##ther
##ợn
##465
##hụy
kalo
hap
053
##jeb
stein
051
##llas
##qi
##độ
##ovy
##668
##kowsk
##foods
##rade
##zh
##gue
sado
##eus
##ài
##xat
hổn
##ws
yuen
vinasa
jing
atl
##nơ
811
palma
##ted
concord
##èm
##rnos
##rico
682
828
606
clever
##lent
##ings
vnnew
##kyll
đễn
isabell
##uềnh
gc
##123
vx
leg
nitro
##traffic
kre
##gpmb
##neville
##center
pét
##stream
##1003
ngộn
wes
##girl
blanchard
trent
##fr
bein
906
asr
đvt
benh
##trell
##602
calendar
product
ayer
hide
phăn
crew
##erre
rapid
##vaychenko
adelaide
anelka
antwerp
cairns
chiffon
cruyff
curcumin
domingo
dqtv
fractional
gtđb
helsinki
ibiza
innisfree
invincible
iturbe
keynote
liedholm
lutsenko
lâp
maldrid
nefertiti
nismo
noyce
parallel
phiblex
reynolds
rojiblancos
sykes
temple
unicorn
violet
wyoming
yokosuka
zenjov
zepeng
đdv
alienware
brookings
bruinvis
caterham
civil
crush
jinggu
masaaki
oxalat
zotac
attila
filippo
gluten
metallic
milimet
movement
nckh
sediuk
adaptive
andreychenko
hernanes
witheridge
belize
knightley
nobody
fitbit
sherwood
kingdom
cebu
mashable
villareal
sirigu
tâp
kirch
dnbh
gateway
portland
atsb
pierce
kirovske
extract
xiuwei
troyes
alvarez
colombo
death
denso
neowin
notepad
xêút
mustaf
whiteley
fiber
nsw
bangalore
leonid
tucson
frankie
manisha
student
lingo
chcn
##tronics
christ
péo
xẩu
##fructose
ooo
gyeong
mister
syt
thũng
nfl
mpos
corsair
ypj
afar
ctct
schet
biff
bkhcn
antony
ginger
mằn
pew
gamma
spot
llvtnd
hough
trấp
justa
##nen
ipc
xuê
browser
thượt
sands
tráp
sandy
dancer
pled
ttttn
hardy
colour
rtl
gaika
##laise
koong
mầy
##eatec
5290
words
969
lến
##20141002
##md
beam
0112
loire
haji
bold
##rity
2104
itv
cyan
wwd
taiwan
##mash
haq
paing
feature
kas
ghè
##tson
lỏn
##stra
0912
tamar
lite
bbt
parc
##nium
##nder
cbd
##vp
vồn
rubi
lss
bleus
##arrett
anya
##wo
lync
salam
mte
868
gsx
##aki
côngtơ
##uôc
hale
##rnav
hl
reef
bacar
644
041
sica
yorke
bcg
##290
casa
zag
pagan
##well
asep
younga
hec
##dep
692
##vof
074
##mki
##icker
##nay
cule
meti
##thy
##base
##cnu
##rain
5555
##des
corona
##harms
##meier
##rado
nỏ
ndn
alf
igz
##arrow
##9402
rủn
meth
683
cana
0169
cope
based
##ễ
bow
##042
dev
582
##fort
yur
job
##016
stevens
989
fresh
irs
kant
cỡm
jama
kazu
umm
zub
##eber
esc
hoach
dear
sul
naji
cle
##ady
nex
##oz
coop
##alls
##rish
##idling
##tam
##ruk
##nl
##cle
choice
844
schue
##399
##ensis
##plex
##ative
##pod
##sant
##agger
bash
##patna
##cdn
##ssc
usg
adp
##xoe
nghệch
##aux
hak
##jaya
##270
ws
##oka
vinami
##ths
##elo
##ruma
##iana
##ense
##tung
mod
aca
##via
gour
haje
kawab
chũ
026
##rf
##pco
##mpact
fujimo
rx
##wat
phùn
arc
michi
##tai
past
##lun
##1600
##gent
##okey
##orsson
##ico
##lulu
##ates
##ibal
moza
##redo
cmd
##tay
##vito
berj
##trand
hocke
##cons
##nil
phướn
##etti
##utsch
##cre
toshi
564
##vers
##rani
catw
arsen
mcma
politi
##110
##lk
tmd
085
##ạt
nhón
##ux
##avi
mass
##qui
##maa
##elton
979
mif
##ũ
##ason
##mehmet
902
dsc
##rgil
##teen
pí
vầ
ipp
##rsas
##builder
kist
##1080
##cision
##quan
##eom
entrepreneur
##iller
gừ
recent
ural
vongfon
hydroxy
andrej
đụn
lườn
croc
tetra
wangdeung
illarra
tienphong
##recognition
begawan
bendgate
berlusconi
bourbon
cappadocia
caravelle
chanmari
chihira
cosmopolitan
dussehra
ferragamo
giovann
hampshire
heritage
jedinak
jovetic
kikhtenko
kresty
lermontov
libération
lympho
mazut
middlesbrough
mittelstand
muntari
nacional
naryshkin
phillipines
rajasthan
rasmussen
sigthorsson
sputnik
stauffer
surveillance
swype
theverge
transistor
tvxq
vassil
volodym
yousafzay
duowei
enchante
formaldehyde
jakob
norwich
stamina
teambuilding
85736
meijo
naftogaz
snake
baikal
marburg
xayaburi
bimala
ruộm
vbpl
livescience
preston
carplay
figaro
amoniac
alabama
launcher
nikki
freetown
gloria
richie
rosemary
sarwar
innovation
samphan
smartlink
cmkc
monre
rochester
charming
crowe
dakota
ebov
dentsu
erbil
fhm
rupi
kidman
circuit
seredo
ubgs
skcg
serial
laugh
adul
##hnichenko
tuế
junshuai
miros
autoca
plasma
bender
horse
westwood
canyon
murad
faa
notebook
icpc
gltm
clint
myerson
borey
phây
gầu
pinot
elsa
basic
secure
##agland
bakery
qara
davy
vưởng
better
knv
977
stoker
9224
kbiz
##109
vnred
xhht
bourne
ola
person
cuôn
neft
doremon
##ssip
mdg
jfk
##abarro
lift
shift
pxa
bhlđ
beth
agera
hbc
##rham
##uyen
emerald
cnv
tft
kimura
##korn
cute
og
browning
citro
tlđ
butter
grow
sua
vgs
fka
jb
##ellis
kmart
1827
##rand
fau
gael
karza
hặc
1865
##114
1366
rise
bente
lta
physio
xoàn
laodong
arin
normal
xuen
fung
sòn
partner
georges
##768
bobi
hours
##ardy
071
##8820
##ulos
wabi
jessi
0934
louise
traore
gat
##ilov
ila
vpn
princes
rmn
hoản
1913
deli
roht
##sage
couple
##oke
vila
mets
nhò
##ture
##0000
##asir
##lot
##hau
##hung
marks
ntu
plos
brann
##ones
##xu
diem
oun
##gov
##iên
1010
##ritz
rơmo
2040
buzz
##nard
eba
carr
glaz
kien
481
##guard
uts
##iếp
631
##chio
uôn
##urious
##hl
chã
mimo
##ểu
cpp
dart
nih
kurt
mio
tyson
##108
##spencer
##guri
fen
lys
##sonic
wh
elm
##ớng
##73088
##llet
##kom
##yak
tsu
##sby
edi
##niak
jol
hsi
cater
##ppm
##551
oba
ee
flora
oki
##char
ngàm
##úng
aida
xồ
891
mill
##she
jf
1320
1910
##rang
icor
##131
##oét
##stitute
##lford
nđtc
stock
0710
salem
##qua
##ohe
gha
##uôn
##319
guan
stark
retrac
##eater
##ket
roca
##mf
##iện
##cker
##eto
2200
##ận
##alicia
lum
771
ike
##get
##dry
dep
##nie
##rano
ecc
icom
##uy
koma
sachi
osborn
jenni
##akula
ttp
mattin
sas
796
##elson
##pho
##derm
##bac
##ơng
aroma
federi
trươ
haze
io
pts
rani
##cos
##kok
##imei
##sbh
##zza
##vt
##erg
##nberg
cour
upi
077
hisa
##prom
##xpro
bx
gx
##isuke
##ố
##chc
ele
##hub
##evan
dutt
jian
##lico
kes
##mia
##288
##kaley
gore
##bee
##los
##tại
cine
papi
##tes
##pr
jord
##polis
##onova
##roust
903
move
lori
##ook
##smat
##pot
##ằn
herpe
ktv
fio
##gun
##chul
591
##each
2100
##taiwan
##point
##money
##điểm
front
##uttanavong
clay
nhữ
aman
đừ
truc
mete
avenger
hỏn
unido
eduard
production
strength
qa
##beyond
##pasquier
abbiati
airdrop
alligator
antares
apartment
auckland
batteryguru
bespoke
bqlrph
brimstone
confidencial
dagestan
dassault
dvmtr
ethernet
hallfredsson
huracán
indevco
janowicz
lammert
lolipop
maccomick
mengalum
nerazzurri
norfolk
official
onuoha
pajares
pichichi
pivot
pravda
queretaro
rhapsody
rosselkhoz
schultz
shizuoka
steenkamp
tanouye
thohir
tobago
tohoku
trashorras
tumblr
turchynov
uragan
vivienne
westminster
wilfred
yildi
zeaxanthin
ciprofloxacin
coruna
huyndai
kraft
louvre
mazút
robbins
vkhn
bashir
bkav
bridal
castilla
expert
hoabinh
jermain
lagonda
sahra
vermont
zouma
fuqua
onlyou
bielsa
bongdaplus
hogg
jeonbin
grampus
huffingtonpost
seahawk
kinderworld
vinacontrol
workout
mingyu
museum
converter
gravity
nghli
unbroken
poyet
forrest
carbonero
vinatexmart
altice
willow
ntbd
stephanie
acamm
mediamart
sheet
##rbour
mochi
bronx
oreal
tthn
bisuco
pallot
ươn
early
turner
topshop
##adhya
eaeu
svuk
bounpon
isuzu
palazz
andros
godin
fever
iberia
ahls
pết
imdb
domenic
psa
rodas
probiotics
cdnb
fruit
summer
wiwa
ciara
stern
dmz
dafco
hapu
riley
giốc
transfer
##pri
bolam
mrj
prum
paulson
nations
purin
need
icbm
diyar
medicine
misi
markel
toast
drum
##nadez
topica
##kc
sensor
algier
dunn
suso
dewan
holler
details
sdk
##enje
gni
regal
arkadi
alexa
gruber
logan
##eka
intra
##uma
dcl
dbt
vietin
islands
##dit
epub
##ìere
glax
roku
cayman
tẫn
##jos
krylov
gato
jordane
digic
1907
mekopha
sheer
##boy
lights
ellis
vùn
wiki
khansa
letter
baoviet
hển
bono
zab
##48020
bora
##eawoo
897
gianlu
agent
##inesh
doroth
tape
##aniche
##maker
jiang
tku
055
##lski
mfi
##issok
sếnh
##wick
xếch
tvd
khimki
svensk
chạch
##rai
cahn
dmc
wel
978
ntv
boca
mpg
coleen
pé
##trung
fca
hpc
gavi
sek
##tore
##pard
##8587
##dung
lúp
veron
##zco
##waz
chiba
aut
##nqc
##fect
tedi
oscars
missi
stur
bpa
millen
##ngsheng
647
##ernie
xè
##5123
hamda
##exim
##equie
mena
chộ
3822
##djou
img
953
##roth
dune
hz
##ersys
##auci
meyer
##walk
cst
rina
comp
##reen
##430
##our
gillia
gk
##tcq
prad
jut
818
1788
##xp
039
rd
bed
shek
1241
kung
##vita
minor
##cter
##bates
##hoàng
##won
##rley
##iq
đoa
chự
##ally
753
akb
ibp
dat
##aram
chien
strel
##tas
sps
##reza
##amon
##mét
boom
nana
nep
barto
râ
##ệt
##cus
alb
1906
gtc
##kovic
0120
##ator
ling
##manov
xb
##mil
##verage
sabi
##ome
ngụa
##nin
##ain
##003
cbc
##feng
##dhir
spence
##aplet
sach
doug
0310140
##ears
021014
##208
##ạn
tote
bro
lok
##kle
nea
##eran
##emba
nar
rack
##serv
##uti
mick
##tik
mattia
##lisa
pw
##oma
##iru
##hiện
##hieu
wor
robo
into
856
dada
mendi
##ied
##asha
##bun
nur
##ovsky
vega
voc
lind
hue
bre
seed
lumi
##507
berez
##amine
##pedia
##uza
vâ
##lani
safar
045
hungphatusa
##3735
hata
sz
##eland
nest
##331
0650
vst
moan
672
##week
##power
##saigon
##asea
##karik
infinit
##yuan
##pez
câ
##ilbo
##450
##ậc
##urismo
disc
##qing
quiz
##rody
##ela
return
spear
brussel
fata
knc
##lippines
071014
##ixon
admiral
##prasert
##voronezh
acrylic
ahmadzai
ajcep
alcorcon
aquilani
artisans
balenziaga
beyoncé
bidifisco
blossom
bolasie
bootloader
bourdai
bristol
chaparr
cheadle
cherokee
confidential
dagbladet
evleak
exxon
generator
gizmodo
goodbye
gresini
haqqani
illustrator
johor
kauai
krynka
limassol
mccomick
mcconaughey
mcnear
meditree
montezemolo
mugno
multistrada
nalyvaychenko
onyx
oxfam
pasqual
pioneer
ppdh
privacy
rossoneri
rozhkov
satellite
schuerrle
strasbourg
struxureware
subotic
sulforaphane
summly
sunsilk
superleggera
symbian
theguardian
uservoice
wednesday
winslet
xskt
yosakoi
younggyu
zamperini
đũi
catalogue
consig
gigabit
lancelot
lawren
veronika
0125555
alekseeva
bondarev
frankenstein
nashville
puebl
quintus
kumho
ombre
tfsi
haccp
xddd
rùi
hđđt
kvyat
macaron
savage
sneaker
##ovlev
ladbrokes
glory
truờng
hubble
karachi
thatcher
kozak
outlet
healthkit
tennessee
hankoo
jeonse
xhaka
akbar
aspar
ccmn
weimann
senderos
shelton
nouvel
pknd
kitô
adora
lifenews
penã
blakely
paste
lucie
mokin
wrice
baird
sacomreal
fedeli
pedrosa
biotech
christmas
cctp
iglesias
ekaterina
crossing
pichet
capello
cmhs
qpvn
vnindex
nhẫy
oval
##rdian
lerman
thorpe
flat
mirae
serum
akira
steele
almas
khẩy
bedford
adventures
cuaca
cobalt
collier
stig
heav
altint
vergini
khướt
duvalier
pano
gới
0987
kitch
mahal
tjc
##roi
dtl
banega
begovic
donnell
easa
jsc
saving
##zha
ruth
sacom
kook
lodge
cims
order
##ộp
stadio
0983
shnn
twins
##boyd
samco
híp
##kett
edmond
cano
3824
coke
hý
##msuit
sobot
cornwal
nash
ofan
homs
ntl
nichol
7777
hlg
##lat
lehman
nhắt
ubndtp
vkt
hasan
##inovic
sema
##tronic
fandi
dpa
viec
1386
##wedes
vneu
##lund
##ực
rados
##ohang
chek
stc
widi
engl
##pham
vine
##buy
jans
cargo
##som
##oe
mxh
quartz
laude
##hạng
##hang
##jun
##see
##witz
jos
xxx
##bourg
bava
faye
1916
erase
gianni
##acura
##ebron
edo
argo
##170
##2560
1840
##oit
985
##ưởng
##ansk
gavila
##ellie
##tail
were
raven
cheong
hnd
melvi
##oát
trali
klaus
##shin
1100
##839
##ify
zah
##daw
3974
##ivea
##tops
1802
##shma
straub
irn
##aler
##tol
inf
endur
lữa
##love
bakr
##etty
##iển
##fiore
##tings
dress
0130
##sf
fina
784
##747
biti
ramen
##alette
1850
rub
mans
032
csđttpv
##751
##legg
rp
parks
##moulin
##qa
yer
0210140
had
##nbar
sora
komsomol
##weird
##sberg
##cxit
wein
glees
##mat
##even
shar
##enor
raid
0168
digg
##ilaria
##cup
fern
mana
tale
##ellena
nl
##beck
rene
lore
0905
##red
bci
##983
##240
gama
plast
rovi
flight
enc
##tera
isl
benat
##mva
##porn
##uska
##hana
##102
##răng
##sel
##aser
fsc
##vien
bug
##ilic
##orton
3100
##elling
angli
sanjay
##ởn
##121
bíp
##gus
acc
jala
kag
1700
##erzy
##heryl
thùa
charg
ró
##ything
##pus
##glik
ref
taku
##onso
##oev
mán
ctb
##qd
loàn
##038
jina
aim
nit
##fy
bring
cost
naz
##các
##bert
##por
pb
korobo
##una
benzen
##zuki
##ember
his
tf
hie
##ứng
##deen
##haji
##tamin
##once
##illi
##nnn
##athan
##nho
fam
##rez
##are
##pvc
##rou
0984
##shu
##vy
##smir
bep
##fl
##152
##479
##ovo
##evil
kaya
ide
##sil
atr
##hoa
chro
##ism
##yar
##rshid
hydrocarbon
spi
ou
month
cadi
##jk
shai
pate
asad
bier
##right
##sser
roc
##inh
laf
kf
##ầ
lava
strat
##east
shog
lic
ile
##rance
##riêu
##space
##idae
##aviva
vcf
##monitor
##tourist
##lighten
##type
##loft
##lít
##chow
avant
##nders
##duck
##look
iai
selezn
madi
##fighter
juke
##rmore
##ạnh
##ove
##lfried
saba
message
explor
scarlet
lucia
##obi
carne
insid
beiji
##asmin
htcnsh
abkhazia
arunacha
attapeu
autodesk
baldwin
barzagli
boredpanda
cantabile
château
clarinet
commercial
cyanogen
céline
genève
happiness
heerenveen
hochiminh
insurance
interserco
istomin
knxk
laffont
language
lavaux
marchionne
mayonaise
novosibirsk
qcrv
repsol
rugby
ruỗng
salmonella
scherzinger
snapsave
stylus
thriller
tifosi
tinyurl
toxbadge
transylvania
triluminos
trẹo
twilight
whitstable
yongbyon
yuaikwar
allicin
bodvarsson
dtht
fairprice
goiania
kreiling
kđen
vergne
ampy
antifan
antivirus
handico
hapaco
metamorphos
pretoria
stadium
thammyvien
elmohamady
favorites
kurilla
taipei
ilovaiskaya
tsukur
auburn
fahasa
maslov
jucker
sousa
cđxdvn
kipling
kommer
healthcare
arjun
cheonan
prospect
baroso
jaemy
kaneko
palais
cavalli
pnc
gttn
fanclub
betis
##zr
ilyas
90217
solomon
bromwich
fantastic
##rdyce
newipl
hezbollah
sandberg
romance
keizo
dhaka
thvl
chardy
andersen
preference
ventures
chrono
khén
##dlow
smarttv
đoác
import
applications
riếu
bukamal
storage
##counter
gupt
sammy
why
edison
##ysel
ddos
vanilla
andreja
oách
watchman
drdo
gentri
6666
##ffin
91999
##edved
hmh
lil
hahn
vuong
proof
lips
suphan
glucid
bohr
cupcakes
muồng
cuoc
pênh
toẹt
vfr
skul
chòe
reports
tiles
michal
peak
myers
chess
echo
fux
rouse
bonk
cuôc
quèn
banggi
josef
wow
qtp
medeir
kbt
ayo
cđml
murci
752
blim
pít
misch
hubo
##oller
##ben
##lactic
walters
mpr
inches
udg
##nini
casey
##năm
xyan
academic
smar
sếu
parme
pavlo
halo
##mut
grip
killer
##laume
kiel
nxd
1904
blink
##ception
##erdan
demio
pó
duty
anier
##hiệp
sby
3450
bệch
marry
##pass
##lynne
##yen
xáp
##teh
soup
##ởi
##elon
##ctus
##him
mủn
stf
keeng
##azaki
sòm
##pô
##scher
hdc
0000
mdl
digi
pour
##arissa
ranking
seko
##eria
##dale
mj
ando
##suco
034
barrett
##elago
misa
##customs
0373
932
khuyen
##sny
songs
##tual
986
concorde
##pier
rơn
##areva
##kr
karam
dsp
nitrid
stani
abdi
hey
kala
##coma
maine
noir
utv
sid
xạo
##lic
##ành
##một
ics
##finger
optim
0916
content
pave
##sler
track
jar
##xa
##ậy
##allium
oak
##oxit
##rto
gare
##679
##utte
koji
671
##yah
ttktt
##alon
##unger
mille
irr
pli
came
vnds
913
##ckett
brod
reg
##iac
dodo
##dov
0129
##vee
pace
ranch
hsie
##bf
kishi
oca
stam
guns
##efell
thụp
giga
##cevo
tash
##461
timo
span
##abad
##rone
oe
tse
##ucha
nils
##vigne
##eer
wald
##etic
##uri
##fan
##ibank
##ridge
boro
dmitri
##zl
qing
##tl
kemp
madam
##hof
##ưỡng
##zt
bứ
##bro
falls
##uni
##phil
afi
##urt
##amin
##đê
##istock
##vist
xơn
sidd
yol
marcha
##ilton
##dolan
##matsu
##diane
csk
rona
##als
pica
hydrat
common
phum
hib
mind
tòm
coll
cọi
baha
##gata
mankin
##umu
##5566
##onny
##inz
##lev
gba
##vietbank
##oshima
sồ
hạp
028
##eiichi
momo
amri
##chin
##its
heli
##dpi
well
##ever
##eagu
reserv
##vik
glee
pom
jik
0933
##elain
lager
##2570
stevi
mean
pops
dial
##tevie
##nath
sign
sind
##lar
##măng
##veo
##ignon
##loe
##uris
xư
dome
bf
flyer
##mberg
##ayman
##mood
atsu
##ardon
##rail
797
##wec
dewi
##aten
ads
ngoạ
798
##minh
kut
##ượ
1909
isabel
okon
##scal
##ncheon
##lana
982
##bility
##ions
##higher
cable
helm
##rbert
gec
##cao
##kline
##dam
##utd
##ủ
yoy
##ayala
##balo
fine
##139
##zhou
angle
shau
taca
##path
##fn
##oque
chain
budd
962
##eeva
đợ
##osmith
##flow
##truong
##control
##grande
##report
##patrick
##black
##movie
##kent
cỏn
##jiang
emilia
ngợ
shih
mcg
##hatma
palestin
bower
flame
mauri
logistic
animal
recording
option
easter
bolkia
xnc
myanma
communicat
ukroboron
##illus
aduriz
advisor
akrotiri
anaconda
arkansas
astalift
bancassurance
bangoura
batirashvili
battambang
beedoctor
bhutan
boulevard
convention
dzholchi
emarketer
flamingo
frelimo
gorakhpur
goulart
harbor
hennessey
hennessy
humphrey
jaffray
javelin
justatee
kakinuma
karakoram
khanssaa
kikuchi
kramatorsk
kubaisa
madagascar
madrigal
măt
nobelprize
oleksiy
philharmonic
phobolsatv
phospho
practice
raffaell
refresh
reisen
santorini
shariatmadari
slingers
stealthgenie
success
timelapse
ulaanbaatar
unmogip
upleaks
vlncn
warnock
wesolowski
wilmots
xfactor
xphomes
yekta
đgnl
##131802
akamai
belgorod
birthday
blizzard
cosmos
fujitsu
gatwick
hideyoshi
kanagawa
liquid
lomono
mediwell
pattaya
sejong
studies
ubatgt
akechi
flanker
handanovic
hyosung
mckinley
swaziland
beetle
bibica
carroll
puratos
ameera
demotte
dongguk
flamengo
moskit
oudong
rcep
weidman
hirsch
scorpio
shabab
fortuna
kyzy
lagoon
oakland
paraben
thegioi
blds
nơsv
shigella
lookout
sihuan
##uzia
jarai
butler
macintosh
niags
kqgd
alci
matvi
shanghaiist
wawr
patê
coupon
heval
kthk
luzon
hummer
angelababy
twerk
##guez
##phire
hilary
ctdv
assist
joongang
ckps
efta
tqlc
volgo
peterburg
ktcn
blackphone
querc
resources
rockport
jojo
todaytv
haditha
rift
tetsu
bensi
kendo
##aydar
million
commune
painting
rupo
infinite
tryp
adamas
##ipec
##ewen
mavericks
shtt
chavez
learn
celine
mimas
telegram
abdou
kegel
hormuz
mandela
takagi
rotten
mmaf
rosy
smrm
beech
productions
tristen
abate
##gail
meiji
##charm
rebel
raglai
inside
konyak
lakshmi
cliffe
sabella
gregg
aqim
hemoglobin
topcom
flamen
kep
##00439
beijing
britain
schar
kovac
trudi
cfp
solid
20141006
##insbury
dakar
##lumbu
##ulfk
kẹ
plasti
borei
##ởm
donut
##sim
##inori
wco
martha
sake
estate
frost
barney
hool
bering
nola
##yov
antđ
camden
theodore
fol
chloro
sial
ruslan
iosco
2448
##phis
numbers
##nnie
##oid
sồn
ssg
josep
theme
multiple
dsn
koc
pên
##etviet
##spo
edwards
kôn
bos
nđtp
atar
rwanda
kakao
icg
karik
ngor
rula
phev
wendel
##rough
stac
##pko
janes
aliso
else
##itech
mommy
yukon
##569
cik
clair
##duc
uea
##nga
beacon
foods
##pped
script
##thon
uop
907
ratings
##mitar
johannes
aun
anqg
sxd
##baby
##uco
namara
##tics
castell
##awar
##bble
##220201
1887
sway
kayak
##uddy
mèn
044
3500
##iva
##akuma
cork
##ales
##ckt
##belle
ghita
##tvb
oct
526
carre
psi
##tube
tate
shige
8200
ngổm
crist
##rrit
##rí
##nahsen
##dashi
##ipse
ribe
##huru
##bara
bare
##uary
##dja
xía
blur
##thai
##rika
nabil
##sai
hdo
debi
##olaris
##lac
bonn
##ghe
jess
##313
castan
##hout
shane
fuku
##arley
##akao
##chez
mum
##678
##kyu
##658
elop
##ivka
##tread
asp
hold
vanda
baz
##ingston
##illard
pok
##ớn
##dej
kristin
wus
ecl
##tinh
##ummy
alien
##ixie
##cis
##moi
gabriell
matsud
fene
roche
##ming
hyper
##loss
##ufa
fai
##130
crem
ask
mesh
##ưng
##dina
herro
##sau
lees
stat
##pert
##ayne
ido
##mis
passa
wm
xuy
##mune
676
saw
mine
##chau
cora
kk
##bha
volta
ibuk
##swati
##erman
phư
dew
##781
still
##worm
##anu
##mmar
##043
##udas
nini
fide
##asen
##234
973
sli
jab
##queir
##àng
bear
##omo
##mr
bebe
##tyl
##2100
aom
zun
cath
##anto
##asier
##kha
ik
prat
##388
dvs
ves
##sic
##born
##237
##anti
asha
##nation
boc
fore
meh
738
##yler
mee
##yuet
##pas
##phi
##aughto
kla
##tđ
ngườ
##seco
##sg
mim
##cent
##lmond
sad
passion
conti
##ưới
078
kj
##pc
##ech
naha
fk
##fen
##122
##jia
##nishi
maxx
lênin
089
greener
glo
##sche
gol
##spect
linen
isc
##mara
##ởng
##koum
744
##fol
##anovic
0943
##polev
coup
alg
##skar
silen
drm
mandi
moha
##lation
male
dvb
857
##rèm
armat
gazi
whis
mechanic
jura
##gne
fantas
##1015
##amme
##abella
##ickers
ew
##name
##comar
esse
##969
##ille
abl
##graph
owa
##alome
##kos
alexi
##erian
##stic
##enka
sac
kru
##như
lauri
epl
##385
##kham
##jani
dale
##amp
##wear
goc
##champ
##luong
##fitness
##blog
##dccs
##pont
##ngày
##jean
##cake
##xít
##case
##navaro
##trend
##feed
rư
##office
nớ
##fire
##jung
##việt
##khun
vesta
##biph
##ulin
phthalate
##iggy
calorie
debaltsev
hoằn
nitrit
chằn
cliff
kuibyshev
##enafil
##edulinks
##hammyquoctebally
agassi
alsimexco
anonabox
apocalypse
arabesque
attapư
badstuber
barbosa
bastion
blouse
bogdanov
butragueno
calculator
chapman
cipolletti
commerzbank
concierge
conexus
cossack
cyclone
cđnhvn
dobrev
donestk
dufresn
elysee
faustina
galapagos
gcsb
geekbench
goodyear
habanera
hasnat
hcrkt
heirs
humboldt
innocence
keselowski
kilômét
kommunar
ljungberg
luvias
mashinostroyeni
mcarthur
moschino
nakagaki
neptune
novartis
october
offroad
oniks
pantio
pulitzer
pưh
quebec
republic
rescue
rudderless
selvaraja
shakespeare
shelvey
smaug
soyuz
sprcc
sussex
sêrêpốk
telemor
tomatoes
tourmalet
triclosan
trondheim
ubuntu
valbuena
vauxhall
vinashinlines
vmtd
vnassets
wasabi
websex
wellspring
zhytomyr
backgrou
bủm
ecoboost
kienlongbank
razgrad
tadaki
thiêt
vilner
carrington
ecosse
elanor
galliano
porochenko
rabona
textile
agayev
customize
fabius
rémy
ensure
experimental
mirren
nagaworld
pixar
resize
warwick
yeoncheon
irene
katrin
vsmtnt
hustle
oplot
ayew
major
jiui
burgu
journey
netpac
exposure
opris
edgar
armies
shahid
ramallah
troicki
chateau
monkey
geneve
riedl
prize
berlinetta
challenger
recode
skytrax
bloc
eleven
kitchen
hyogo
bigbang
seunggy
height
lowry
jovan
gprs
mutsu
scanner
normandy
sammobile
stranger
branch
creek
element
samaras
negro
##oshenko
unitel
baptistao
forster
vinastar
nihon
truj
dingdong
gioóc
mulet
yoichi
##kien
nnice
manucians
invec
jyo
oneplus
##tég
clover
##acob
dfj
nadie
dmyt
phét
murdoch
harman
horst
imanov
kerber
omate
communications
##entosa
liến
sunmi
johanna
harding
karel
aspin
palmer
parana
gaven
pause
schle
simpl
reuni
fowler
minev
bud
##ddi
dyna
neima
cscc
seller
cpđt
detecti
fitz
booker
gurung
steam
wef
sín
chilton
gdvl
oseni
string
kahu
kttt
karp
##adav
##thing
coach
##gier
candida
fanny
alfie
gấc
baovietbank
niacin
##omes
dss
068
xoạch
##qđ
aral
delete
6688
vpf
halong
bambo
bahia
abcd
##arev
drink
ctqg
teka
eder
hear
##ibhu
tosi
heroo
pepper
##ntp
horton
duhoc
##wald
years
msp
##meu
reminder
rốp
búk
##ủi
dccs
##orse
caffe
##epik
penicillin
bựa
1858
lighten
damian
vitas
dnph
1895
##baida
hoyt
0979
phăm
beaut
dusan
voip
gerb
##rây
cvc
brag
seco
##ussain
clock
lives
castle
vme
##rana
##izze
ceta
##wh
naka
1863
ctd
##sakaki
pry
manson
##raib
##eather
##four
##enzie
2499
1870
##rmo
2032
horn
guen
##mini
##rna
axel
lica
##035
##eger
##ãn
##ornet
mariapp
##elzer
##tsche
soho
contri
corbi
trạn
roar
##rasti
iwat
cz
##texco
tec
##157
aap
7930
##pit
tmn
mala
##you
josi
##zon
sấn
##nas
caine
toning
##gal
ruben
ear
834
uas
snl
quết
ultras
##pando
##hcv
doria
seam
##arena
922
##jon
wara
kja
##jer
aldo
ll
##640
##koko
##made
grill
pea
leigh
##berman
##orning
##tala
##hill
##argar
amb
đă
##enza
##bakh
lakh
##kraz
##iger
ản
966
xố
mitsu
js
##rau
##biz
##iga
viva
xín
##uro
tó
tours
##34030
ink
851
fact
freu
aude
shing
##aryan
##jic
##nobel
##ges
##usen
nư
##ambo
##rama
kob
##tone
ròn
##say
bms
##illing
lởi
##str
##èn
linga
mrs
##tigo
##alek
##137
##orner
##601
##2001
iia
gus
goh
##ila
##866
##ike
##lil
##ign
##olita
##guchi
crn
asc
sari
##linh
champ
chinn
whet
##inder
kiat
##eurs
##cit
##rome
gettin
kab
##thuy
##oswa
vonde
fujik
gy
##gill
##itano
chlor
889
rocks
kita
brio
paladi
##rman
##mour
photon
##510
hori
##state
##ilis
dab
vnl
##eld
ràm
monk
##urban
rế
##wley
##lass
abd
ske
##omar
##hợp
##lance
rela
##kistan
##ering
arnau
miko
##akoya
btt
##612
wil
ỉa
##upper
fri
tokai
##775
##gma
zoi
##shop
fix
##ete
##ske
sone
jade
##1300
asy
hcc
##ttip
jis
bene
##eni
##40201
##cil
shenz
##bes
##pcie
deal
montag
salma
##avro
##kovsky
pon
##iseman
str
##iểu
##agi
goia
kub
##olid
##toum
scu
squi
##ista
##iệm
mae
shuk
##haus
nich
salt
emil
##chaya
##mare
##tana
aleks
bori
##lkar
##uster
spin
monora
##gp
##gson
pou
##sco
##lba
mack
gluco
##nner
##bre
##toria
##ãi
##jen
tio
809
##ows
##sfield
##yber
requi
giz
ark
rj
##tanah
alumina
neu
##fair
okay
##bone
bent
##889
issa
##uzzi
##20141015
golo
##hamil
dee
##uha
cđvn
##aba
##kute
##gear
##genie
amer
vasil
##bell
prism
##sham
alon
region
##128
##phon
rid
uz
aeg
hallo
##ental
tips
##ndon
raz
tatsu
yul
##hằm
9733
liz
##appa
##erick
rate
duk
luck
grae
##vko
rev
937
barak
##ỏ
##vall
##gười
inte
##ousse
bette
##map
##mez
hug
##phong
##ứ
rota
every
vaz
libera
##wal
##8700
##xter
##lau
##dell
mec
aya
##budur
alva
##nano
è
##meshko
chal
ast
##now
##fp
bă
##ửa
gie
##hịt
##uồng
##ttv
##micro
webb
##phar
num
##battist
##logic
##landmark
##water
##color
##mrcc
abrah
##shed
##nghiep
##560
##petro
##corporate
##cũng
browse
nutrition
##armin
wad
##shimi
falluja
##abeco
egg
endorphin
application
probiotic
chronicle
elliot
##qap
setting
testosteron
continu
nicotin
##ertens
strange
authent
##rzego
##industry
acetaminophen
aerbin
alasania
alcatel
aristolochia
baltimore
bentegodi
bethesda
blosom
bonaventur
botox
califonia
caliphate
cantavil
caucasu
churchill
curiosity
divenko
ematrix
episode
esuhai
euphrates
exxonmobil
flegt
friedrich
gaultier
glacier
hamamatsu
heskey
hilfiger
hitchcock
holtby
ibuprofen
igorrote
intune
jamboo
juergen
juyp
keaton
kelbin
kohlschreiber
komoyedov
lavinia
libertadores
likhachev
lyashko
marzouk
memorial
millionaire
mogadishu
newcaslte
newyork
normcore
novorossia
overdose
pharbaco
phytochemical
pouyuen
punjab
qllđnn
rodrigues
rotobox
rubezh
saarc
samutr
schrader
sennheiser
seydou
seymour
sinkgraven
sparagna
strategi
sulawesi
sultan
szcz
tallinn
timberlake
triphero
tưlđtt
uttar
vallad
xiaojian
##suruga
apuaa
arcade
bahamas
bronstein
disable
francisci
hktg
hoult
jassm
maduro
nghẽo
pokhara
resident
serafin
warszawa
welcome
wellington
attack
carbonhydrate
fontaine
hippocampus
basurin
belluni
fastfood
feedback
madút
nakedbike
passpoint
##cleod
##tennikov
##varsson
cfab
justiz
rexach
comeback
ohchr
ubtwmttq
recamera
selimovi
davika
wilkins
cecina
kepler
talksport
archcaf
blackwater
champasa
graphit
luokan
apparel
pretty
tweed
aomori
hatoyama
static
steelers
02444
dreamliner
thinkpad
##lusive
biotin
polevo
ubtw
gilbert
should
giuộc
cyclamate
cspc
leeteuk
nothing
personal
abyad
argus
bulut
evstafi
holiday
gvcn
odyssey
marques
sulfate
gspb
juist
##mars
##tsova
##leide
samui
bonham
wagon
hanks
hisham
salahed
motorrad
indica
politico
petrotimes
hđtp
pavil
langbiang
nersi
jiyoung
touchpad
punk
investors
xhtd
rosario
thuwun
brighton
morand
mathew
##ravir
intima
frod
ibooks
gunny
zhong
huggi
froman
00123
ytn
onsen
espace
##cheng
fault
favi
##arnason
warriors
##onika
slimv
comscore
kfa
cellulose
kool
lđbđvn
echos
magnesi
trôn
alert
oris
dusit
subic
##ulife
exit
atala
insight
##veda
##58020
##memories
##gged
##ristina
sượng
boyle
vtf
gddr
bersa
rức
plây
marx
##sketch
hvx
huay
willie
zest
lumen
##face
yars
benq
##ities
bartel
tsmc
aesa
ocd
##avril
taboo
spur
##bard
##alinga
tender
agra
levo
##giang
bacca
alive
housi
vitalk
carand
mytv
slut
msi
ngkt
cdma
sciences
1897
aleksandra
đoảng
seleznev
1014
rười
tigers
mcs
2880
haac
gava
##testing
osv
##otto
novoa
ocs
gemma
susa
jingz
##uble
tanner
levy
ayu
##olly
milli
miki
##yas
1873
knot
fleur
souma
##iếc
##8253
archo
sém
2689
sks
##cvt
0908
felin
lover
1885
toto
diển
svd
hgv
##drc
kart
lado
##tru
búc
##bias
tnc
##ellini
##rder
creation
constantin
1889
ski
gcc
sue
##aplan
rivers
##kari
niki
reds
ihr
##eryn
##aldo
tnđ
2031
##het
##mole
kaza
881
lines
##241
cbu
##hov
angels
mém
idg
valli
##ocr
lose
coming
##orn
muc
nọt
##perform
##antep
inr
##dol
##jared
##aseline
karimov
##norr
##lđ
##ett
same
836
##hoi
ams
062
abdo
duck
748
##ftg
sse
##uang
##obel
##osis
##bate
juni
fuller
baum
irish
nero
nẫu
##sana
##cial
cos
louka
##pet
##rrell
##exel
sancti
connell
spd
vab
sche
heng
##rta
##oue
##insman
legia
imex
##sus
##olla
pura
##tiya
liar
##quy
clq
##nack
##gis
##chua
delf
nose
##tlđ
aleksandrov
megha
##ảo
##jev
##yban
dem
##witt
##179
kpa
strelk
specific
##arius
zay
##rzhan
##denfel
##008
##ires
kít
##gard
##ters
lis
tdc
dominik
##iall
cns
salga
treat
##main
##lux
##khz
8001
zon
##core
nil
##otani
##nskaya
##arup
sit
skv
##works
061014
mcke
##ndee
aina
0977
##ullo
gent
##cke
##công
##iers
##oãn
ari
##hose
##uoi
complet
##ortis
##rane
##vel
##yad
gur
ful
##cofa
qtc
##ying
cdl
##vizio
cmg
##zad
##agina
cro
##chel
francesc
hụ
rees
maki
suny
chopin
##ổng
brac
mpi
##evue
idv
##0124
##mcg
##ecs
##eiko
vere
##ão
kra
vố
##rok
##òn
##umina
##urault
##vmh
##eul
##đa
##118
##coding
lov
##tnđ
richmon
##rkin
##oklo
##xy
##ndle
##829
akp
##hue
cate
##tip
jais
philipin
##chip
##eon
kaab
##marsa
##izka
##3530
##488
trevi
jm
##esser
##huong
##erk
respe
##gee
##avon
slo
##390
prea
##jd
##dice
##anna
##ướng
##khov
cre
##arase
##dis
##old
champa
##ngle
johann
##kas
wax
mf
##sut
##cong
##mey
##gkt
saha
##aker
tbg
##pj
##ogue
schu
##10001
##wer
marsh
##eston
##scu
##nv
nikolay
##6469
odi
##agino
##amsu
bbb
rhodes
##arkhan
kolo
##skiy
eat
##arat
1872
wolve
sq
newmark
##inski
##azo
##hiy
##ites
nut
orienti
fati
schi
##úa
##gak
cuv
##bles
cove
##531
##190
iz
##abian
##dos
def
##sten
##ries
##3745
##elac
##180
##uchan
##036
##loan
##sek
##ốp
##ej
##rap
##arfa
##eun
##burner
osa
fre
raja
7200
##epub
##0412
arrow
plot
##izer
##vs
##ango
##fat
rib
##veta
##iser
##dj
##dus
##pac
##kka
##rak
cass
barco
##ould
##tomi
##asa
##erty
pentax
##lien
##todd
jacq
##zag
##nhanh
##òi
##tisport
##737
##ntuc
##lman
##sung
##osta
##venue
nyt
##chet
sven
huf
xla
suel
##sum
huý
bes
##isano
##itsky
jie
##ninh
##096
##laye
##háu
##kiw
##037
hdl
sier
##alaga
pucc
pati
liza
rand
##thay
##dang
renam
##ửng
##bridge
aure
vive
skor
bien
##tuk
##oehr
karn
proti
barie
kuro
covent
pcc
0964
##yday
##ushko
##build
##ứa
##quest
##đrinh
##therapy
##express
##hospital
##maidan
##active
##tháng
##bull
##htx
jona
##bien
##nguyễn
##để
##cock
omni
##6296
##vpn
##eana
##avigan
thừ
##ullen
##ascara
repo
##265
graphic
caledoni
current
photph
dora
##ennial
##inapa
##iso
filip
sebasti
atkins
ghpg
anniversar
phyllo
##vostok
admirabilis
antigua
aubameyang
azalea
bakhtov
balenciaga
balzaretti
basilisk
boomerang
botswana
burundi
capsaicin
caribê
chanteuse
chaplin
chastain
chepken
chilpancingo
computing
coquelin
dardanelle
diddy
doumbia
driving
error
ezzor
fiditour
fucoidan
geisler
gloucester
goryeo
haftar
heartbleed
herbalife
hohaia
instant
jakupovic
kavkaz
koenigsegg
kondrat
kowloon
lacazette
lasogga
legacy
maquillage
mccord
melquiades
mishtenur
mississippi
miyazaki
motorcycle
nairobi
narapat
nazarbayev
ncđt
nineveh
nltccn
nursultan
panigale
pierangelo
polanski
poodle
prebiotic
pudding
quarter
rehnborg
removal
reventon
rlđm
roobey
sakhalin
schembri
schwarzenegger
sextoy
shirakawa
skyfall
source
srebrenica
stryker
tattoo
thorbjo
vbqppl
vnsmallcap
vodianova
wallachia
westinghouse
xlnx
zeranol
zhelezn
đrít
đôrêmon
##ticomfortcontact
cascadeur
countdown
griffin
hristo
johannesburg
levski
minecraft
pklq
ricci
zdnet
zenui
avesta
dickens
gramoxone
hellfire
mcgraw
mikoyan
perpignan
piazon
aebf
distin
kagaya
michalak
pivon
rachid
xoàm
##vantai
domestic
essence
kdvt
ktkđclgd
kyrg
ponghwa
corneli
albion
riccard
breakaway
own
siwintour
virtualbox
wazza
athena
braxin
jankovic
schwarzer
tinitown
mortal
ramadan
watford
techmobile
##caglia
eastwood
nikko
##qvist
domino
igorot
bintang
ethan
searcy
netgear
autodaily
autoplay
palacio
figuer
htxnn
gripen
imperia
ahrar
haakon
abenomics
lideco
shilton
welch
godane
asgp
headey
airbrush
maritimebank
npvp
sgdck
zilina
96241
martín
##llup
truớc
nôịt
homesman
sideway
european
hanover
##izzard
viral
98896
broad
##rassic
sawyer
galleri
quebert
adirondacks
abuja
incredibles
gress
wired
cardio
kovack
mikas
joanne
khù
chevy
##tophan
mtcp
lntt
input
korot
##ót
parkview
shutter
tvsi
celica
90152
##akhil
##lim
stellar
mullet
nimr
aboud
coóng
viettelpost
majest
ruffinell
riyadh
axan
germany
paok
tocop
april
crab
catechin
ushakov
laneige
friendship
contents
buzza
voyager
caption
pcworld
dfat
salim
xtơ
##ssouf
protection
synthesi
tuoitre
##fleks
psar
##làm
cipo
ttvt
kondo
wss
bubble
nhẩy
indoor
ntts
badri
pune
stce
genco
##iarte
challengers
brien
suê
cbiz
rfid
sìn
cnvh
##correct
csto
zahid
lorent
velik
peer
bnn
khuyển
ltc
lazer
ctsc
sano
marid
visby
topping
riên
talal
ngòn
dafc
butyl
ebs
##tỷ
siren
build
vosco
qđndvn
mukh
zig
pín
dabin
tamez
isles
safr
căp
ươi
##onof
eunb
asio
usn
##aryl
pulse
3840
sộp
blah
chrom
atvm
witch
phieu
therapy
downloads
##bodhi
kenta
pila
odd
teck
941
udom
chămpa
togo
##abuza
baraz
taurin
hử
ottawa
unix
assa
tera
vọ
tokat
khuống
giro
##lander
area
keung
mmf
kuta
rặt
svr
##lj
##chang
1859
##gey
marion
sorry
pmu
##stead
geek
##126
manni
rubin
##lawe
lổn
benedi
arkad
dimitri
4710
boon
##đang
flin
swap
##ynos
viper
krak
##558
rfa
thòn
silica
dtt
nking
5120
ioc
##vinh
##nette
wander
landa
063
drt
##biya
nation
manly
sever
palme
wer
puls
1888
bht
catx
ada
##oji
whisk
##ciano
manzi
##beria
chaly
##sulai
duang
##ega
kule
zar
rent
gum
##ienna
flan
##omic
pinoc
oster
straus
##otis
dpi
micron
lois
corre
macy
cord
964
fredd
octan
ocala
satrafood
midcap
nhịt
##nadiy
##hopo
##tom
##lain
##059
micah
##mid
0988
##sade
##iko
##agones
plugin
histo
kad
##wang
##chung
##reb
##1985
##tvos
warm
##tag
##saloni
trum
942
##orola
tinian
eoy
norinc
fay
##689
puma
martina
##yun
##merce
shisha
tur
pcbl
##waco
##rno
##pore
##agor
bole
4600
sda
imc
##rich
ello
borg
dsca
hid
arse
##tang
##ders
opta
joli
liste
bir
##ugger
##ply
dahan
##schi
caps
##site
##lucker
##rel
kuo
gaya
##unika
##irst
##2013
xun
##irav
##dera
hook
antoni
##uốn
##jay
##elin
tek
##sadol
##arema
##afe
coal
##erie
zuma
mya
discou
ttb
moran
##rier
##oussa
ico
##mira
theory
stanisla
nip
wass
##yachi
##urat
dicki
##hận
tamc
##ifa
##arth
sass
piro
##olsen
whiteha
##ame
##oslav
##sald
schwar
##kran
3930
copp
##ches
##arles
haru
##àm
dray
##riam
lapi
gđt
##706
##dak
kawaba
##dge
##bev
quinto
##forr
##lkin
##301
pyo
##746
2800
drill
juno
##olic
chiara
##lé
surf
##borg
hou
sambi
sylv
juic
##ofi
pere
htm
##yelin
haw
##tori
rặn
##owl
nisha
0810140
niko
##xim
yongj
toshihi
##esa
##arra
##engue
archi
##tun
##sid
##geon
##hakim
##eat
3868
##690
##ết
ira
gyo
nhủi
##384
##uya
##ole
amge
dropp
##sling
labo
##guin
infant
##eille
count
0946
jal
spo
##kia
##lmes
##cquar
##lec
##sada
crt
##ory
pech
##afia
##oud
ngươ
##zho
##đsp
##lop
ballo
##ncs
##agawa
jer
0915
stocha
##miller
##ừ
##hướng
##aewoo
lange
##eee
dash
aye
vaoooo
##qs
##ilda
dòn
sere
wash
lua
##qlcl
italian
pun
cave
chô
tet
zf
##tian
##eful
##bie
##yaki
##dill
##lington
takashi
0944
##815
##ned
##omen
langele
vor
##697
##inning
##meco
##edina
komsomolsk
##vigno
##990
pae
##dance
##mz
##743
##loros
bobo
##eren
##rma
##alain
##tdk
salafi
##masco
##azar
##dirty
##570
ake
##056
gau
kami
##itation
sent
##anaka
anil
##yton
##thorn
##andara
##gani
views
##valier
dts
##caps
nanda
##plo
riv
##íet
##nq
alde
##ỏi
##127
##fx
##vong
technica
##shima
##hani
##frame
##ration
##6592
##tomat
##ướt
##andini
##vid
coen
lari
##030
techcom
##books
##quad
##quin
081014
kito
vuci
##boc
anand
##quet
##ớ
##kings
baron
##oby
##nawat
##776
toma
capri
##lmer
ganj
dzo
##eski
methyl
lủ
disco
cold
zl
swa
##lishi
##gitte
tmh
##nedy
pain
shet
##utin
foto
##sburg
â
sok
##fred
guang
chick
parti
##omosa
##arinc
##fram
##ằ
silic
cric
##ugol
##rdo
csv
##chỉ
##ruto
##shield
##password
##silver
##download
##design
##barcelona
##weekly
##series
##boot
##bakar
##jw
##studio
##click
##evic
##266
##preci
##virus
rươ
nú
##vê
wikstr
##eilon
hydra
##727
##sẽ
kade
##ọe
##ườn
##ilham
##nsei
peters
##speed
##awd
##lasma
vừ
##ousef
afif
warrior
maverick
bubb
mot
physic
##donado
xuâ
##scape
nizhn
gunner
rivald
mercur
##pyat
##evneliev
ginsen
nhaccuatui
speech
##czyk
accept
aldridge
anguilla
azarenka
bethune
bolívar
bootrom
britannia
cellphones
clctgt
cocacola
contimaxcontact
daglica
disturb
dreadnought
echevarr
eczema
efremov
ellagic
eurocopter
flamand
flannery
garuda
glonass
goemon
greaves
gremio
gtool
guantanamo
harrods
heidelberg
helicobacter
hermitage
illustrated
isarel
izvestia
jailbreak
jianguo
kalimullin
kamakura
katniss
kazakhtan
kevlar
khizhnichenko
kykhtenko
lôgic
mauritania
mcafee
montreux
mouteam
netherlands
ohlins
omaha
opportunit
orofluido
otesalycool
patrushev
pavlyuchenko
photography
plymouth
pritzker
prosper
ramdharry
revenge
riboflavin
riquelme
rotundin
scandinavia
shanmuga
sophocleous
squaw
stockhom
strepto
struff
săs
tempura
terrarium
tsutsugamushi
ttbtdtcđ
urmia
urumqi
vasquez
vehicle
vietrantour
vltava
xedapdien
zambales
zynga
96338
authority
compound
garnier
gfk
jesper
kvln
lantern
mineiro
miyazawa
northwestern
pennetta
pơmu
reykjav
tgdd
vietcapitalbank
yaourt
yorimoto
đđk
bestprice
cravat
cunning
doumer
ground
irfan
krugger
leopold
myamar
powder
quality
undelete
yasushi
burwell
chinsu
fleming
kamui
salahuddin
standby
workshop
bernstein
bulgary
economy
ludwig
okonek
poncho
antonette
aviationist
dyer
generate
graydon
nurember
qeada
quicktime
xoảng
đtcbl
masterpass
pulsar
sarafan
shebab
walsh
avarice
parolin
peleliu
tknl
uefi
ắcquy
changwoo
ipaq
whiteskin
apave
azhar
kulsoontornrut
petrochina
##ashvili
##daemun
##trophy
bronzer
pirates
acube
jitka
harbin
karenina
ghpgvn
sarmat
llama
bambi
nishioka
revpa
leiden
freeze
pveic
sounders
blanchet
gerashchenko
twain
aminah
varela
searight
vietsov
digest
stratus
ccvc
concern
dangcap
yantv
mcadam
arabiya
ideas
##cafe
baroque
ultrabook
leyen
rhino
catap
favier
redtour
riviera
benedictus
motorsport
hangook
watchkit
hanyang
nguẩy
carbine
crowd
elaine
mcbooks
jimmi
confessions
fargo
translate
gangster
merica
wheeler
stinger
bungari
editor
##ffield
gdmn
panther
gugg
etoile
centro
luther
banderas
léman
gotham
roàng
cueva
wasp
indone
sazal
parisien
church
##sior
seville
zeroing
hansson
mysql
taeyang
tucker
aptech
derki
##ồm
choiza
malone
question
naples
majesta
fift
mizo
peski
pdk
archos
sistan
catphcm
skss
council
tribun
hamza
snag
khanhhoa
xdrive
fsv
maasa
quạch
##khăm
cheshire
mahone
luxemburgo
shirok
morozova
bpce
sell
dulich
koran
##arrod
mứa
assets
alcon
phêrô
suckhoe
krona
phraya
yaroslav
mirale
ttbl
solberg
kazam
hawking
holder
windowsphone
symph
ritch
##gdor
lịa
compost
raquel
neul
segi
astori
miroslava
reader
libre
fhs
gadon
niger
timchenko
pump
##acne
masami
tarkhan
native
norton
products
gkn
records
dprr
messe
tró
jma
ptit
acker
##wf
miku
đhkt
tfl
prices
mst
csii
lanvin
indra
saadi
alô
thanks
bore
shariah
vfb
avc
glad
##laver
ndtv
rove
##section
locker
molni
thuơng
cuong
glk
##enji
battist
##nifer
nedo
dbs
##kieu
pesh
phảy
ridge
claus
scp
##isco
lawn
unibe
hhg
lilian
protid
vlf
asea
balsa
bibi
gyung
##ader
loop
1841
oto
1648
##ume
mnet
1886
##terasa
1114
beef
##oreste
1786
stretch
0919
dais
tsv
agostin
3936
midland
apr
##tto
4210
bony
hendri
sún
ddh
autonom
##emchenko
hamad
##587
##168
##lak
doris
1851
##117
mehme
almo
##ạng
##rights
tvp
##avone
##clid
biel
1299
##herry
fosu
##aue
1392
##eui
even
##cie
fce
##rider
riau
##igar
ounces
crime
##nhan
weber
gos
##831
shilo
##diya
##hawan
snoo
mtđt
polime
##rieg
##uraz
##muddin
##uwei
##loire
tbd
##arrier
##sjy
mga
0240
myo
hoocmo
leki
haifa
teakw
guine
0967
krone
##rrup
olympico
cộn
##xay
##fbr
##ojan
dans
strike
eki
2112
##himov
micromet
ifd
nataly
odo
leve
##olmar
suki
noa
gee
##970
sugi
moor
##uen
fla
cls
##sht
##new
##gye
mcb
##pine
##sseur
expedi
963
sort
##pra
rout
davi
firework
##lvn
4400
##ezel
ifra
##opping
pvf
bps
loren
1088
##odor
##ubov
##ngpao
balas
##iste
pms
##rard
##ừng
scar
##99999
csi
##nghi
##acci
##lang
##yatt
cea
##uij
sisd
##ausor
weil
iman
##ief
cct
##ohar
yip
##npt
##opus
xie
##cide
wx
heale
yorker
koy
##canh
##enmark
krista
htvc
geo
odin
sey
3820
3538
put
##zov
##tipo
huên
bron
zeng
canali
##tkt
##onnie
icb
##mons
nescaf
tj
khẹ
##dock
gpe
##seido
##ides
lgbti
##333
##zhu
dominican
btn
sé
passiona
mile
##enz
##other
##gler
jill
jardin
wit
##979
##nad
milla
##7200
valeria
redm
pil
##8668
##wen
##edge
jud
akita
##346
nhẹp
##tpho
vaooo
bjor
pam
##aid
##5433
cgm
##fg
calc
##aster
lế
##173
##gap
hđt
yard
schm
##nni
##hlđ
##ais
vander
alma
##ebol
dept
##960
ono
##aris
##lier
##ndra
thè
##date
0162
tren
##bos
##bois
tall
##fts
begu
##ộng
##gaba
##veral
##ingfield
nien
##ingol
lendl
##ịa
##sild
##tannin
levi
##abi
##tle
lazaro
##814
muse
##ssr
sor
belar
cctha
wet
wanna
##akhen
##nai
##edy
arri
nev
stox
mdm
stri
##hel
iri
addis
dre
skyla
penta
##mette
##ndom
ers
geme
##ock
nyu
##ulas
##det
##bett
##hol
##setta
glycol
giú
##inas
##mere
vande
parn
marri
colle
##dao
monas
##bhat
##nhofe
##orne
wies
##rar
csc
##ttah
##rowing
faber
##abank
##uci
##cine
##rdj
nuon
##yche
##raco
##naz
fila
##355
haruk
##tdn
mules
##đtnn
##alsa
##oto
choir
##aragon
##ggo
jaim
kaba
##eros
##ification
##201
##illancourt
vel
##plas
##hsi
lucian
mush
scro
##cid
medell
##zwan
glaze
##ogn
##tude
##put
##iest
##enga
zach
##ades
##fix
##ức
##1353
##ffy
traver
kras
##alika
##mou
##bras
##akul
granit
comple
tuo
phon
##arik
##pre
##gnac
##bv
avia
##kki
##akan
##ryu
shino
##mberto
##ustin
hachi
cyr
##popup
avast
astra
mog
antri
##loba
##anga
chand
nikolaev
##cost
vhgdt
peta
##urs
##cns
kum
##hama
rog
deve
##169
napa
##aboo
##vino
##937
morph
##ipa
##isha
volt
##gpq
canad
##ars
kdt
mandel
##mine
##thủ
##reju
wed
pur
gentlem
##nier
tonk
##afra
blow
raya
##goe
##zou
souk
reich
##wedge
huda
##gant
##013
##emez
wk
##erton
write
##sara
mariann
##453
##tạ
kiyo
constant
##tdp
##itta
##cnc
##crof
##5845
##yne
##page
##phaco
##dsen
##nish
##sein
##alow
##olli
theres
harri
##pos
##haq
4100
##lich
##ospi
##vphc
##cuong
##bread
##digital
##shock
##ajax
##trực
##triệu
##bql
##guide
##1536
##kindo
##enski
##west
##linda
##mount
##deal
##nôm
##dujar
##đến
##sync
thâ
##giao
##kyung
##ebola
corsa
##cdonald
##ermaelen
##phải
cosmetic
protect
guru
supersport
utilit
##cst
associate
hoạc
caribbe
htq
snyder
ultima
advertis
##drzej
##ndchen
##nleber
acapella
agbonlahor
aguilera
aiesec
akinfeev
alcohol
almasatfa
amiđan
anchorage
arpels
asefeh
asklepeio
bcđtnb
bebezov
bleacher
bolivar
bounce
brugge
buyannemekh
cafeauto
casablanca
cheerleading
chiaruzzi
client
cramblet
culpo
damien
ecstasy
emenike
ephesus
equator
eritrea
expendables
fingerprint
goliath
hiddleston
hilsenteger
ifixit
immortal
jadoo
kaurav
kendrick
kolchuga
konkuk
kranjcar
leauge
lesbian
libor
makarenko
mamacita
michelangelo
midnight
milwaukee
monaghan
montreuil
musketeers
myebank
neguesha
northampton
nuttall
olongapo
onenote
oxalic
pakhtunkhwa
pantheon
parfum
peugoet
pilkada
pimenova
pinsermsootsri
poppleton
productivity
rapnewsplus
rawlings
reduce
regency
reinhar
revlite
rianovosti
rooseveltorum
saemaul
saturday
sawajiri
shimamura
shirtdress
sidewinder
smyth
solitario
suffolk
takfiri
tatarskan
thilafushi
touchwiz
toxocara
transfermarkt
triangle
tsukuba
valderrama
viramax
washtub
watanabe
waterloo
weigmann
wigig
yoshitsune
zaharchenko
zambia
zumwalt
animation
arirang
canađa
chinook
goodluck
grigio
izzo
katsuei
liguria
lovato
luneng
paranorma
prednisolon
transavia
westfalen
brincidofovir
bruges
courier
dhdcd
hakkari
insert
klimov
letizi
patipan
plantation
plutonium
popular
svetl
unisex
woznia
yesudas
yourself
csqlhc
kerala
longines
nagasawa
siriphala
##thbtgth
blackpool
bussines
eemc
examiner
firth
itaewon
lmlm
metersacker
perkins
pregn
twinpower
jeremain
aachen
rubela
silverado
whoopi
chopper
hendrick
jaccar
lacoon
welsh
3722755
fastback
npd
bebeto
silverstone
ayaka
competition
unicom
##bhumi
##rabag
installation
caspian
shoppes
weisler
internation
silence
đhbk
scotia
##rinthia
activity
bluecontrol
effect
dnepropetrovsk
soleil
##rasmus
charter
gillette
ohrid
tartar
bradshaw
breit
course
tomovic
exorcist
keylogger
burges
orban
bôxít
postcard
##ów
insearch
rusal
vazquez
##tinbank
odisha
nemec
đvhd
cesaris
fillet
bretton
fluor
adblock
ttbyt
toffees
vietpay
kamal
mivec
uscom
evolo
wfp
sifs
hilux
timemart
##stige
cruse
natale
twente
novorossiya
tonight
titov
calla
hryvnia
luxy
vinahouse
iaas
##lrich
saturn
xjr
vogt
offset
tsgtks
genting
##ssance
eaec
iwao
thorne
aswan
autocar
streaming
walnut
##erratt
chubby
nhoẹt
vmu
shinichi
##ersk
shapiro
shitte
csvc
kantar
vestergaa
gwang
esom
chặp
mirkan
malachi
banknet
wizard
diabet
##ryati
clearr
wipo
ktttx
stent
dogg
caldwell
cadena
round
kherson
kathrin
lụn
xiaoyan
vlift
sure
survey
processor
poit
renato
##sourc
utility
lủn
fyr
##arnett
numan
spira
kiem
shiva
booking
##rzani
grassi
lauder
unpin
jackman
jese
tapah
##livec
khalil
ngocha
cummin
marvell
jcb
emdoor
cervante
touchpa
moments
hamzah
aoki
ksb
sụa
eliza
giộc
nttt
dantes
shrink
##ancun
toyo
alone
bjp
barthe
bolden
nyne
0976
hoffman
constell
##krupp
dưởng
stea
kievsky
golu
##eliard
venti
senge
##dhea
wct
abba
##trip
lorio
leanne
slot
nitrosamine
vatel
chery
hoek
##smith
sanma
##foodtech
##mento
imico
##phyll
iaf
efe
galil
visual
cfr
jema
lute
##morrow
mapp
andujar
onr
going
##olof
##niko
houthis
khạo
inulin
naval
##pmu
sgx
##buchi
chàn
karat
##central
tccs
austria
tzu
viera
vntm
5175
##odile
other
neocl
đrinh
alberta
cowell
healthy
##guet
##rolli
slavi
zoh
##enheim
đăkr
##awati
ksc
lula
andree
##anning
dóc
##vantage
tuoi
hater
skip
itu
plant
oshima
charon
ivf
##136
7018
terre
cpl
ww
pond
##849
glam
cecil
pari
##habane
ccl
pếch
##atoo
mamma
nikolaychu
##yria
hellen
canton
luong
##break
dir
ganda
##gou
xls
##itric
##fico
##avelli
unhc
cnđ
ngươì
##người
1853
##fin
birth
##hrc
gallag
1882
##bati
finch
##nationalinterest
##kley
lbe
nhơm
raqa
vacanc
1866
albani
pray
##recki
##420
wr
##alto
pdr
kyi
##eym
##unction
##rant
ankit
1816
##giai
##477
##ace
neto
##enner
##ikin
##rốp
anode
##51020
txt
toky
tìn
nuri
mohan
moth
michaels
##eness
ferri
nsh
##azul
aqi
##nut
morphin
##ency
pastor
savic
vnmb
##iggs
smallcap
##aymer
ass
##hut
##nafood
##oa
nmt
1160
##177
yj
##wire
##sata
##sec
##366
##rawe
##gil
isle
##eba
##cera
05113
##sato
cqt
##afb
##arys
1398
0965
##uchy
6400
##apo
##assbook
doll
frac
##rbe
##zhn
##multan
daly
tnd
maxima
xộ
##awad
##stow
##fd
found
##404
##force
0978
##nobu
##iểng
##ddn
##njw
1064
##mado
##asinski
##sie
##nds
##evante
pine
##pice
arabi
mản
##itting
gma
##8960
##ttp
##ôm
sylvi
2101
##diamonds
##hme
tsp
##279
##tcns
ttx
liposo
shut
3800
rna
##ốn
ital
##oge
damb
##oat
revo
zul
##waii
nazr
romul
##rwa
##evine
miyak
##hane
kristo
hadd
##hammar
##dane
##utum
##lomo
voro
##leski
guba
##409
sena
##tris
##bmp
janis
##hair
##medusa
##dator
nove
0754
knu
##nak
##6582
norwa
##51010
##sani
fes
indo
xẻn
1810
cqc
anpha
1202
##vez
##qw
##race
##758
##997
##pes
##ongdae
##katerina
isr
##wase
glucoz
##hys
##041
##ugo
barri
##iqa
##chf
tit
diaw
christa
satan
##omiya
##ntra
##805
##aegu
##stoni
##mí
3835
arno
too
##ermann
wilt
##9785
##174
##uven
akra
##pusan
0907
lụ
aber
sud
vsh
zan
##aceae
jd
0948
##arvin
optic
duff
##gley
auditor
##hàng
##lights
nui
brc
##oft
acetat
suzi
##hùy
luan
pdi
##ryna
yann
pell
##away
##615
##ytd
2300
##jc
garc
digo
##ftb
##store
valen
##attana
1250
##sher
##242
##ossum
##tria
##ệm
18001
##eyar
mercer
zerot
##naky
##hore
1054
##rito
flu
##nster
zai
##puy
khaki
##tot
anni
##lands
##ptd
##ylor
herb
pau
angi
##erba
eck
akdo
##rthrop
genk
##internal
##axis
terri
furstenb
##soo
##494
##vec
balan
##443
cros
##chun
##ansur
polyme
901
basso
sj
##uốt
##mund
lund
fres
nour
deb
##garo
##igal
##ikon
cadil
sov
##bid
mes
marko
phenol
##ories
miso
##real
##tate
nari
##xan
meria
##uyet
##esse
##wyn
##bđ
mikh
##vv
##470
glyco
##rayer
dộ
##ege
graff
##arden
##evo
unod
##nska
sala
##elena
##leen
##wip
##assen
nexi
##acus
ump
##kido
##huỳnh
##iere
wilm
##080
##saa
##rose
##120
##osic
pix
clash
##vov
hama
##tiana
nov
kana
scha
##aire
gamble
##hcd
fala
alp
##campos
##365
alta
##mata
##asim
##onyak
779
sava
kubo
##barca
sila
##lake
hern
punch
gls
##where
gra
##2010
##ghal
bik
saad
cstn
##qué
##sua
##aew
wale
##bulletin
pear
inge
guar
##376
##atus
1008
llan
babe
korne
##tien
##itter
leto
rep
bren
jeremi
harr
ryun
##muses
aba
017
##saf
##007
##stadt
shorte
##dsl
less
##rnb
##esco
##sace
##8918
catch
##woo
strati
##51030
##oser
##wk
##yona
##ekbe
##ichkov
##kul
charle
##828
893
##rada
4500
sanders
##rmby
##daman
##atv
##incy
##thuong
pel
##undo
##uth
##heree
##kani
##selu
nate
blo
pif
kuk
##vui
insu
springs
pj
##best
##175
nss
phỏ
##anzo
##marni
##part
sề
##0939
##ghar
aegi
vaca
##dical
inova
batu
##khan
##koda
##comms
publish
##trade
##pharm
ats
gott
manufactur
##elak
##theo
##grif
##ollis
##ihor
##inosa
modul
draw
peet
##rosan
##jabal
##health
##capital
##berkut
##shift
##shep
##export
##silicon
##anywhere
##chính
##hotel
##milk
##images
##yoga
##trần
otr
##avong
##hashi
##401
patt
##lection
torre
sđk
##ẩ
gert
hawai
##qiu
foxnew
##dyakov
sten
pow
giớ
char
##court
##coast
bohemia
##fly
southwest
yaku
##chinh
verde
cerv
kremli
trũ
##hoff
##ybl
##logne
dừ
##kwh
artemi
barclay
communication
compo
##ishida
mandala
histamin
tetracyclin
##intosh
##toile
##onic
detail
present
sister
baptista
##fww
autothysis
sigurd
tenerif
2309140
brilliant
catalog
egypt
etylen
hurriyet
integrat
##nakhet
##zadeh
22199199
39721334
aacsb
acapulco
acetaldehyd
aguinaldo
aldrin
amphipolis
aquafina
asamoah
axelrod
baodientu
beckenbauer
beckinsale
benfold
bezjak
bucharest
businessinsider
camphuchia
caravisio
carmustine
casadesus
celebrity
chihuahua
chiriches
cinematheque
comerford
constructi
contrast
cátsê
daredevil
eskimo
ezzour
fellowship
fluoroquinolone
galacticos
groningen
gyeyang
gyllenhaal
hasselblad
helpouts
hermione
hobeika
hoolahan
housewives
hundred
hyderabad
idevice
internacional
kalimantan
kenseth
keratin
kidsmix
klitschko
kolomoisky
kukkiwon
lachapelle
lannister
lonely
massdrop
maylaysia
measure
millwall
nintendo
oort
pachinko
panganiban
phịu
provence
ramadhany
register
resveratrol
robitille
romarinho
rutland
saigonlimo
salahudin
saldana
samuelrocks
schaefer
schepmans
silvestr
simushir
skyteam
slashgear
slices
southamton
spreadsheet
srinagar
staffordshire
sugden
surround
tarragona
tazania
throttle
tokugawa
tsegolko
tuxedo
uchida
unfriend
uninstall
versailles
vntennis
vujicic
warehouse
aksyonov
alpbach
atelier
audemars
bedding
cancel
dalvik
dashboard
dealogic
fbnc
gladstone
glucan
goolge
hcgc
kiễng
niagara
nydailynews
prototype
restart
ribbon
ryutaro
sịt
telefoot
vallecas
valérie
backdoor
federal
fiberhome
gwangju
kudat
lastpass
marketplace
mocking
mujahid
myeongdong
oliveira
pistol
resolution
singgapore
sorbon
spotify
strizh
vinafruit
##tthaya
lucern
overmars
pomina
ponzi
salih
syncios
ulyukaev
vinacafé
wikimedia
buddies
castillo
condé
kookmin
livanov
thoitrang
zakaria
zawahiri
babacar
chloride
demodex
dodig
hedges
kalachi
kinetic
purse
staphylococcus
tarzan
zhouzhou
analysis
gurion
kearney
nyzhn
tongil
viktorovn
cavill
getfit
mallory
thauvin
##truct
paccar
wfaa
##shnik
gaulle
greiner
##olatum
bianca
pilot
tpcđ
merge
sendai
egat
sniper
melwood
exomars
tikker
giêsu
clasie
parcel
accent
finish
automatic
marciano
winkel
drug
stallon
lhuillier
##lysis
tendu
damtv
cbvc
tokushima
cardington
actor
steff
chanchu
scene
teacher
evoque
josephine
goòng
ulyuka
allende
##keq
##futbol
nuớc
microgram
mirrorless
midway
soldier
smđh
greenwood
hodge
bottic
daytona
retino
##nthia
hotdeal
##utrap
hbso
promes
scj
guild
sxtm
oppa
allow
guilla
ryota
tơí
genetics
eveline
passerel
bundes
noodles
orchi
kopek
chamale
##nchine
ventura
kapoo
continue
steal
trằm
epos
théo
hanoitv
debaltsevo
lttp
cosmetics
tolst
cirp
##atsushi
oxygen
hegel
wallet
##itlin
gamepad
clone
##ksin
deok
cncf
bvdp
golan
##exad
setup
hadid
phthalates
elisa
ponte
##optimize
critic
article
begin
guest
hđcm
montb
tvgs
brigde
cnsk
instyle
##nhak
tenis
jef
wynn
ashar
sheets
toppy
##akkarin
started
ltte
iora
merlin
##tsugu
telco
orio
premiership
perse
##ecitabin
kohl
denise
zeitung
dixon
lenno
peek
nốp
espres
nickel
dniep
đụp
bakkal
dvor
tccb
mebi
swear
eurocom
vietnamese
label
##icken
mayeur
3925
taisha
ronin
yuji
vọn
inqui
klinh
##lele
spacex
breaking
udai
clé
lđvn
ronnie
dawei
championships
limon
eez
zắc
trieu
iốt
harp
tuồi
wissa
whole
meat
ylc
kory
zafi
yeok
lovers
dahua
akon
mountains
heine
maidana
comics
noise
simson
rotor
gaap
steak
dacia
rhein
##trage
5116
tuếch
##ciali
sdđ
oldman
redz
xone
smic
renzo
sobek
ndtc
dimas
malay
##ratis
avm
##bler
3996
##dept
##hari
poon
##toff
dút
essen
xta
latt
##elu
bachu
blanchardi
muza
icu
ruto
##edral
somers
chapo
##rasov
rumor
qiu
##iiji
ame
##nskoy
##femi
verhe
flow
##gtks
##rét
thammy
talay
dcim
nason
kanu
9210
##essey
laver
##miya
1875
dsg
##itrate
ytc
fool
##xion
##aziri
builder
##noma
socket
shou
##borough
dar
vieng
1691
vece
ctcm
connie
cision
celeb
fixie
smei
##466
##tine
##verdi
1349
nade
artist
tart
cuda
nobu
nilong
lacto
##promb
##sjd
kdh
ships
##annone
##quila
vơí
##arken
##ugat
yum
utc
vvf
1776
coninco
##51040
##uren
tuv
abdu
##urge
quino
##usta
hansi
##rling
1835
cards
##erken
emme
1892
loss
theta
##739
##bean
1435
score
##urimi
##stella
##irin
1831
hean
katharin
1903
##earn
vers
##339
2026
##roid
ngồ
primer
ploy
lub
witt
##ooge
##ieve
##kill
pvv
##ink
##ươc
walls
##grow
##mko
shuai
##tsuri
##meone
puri
zr
nuýp
##tenberg
##allshare
cassin
xht
lvn
cuban
mỷ
hayek
eile
nielse
##541
##aroslav
baraka
##itou
tincom
rye
##chuk
symon
##osti
##kat
##gian
##rơ
audience
nad
##pic
##muhamed
gyur
cow
##hem
##overs
chart
##doc
##611
##pere
##khoa
belt
##aras
##ladi
##evsky
##reference
transco
corn
2750
##rino
1860
##bctc
##hawk
2024
pontia
noun
cort
##esman
##low
##hồ
##tato
ute
lươ
##fsc
limit
##xtan
halal
##itis
##lacio
##rials
nả
##gps
cie
xiuw
##udrin
4800
olympics
##rè
poo
geoff
smt
##sto
scher
##serve
duoc
##sville
##ianis
##emie
desmo
##mod
tbnh
rỉa
bala
##namoto
##nblue
##olter
kup
sdf
##illie
deca
amalfi
##yển
##arrows
burea
lower
##pple
biể
hipp
##183
ramon
##itoria
teleno
agu
##ations
erich
##hop
camen
##maria
tunici
##omor
arb
##harmer
2247
##ried
##ervin
fourni
##fur
##ouvert
thumb
til
3600
schum
pga
pui
##skin
##phenyl
##illon
##eef
##buri
##eller
##enca
pcs
mayor
jablo
novel
arian
jea
pcg
coney
##airplay
##rest
fp
##tkd
##2738
##431
##puchia
jole
##stha
##agno
##ebo
##ors
panga
##foco
##rki
ici
##but
##roll
##erem
sis
pama
##eed
##cik
crossfi
##018
##app
##epco
##162
albums
pula
##akazu
##ugar
##kek
2110
##riq
pito
magnet
dorse
##owie
picc
fabr
##trees
##tchenko
##tika
legola
punt
syra
suz
##amani
##giá
cacb
lamp
##ursul
##rsat
##ijn
vecchi
##otki
##urke
hass
##roli
ipa
##ổn
heal
agi
##pop
matus
grann
##lom
irp
##atov
lasse
##tuner
##ledge
vpl
##rov
##zil
##ordan
dino
schenke
banco
##cph
##ernas
delur
##fco
##uyou
karan
##yanov
morsh
##iku
suc
paro
##vince
jl
##rber
avr
##senko
benin
##ợi
mms
##covered
##yul
##tix
##603
##rlin
gagarin
##akya
##tey
##was
fos
##wings
zane
##rws
##eith
##algar
##876
##lberg
dirt
##6610
##gorov
0982
##nhà
vkst
##12170
yor
##dae
pod
##tsy
teles
##acie
##ranger
##lope
sớ
##sides
navar
##nkt
##311
##dinh
##ffle
##dw
bhar
##sdf
##anta
##opmart
##poli
##cars
##arcy
##effy
##hyang
##recht
##rofi
usm
##asham
##lger
só
##ansky
##nking
##feld
nazar
##inate
##shad
gsp
##cworld
##wave
##voye
sadd
brenn
##tgt
##ganov
##eads
##call
##eden
esta
##ính
##hộ
##dil
mulla
##cious
##wise
such
jes
shiman
##ente
garfiel
##js
##854
desi
961
qlhc
##cee
##20201
##2117
raas
##lez
fac
##dazi
##rsey
##oline
##2293
##itus
##305
##reut
##huan
##ipl
##azer
lions
##stry
pardo
##ernan
##pmc
zw
pes
gurg
##ential
geli
##suri
jesso
##rella
##bart
##peg
guil
nw
##oyama
embra
gobi
aq
##aze
wilde
savan
3827
miya
indis
##halil
lew
mcgo
##rbil
##acquar
##790
tik
##alta
maira
fate
nair
##dien
##aml
cert
##622
oliv
cenc
1166
##áp
brun
##ộm
##244
##sed
##lad
##0499
##machi
##ube
mamo
acg
##pler
0963
bogo
saran
kst
##vol
##lova
##231
##avr
siva
##remon
0975
##269
##anci
##kq
lowe
gans
alv
##deco
iwa
mck
##endra
bingo
##bong
##dney
adeno
##omber
##hud
##cô
##oso
bunche
kuma
##anl
##548
tow
##sire
##egar
falcone
jorg
mend
##rris
viets
amen
altern
amt
shamb
neuro
##klass
##radio
stud
univers
baoxa
yomi
paloma
##954
hayat
bish
##otov
##imogen
xf
##9333
##buk
risk
##droid
kirov
##isand
happen
##760
translat
##ugg
iac
malin
##anza
##chr
kri
paton
##785
##nok
##671
crim
fear
swee
##ramar
##1160
##238
arn
##fka
##tkov
##ặn
fernand
##edaily
##lanx
##epa
##cpo
minimal
##inter
##ldan
##ayuth
##edmont
ethyl
##530
993
guillem
##qsc
##1674
##tron
##egfr
##cxin
##kur
##mera
##ewon
##some
##trường
##ựa
##ượng
campo
defo
##stadio
##urgo
jaya
louk
scs
##lift
##clic
##oxte
##nista
##pillar
##ặ
##belgium
##motion
##script
##ctad
##joli
##wealth
vpa
##qsdđ
##science
##school
##cookies
##cùng
##phút
##chủ
##trở
##zăng
##north
##phuong
##sharp
##hammer
##just
##self
##chóc
##web
##thông
slides
##lyuk
##street
##490
##front
##eastern
##henge
##zhig
##sure
đứ
astor
##rtier
##athina
robb
##agan
abdulla
##ercon
##lmaz
##ntier
problem
manucian
tienphongbook
thẳn
bronco
merli
discover
##omics
chamber
singapor
##kyeo
advance
flea
##roduction
hardin
##prazol
inverte
##emake
arro
grove
kpi
##venpick
##rttemberg
individual
populus
sihanouk
##141606
##38387908
##rzecz
##shnoye
##ulcea
abdollah
adress
airbnb
anfiled
answer
argentia
arkamys
attenborough
augment
barauni
barcenola
bellamoda
betalactam
bilirubin
bleep
borussen
byrne
capsule
cardinals
catsashop
chlamydia
choudhary
chronometer
chungcheongnam
cisneros
cuillin
doggett
dolittle
dostoyevsky
dresden
ekrima
everglades
executi
flaunt
forsyth
furbini
galaticos
gelsenkirchen
ghosh
grivna
guadal
générale
haarmann
hallstatt
hijra
hudeida
hđxk
iedv
instapaper
januzai
karbala
kijiner
klintsevich
kobenhavn
kramaric
krinka
ksttx
kulesza
lambada
lindegaard
lisichansk
magazz
matxcova
meridien
mikael
modified
moncada
moncler
motthegioi
mozzarella
nenamark
niederer
nitinol
ontario
passwordspro
piranha
pittsburgh
plescheevo
portsmouth
ptolemy
pắk
rapunzel
saigonacademy
salvio
seedorf
skechers
snodgrass
sogyeokdong
steklov
stromsgodset
suharto
superhero
tahrir
tamguong
taunggyi
tcktmt
thracia
thumbnail
toluene
twigs
urinboev
valverde
vedomosti
vetulicolian
viceroy
vishnu
wahishi
xdctgt
xuanlienensis
yarkand
yazuya
zeaxat
zirco
đcttnb
đoraemon
đpcc
buzzfeed
decktop
directory
frequen
hasimi
idlib
kawashima
leningrad
marchesa
nĩa
qarabag
scholar
sudico
tarantino
threat
thuât
vangioni
writebol
addict
arginin
chaudhury
console
dokdo
kitamura
palladium
pyjama
remember
sepang
stonehenge
thalasse
youssef
automotive
catholic
chukchi
crayon
eccles
haufo
hermini
magnani
svnb
vinacommodities
apatit
kliris
method
shaugh
thread
warrant
##toancau
blitz
caravat
flipboard
fluke
integration
samatha
twinkle
wurttemberg
##weiler
cassandra
efast
torkunov
intimex
irwin
latif
levant
madeira
renaissance
sweden
broadcast
flycam
gurpeg
islamiya
movenpick
stripper
woodall
dzô
mehdi
mykola
novatek
apiwan
dohuk
suleiman
kristian
pratib
qinglian
uniqlo
extended
wunderli
##mvit
snyderman
##ization
ljaji
progressiv
##usuf
avdi
keypad
asiamoney
chanakul
replica
tigre
webtretho
sharvin
ecotec
imagin
usmanov
##thudo
##zante
marcelino
pedal
lubkivsky
petronas
poldi
venture
hemis
##imberley
davenpor
shekel
softbank
##yagin
norris
holland
speedster
yokota
oswald
15189
kikat
legendre
nanett
akidi
nurse
gordey
hcpt
pvoil
brasilia
alexandria
avaya
goldstein
isaacson
perdu
acwc
wonjin
batur
smurf
patton
cowboys
sinpo
bowen
maopi
mnb
dopamine
lifan
bradford
alpes
amico
buddha
nyse
wilhelm
##5024
01686
bleri
healer
##lamini
magna
sivo
finanz
##signa
yeti
hariri
##chester
tetracycline
##oppelk
caribean
herz
cscl
eeas
enso
240914
kaito
bengal
##assar
decor
bibao
ibai
rubik
vxb
##netia
tiver
gfx
myleen
nomura
wiliam
##inuum
sportster
thaiexpress
siripa
tienphongbooks
##kout
surrey
diouf
bored
gsht
ince
##cures
hidden
tahiti
peza
##eidel
kodo
minicare
ippc
persian
##ryll
mailbox
wilder
iworm
obon
jaina
bcra
nzd
ispace
oversized
caledonia
rhyt
gather
bologn
irak
krug
horns
hamster
hexa
##doulou
tophit
supar
xedap
observer
mugu
vicoston
lefa
chuôn
ictv
iihs
ipcc
urals
rịt
##europe
dqs
arco
paas
dekal
swire
oặt
emission
epic
xlô
kyats
pulis
exclusive
menez
mardini
rolf
vinata
magician
auge
sugia
axe
##aptx
nappa
brahm
vdse
##gnar
susu
0906
hutch
araga
methane
cstc
vự
propyl
evolution
doisong
coconut
ptnn
##akhs
nhữn
dúng
saponin
##tenham
casade
portal
9467
jtv
carbs
keano
jolli
laze
dinco
otp
ttmt
chaffe
suwan
phiểu
goay
##cls
mosel
##dog
muachung
olympias
gardener
##ykan
tfp
mêtan
tampa
pía
kanto
apq
wvga
thé
carney
maq
yori
kawasa
dlna
ttkn
##denko
voss
mmhg
shields
foxx
veil
##aust
places
daibi
belgium
vdl
##slow
zola
zene
lyric
thurman
wikstro
##elip
spad
##pira
sunan
serang
fso
gallo
giaoduc
soros
bock
ftc
luhanske
ugg
sude
timber
kola
##jid
##illingham
veer
##181
alya
##iras
##dermot
isee
barrier
borton
vpc
knk
reel
isoflavone
smartc
##qb
1843
anywhere
##oped
truyến
##xop
grossman
##rdp
celle
maybel
##jing
saff
wareh
##rbit
latex
##1984
semen
galli
mesa
mwc
##osp
mdc
##etter
enda
fj
kec
hind
bones
hoff
himalayas
lamar
edmon
amr
saleh
1881
##chew
constr
nemo
kye
##alague
##orchard
5449
noto
traffic
aviva
##mbare
evgeni
##iese
1871
radi
rough
riel
##dek
dbf
std
neuron
groi
##ennes
refa
dictat
##emura
aac
estrad
##uds
toei
##iuma
##guardia
embol
##cules
##00138
follower
##ostas
##lsh
package
pieter
##hasa
##liday
vidin
##matter
iec
hotan
##chand
##tô
schwab
aly
mullin
##phabet
aam
lousi
crs
##obeik
cima
##ollie
hatta
soap
##kind
narsi
ags
##errazz
##044
##aptic
##ntiac
1846
##694
##szt
##caf
##bayev
##umble
##reche
wise
nhán
yubi
##orka
##chit
ầ
caff
##143
vex
maris
##1280
##rieng
jain
lesson
doom
bvr
2027
##lans
##tj
##appening
##luat
flak
earl
##erent
desai
shiv
##324
counter
merry
##báo
mosu
##dhi
##zard
musli
##msey
yanke
bept
##055
1504
grund
hako
anova
kleine
cock
##ebel
##sterol
##spets
##ragos
##igova
##othar
lido
toas
fry
1529
##ombe
minute
##harov
andri
##lala
##trang
tgv
7400
petti
##kie
##ecco
##gger
yamal
mcgill
0910140
culi
##2275
ville
henrik
##jama
9663
beautif
moshe
organize
##angarh
mozi
##marine
coso
##awa
##cdt
##igu
osmo
eis
##ọn
sued
##ldar
dnvn
chey
##egi
##807
hocmo
##irt
gema
kanj
scc
mifa
6005
##raya
yata
poole
mca
choẹt
nms
##astana
##agas
##tea
zina
##hetta
##untit
bul
##687
##ours
gaul
##anovich
mare
zer
##otes
##0285
220914
3823
khal
##rue
##orie
##dev
##yase
muha
compa
gso
##usti
nò
##buck
kern
##erence
1010140
qlt
##215
##1126
minus
##458
##rious
farha
parent
##risha
##cpc
##iata
##later
kía
lieu
##shaq
##spica
jianli
##kor
##ksndtc
##lette
##hyl
##emin
##meron
trip
##ecki
##avia
##carino
arf
jil
epi
##cout
##wot
##nky
##vbp
##dore
jur
##hdl
##viz
##608
alti
zuc
##funding
##codon
##suwon
##eff
##adiz
desmod
borr
denke
##publi
##von
peres
adal
5200
kalma
term
##phô
##sachsen
##kal
##fdd
##sless
##ondo
##neck
##tmc
##inichi
##tsc
##8389
##lton
molecul
crow
##naldo
##akar
opti
##stro
wolver
##aled
3943
aime
pior
##mum
yog
##stair
##0832
##ldv
##etzel
holy
##asdi
hđk
0241
##cung
##peru
##olod
poll
avo
##guang
##hold
##105
##stasia
##oir
##2840
##ayev
amado
##rond
##ontin
hasbro
##liya
##tenko
##market
##pact
##xing
fris
##anny
##eeping
0437
##yuga
##user
##kny
##sons
##afta
##nol
##shar
marj
##phia
rothe
gop
vital
##oẹt
clos
masse
##shiro
ướ
pip
##ogni
prem
ôxi
##ath
vale
##sano
pente
##obero
countr
agree
##archi
shere
chels
##stall
##yin
##usma
##tà
rahm
atti
##herin
trumpet
##nica
##boni
##efa
farra
##aomat
##zind
shoe
##svk
bư
##802
##zopo
taki
##ropod
winni
##stc
##369
##shya
##zhda
##neer
##670
##wagen
##salman
mott
chuk
##llette
leno
0862
##sand
##tba
##liber
amma
khar
trud
##xen
cheap
##nzok
##iler
##ulov
##ital
##ames
##256
##zda
##oking
##slin
pase
##atos
##769
gale
##arrison
##enger
##lanh
##395
barre
kiế
panto
ún
##everage
##3300
mew
accessori
##21040
##urin
paw
##609
##ssler
##derli
##imoth
kriv
##553
##6300
syme
##dick
##eating
##ườ
##uhm
##588
severi
kso
##glyceri
indie
##ofa
##129
##381
cambo
biet
juice
##elen
##ovsk
##kuri
sander
##unde
mysti
##zhan
eriko
##bill
##vox
rosari
##harf
arne
##anine
##trak
huff
##rash
garri
##962
##0364
kada
moms
fei
##ợng
near
##ives
hdp
6499
##essen
##wipe
##ovka
0125
##éo
mute
bola
##pana
hashim
##fda
##gius
stee
zell
##lary
##ttm
faill
##ksh
##665
##leed
tlc
##dame
##lave
##inke
asimo
tes
7868
##atix
##ander
cott
##số
annan
##nbauer
bont
##nhang
grom
##gag
##nbe
##iyan
##abe
sup
##orto
nakag
##eres
##497
gonzale
jaka
##688
2220
zd
rẹ
##ebanking
multiro
##aboul
##lfe
lysin
yos
##ltt
##hide
##abul
till
##kuda
##mming
##goda
##hyr
msf
##aecom
##doku
##gai
##igna
nns
##352
##cdl
##enb
##nade
##sala
petri
bios
ewan
##laar
0985
##kker
geel
##noz
##rates
##gella
##try
michell
##tsuka
buck
##ocell
##mom
##40301
##teco
9191
5300
##387
##hion
kona
##rutin
##uyễn
##zal
##ticia
##ổ
##oita
##como
##2057
accor
##duong
##litvi
##inkel
##hala
saver
##zman
##ẽo
##pek
ă
##ntian
##ouch
##sheng
helens
##ending
##ucks
##anot
jele
##huyn
##vx
dram
##jamaa
agen
coman
##stre
##iev
##mya
finn
##ipm
##aldi
##wol
##095
##vkov
mussa
simul
fli
##bcnews
##erea
coppe
##eux
##evis
##tnet
##yron
##nina
nek
lesl
##hỗ
##pton
##estre
6664
merk
##ssot
mort
##ippo
dgc
hend
##enkov
##ushu
kalla
yap
shimaz
##gpp
kurti
1547
lichte
0069
pool
##weir
otv
stephens
##seong
held
astera
##loved
lynn
cobb
##ilde
##jak
wav
##req
##liga
##euve
##atl
##yuk
##aids
##astia
##omita
zve
rouss
##tank
##ntil
bacu
##utat
9988
##ukawa
massim
##olu
##201410
faces
##nuoc
lean
##884
##kir
##lde
tena
##0055
##word
##music
##arola
##iage
kyou
ease
##gtvt
##harith
6253
##study
chọ
##mmhg
##charat
##moor
##jfk
##jalal
##consult
ươ
##invest
##lagos
##universe
##volta
##gallery
##krishna
##video
##xwb
##camera
##focus
##google
##free
##turbo
##wolf
##paper
##korea
##origin
##boiz
##quốc
gugi
##arbud
##cahn
##national
##hleo
##plant
koya
##greg
nvi
##8899
##bond
centra
##xuan
##demire
##rbat
trỗ
##micron
cuô
parlo
##laug
##beat
##riven
##alcoa
##xanh
##789
##gsx
##kiri
##liffe
cess
abramovic
brew
##778
##hatsu
stou
ventur
scot
doughnut
##732
iglesia
hawthorn
busquet
katsu
behr
##ihoo
##villand
##porar
blaze
##những
methamphetamin
npv
launch
transform
##bregas
copenhag
##olipo
object
respons
rosoboron
polytechni
##aikoura
##biscuit
##iepbuocthanhcong
##litsyn
##oestrogen
##rrahman
##rêpôk
0934808630
66884466
actress
adonis
agriseco
alezaa
alkaloid
allwinner
aspartame
auction
autralia
barajas
bauhinia
baumgartner
bigelow
bogomolets
bolshoi
bolstad
boléro
bongbanduyhung
breeze
bullshark
bunmei
bushehr
cannock
category
cefpodoxim
channelnewsasia
chernukhin
choreography
claeys
clblthtgn
concepc
confirm
coridel
cusack
cycle
dharamsala
dirndl
disease
distractify
dominguez
dulaimi
dunlop
enhance
eugica
extinct
fanmeeting
fourfourtwo
frappuccino
geteley
ginza
glutathione
goiânia
gooners
government
grecko
guachaca
gucht
habring
hammelburg
hankyul
hanosimex
helicopter
hellendorf
hemsworth
heynckes
himmler
hqrjr
hsdpa
indiegogo
japfa
jiuzhaigou
jokowinomics
khalilzad
kucherena
kukeri
lacoste
lacquer
lakenheath
lausanne
leixoes
liliputing
liveprool
luperto
mahatup
makurazaki
malaisia
margarita
matamoros
mazloum
mexican
misery
mityaeva
molitor
motoped
mussolini
nagovisi
napolitano
neuschwanstein
neutral
newzealand
nissin
numérique
nurburgring
nysschen
olufsen
ondisplay
oshie
ozarks
panipak
pantothenic
patagonia
perfluor
phosphat
picmonkey
poltergeist
poulsen
prevost
progestin
pyeongtaek
railgun
receiver
recipient
registration
resuscitation
rhamnosus
rivendell
salviatino
schastya
schelte
scientific
seahorse
selbyville
sensotrack
sharkbanz
shlapak
shreveport
slovyansk
sorbitol
splash
stallion
stavitskyi
stolenberg
swensen
techcrunch
telomere
terrasse
tgpf
tigris
tngtđb
transpacific
treasure
trippacle
trizzie
turchinov
uluwatu
varshavyanka
vinpeal
vênêzu
wikileak
wojcicki
wollongong
wrangler
zaporozhye
đbkk
annapura
avramovic
buddhacare
coldplay
cunliffe
dialogue
eusebi
fiction
fábrega
gaulois
gesture
kazakh
khễnh
obscures
opengl
predict
rafalovic
scarab
template
tsonga
urfa
vmware
##fortress
bosworth
caspi
costolo
cunningham
cushion
holbrook
jakub
kovalch
novitec
okhotsk
papilloma
patterson
pegg
pyeongchan
soekarno
teneriffe
transportation
utoro
piazza
emmerich
firewall
leonidovich
tycoon
urdu
whitlam
##ciation
ahtn
cadivi
ideye
nishikawa
shibuya
sissi
suburban
yezid
almaty
btmu
dobson
garrn
hetero
huashan
listverse
montoya
petraeus
shushi
nakhon
waffle
artpop
herras
novorussia
sharepoint
vineyard
xhtdte
continuum
maliami
tanasi
tsimane
asakura
maksy
rfef
ttđn
izet
mixpanel
backlit
balcon
contactless
greve
savimex
jdml
monoxide
autoblog
khoahoc
margate
outsourc
paige
penumbral
portillo
wangdeungdo
caltech
mahisha
pushkin
turkey
##ajara
##itiba
codeforce
harald
ikuta
recapital
tarot
zimbio
encounter
farage
gemini
pêru
sartana
lnr
rcir
bogart
nanomet
wharf
greenwald
britani
starace
yasuyuki
##gunda
##upette
40432
cascon
zengin
clmv
herve
shrien
farion
exist
transport
harzi
masako
nytimes
edfu
jupp
frasc
kehl
amphetamine
preecha
espirit
hollow
kilôg
sarkar
##neferu
mlrs
bertol
##teere
sovereign
##rrill
husey
saskat
uhf
maoshan
larsen
lecit
vinawealth
##epoch
maximart
trự
pesca
verein
izabel
shabu
traveller
alphabet
preet
##22020
##bđv
mulle
adrenaline
oạp
infan
macedo
nhakhoada
issawi
payment
which
đhskđa
nostra
meade
schone
thanasi
ghiếc
omori
thorong
kozio
orbit
##croix
musician
##ocyan
vancamp
btdt
pavlen
pollut
đhlđxh
ubmt
zoller
vanguardia
irco
xncb
vimeo
adana
westlife
philstar
##cessibility
ippf
ipsos
shure
hdlive
##thucuc
diviner
valeo
buick
integrity
sagada
pegas
mercure
showcase
langeled
##phet
goodson
zakhar
zamr
issue
tenaa
guido
doughnuts
##7170
##cedon
topcake
flour
deadline
shwe
jhonni
chinanews
##vfc
nizhny
đnnd
libert
lesley
logitech
xkpm
nnsg
kolomoyskyi
jamestown
hamren
htqt
otter
tthq
gulf
pledge
allerg
volant
mmea
lofven
##juma
barbar
kyoko
phys
prius
cholesteron
shimon
zimmerman
##ssein
amms
bombay
endorphins
##reál
vocal
##moudi
césa
clipcard
mouse
navid
zvi
nomad
nhoét
pcgd
omeprazol
somsa
icap
tegel
gooding
stif
durga
biles
returns
arsena
##uben
glyc
hessen
stocks
##urca
jank
mdgs
skill
veith
##upet
tarkovsky
nagar
shortcuts
##tree
hamann
sulph
phé
curved
variab
kamy
patch
apply
claviger
scientist
souls
cornella
##anoic
shafi
farid
chagas
stopp
140000
busch
higgs
peterson
mckin
##kiel
mitro
severod
commando
stodd
rubber
##012
nusa
##wesi
beu
gchq
hungari
platforms
historic
corse
##bbeau
dxp
##musik
rogen
##orchest
6633
##aviator
confederation
utgt
spez
giza
cqđ
snaps
##xler
balaj
cochi
##amphe
dvina
kinhdoanh
extensions
##2015
eaes
##aranas
malaya
medley
samarit
daesh
abels
kyat
lept
seconds
##hurst
khudyakov
entry
catter
altima
##keeper
msta
##ehri
6298
##omari
minutes
dubike
compan
saber
frei
hamman
##arwen
looks
coba
blaster
breath
##iffa
8388
3540
levad
0435
bould
asci
jamal
kashima
ttql
##cane
bryant
bikers
imax
camara
##avour
sovico
rics
lashk
tntt
##rumor
quizas
zic
##yeu
dờ
myeong
##72050
climat
genet
rustic
charms
judi
sớt
hearts
diep
vinab
##brachiu
3811
##1981
homo
##amford
##naval
hover
scvn
blast
baja
shre
koban
##njin
mersin
##jko
##etxe
##oncea
##jarn
951
kring
##uffe
marqui
bech
azer
##vac
moj
actions
rướm
lira
ucd
jets
qiang
murs
##jeune
ilia
flavia
dunes
##bromat
neva
##489
mami
##nhận
grigoriev
tick
##rôn
pvtt
smax
##rtaj
##director
##glou
gaku
##emove
tvpl
##ilina
saas
##arney
cero
tobr
hoian
1884
##bur
lóp
nhiko
aea
##kinh
lnt
##arkins
##424
pid
sulfur
1476
kovt
zaina
theik
afa
1891
oas
##allback
drives
2913
xj
sangju
dcs
##wow
malia
tube
##elija
##975
##osni
period
balls
crash
mild
##uzber
##hoe
##fven
olle
tíc
rụp
grams
frees
##gur
##hủy
##biography
negr
1189
tania
beige
##14021
bacon
phase
colomb
##4422
bnp
ntn
desh
cies
craft
darry
##urd
amita
udon
chơm
##orni
##csv
tore
0280
condom
tasco
##ethylen
dragons
rickett
##cloud
seren
0700
1198
##01561
##epp
cristob
repos
##xian
##04003
shul
cabo
##848
##336
vitor
##kow
darling
damar
guk
saints
manta
dela
##133
##koshin
9669
tehr
greens
stamp
cnnt
rảng
gyn
tanya
sgt
##ottom
cheon
vasili
osan
##cơ
##ndry
dhan
##rien
##jae
hany
míc
##uette
lippi
rainn
vries
##antilla
anvi
ryang
##yers
tatsuy
##younouss
##ạch
jsp
srip
ito
almaz
chany
##antle
##erum
vide
turbocharge
##illiam
6700
vime
##lasar
truyen
pja
##hril
pơi
license
maita
phones
cez
##chino
rubic
##stance
##0452
chara
##ambri
##vepr
fantasti
##place
##roa
rosh
salal
##sns
bello
pnv
0110140
##array
##stag
hyeri
##data
revers
missa
1751
##gawa
patel
##ewing
##ijk
##2203
nouri
dera
##mpg
##elma
##nits
##ritzke
##nkel
thilo
joni
##iology
##abban
rnc
kenz
wagy
grei
##nesia
##ubert
##otso
##camp
cheat
woon
herd
cđvc
alme
mrc
##oxi
##rabi
gentle
jimi
1812
##bag
##olev
adenos
wcs
##champs
##orde
jaque
vaoooooooooo
##china
##indra
leah
##đin
##coli
shep
##illow
##odzi
##onia
formos
legenda
##pvm
ganesh
dek
##mich
##atun
##nazio
##anj
##ohei
metis
##bral
##oàn
##yats
##808
##onzo
##golo
collect
##choll
radian
##zola
rest
##uardo
drey
##lack
##reth
poca
##mpton
azri
##ttg
ntb
keiz
##idalg
##orghe
plea
##ament
##imexco
novi
##evie
##bergen
kamen
rabb
##egger
##zit
##keting
##hiace
##865
##konos
##arte
##istic
##kone
##ezer
##yod
##icara
##onky
tioma
##ugino
##dries
##dop
##accion
gok
##cover
hernan
mckell
vaoooooo
vus
crepe
hazel
krei
##8750
##0069
perle
##agel
##shbow
passan
##eiji
##uỳnh
##iloba
##rning
##avana
##canic
matsushi
##lear
25255
##11010
##olman
bade
##yue
skđ
leb
##ocha
krisha
##evard
ure
ory
1234
##liss
motel
##955
danni
##elissa
blocker
vinas
##163
##rake
##347
##205
burt
samri
##068
##rol
ferran
sunda
svya
##igua
##hekin
mino
mlb
##lula
##latz
##rty
niti
sylva
##alawi
##tender
nawa
##aribas
##dragon
arbe
##ntara
##elder
##awla
##hames
##onado
##leman
##ennec
##allah
##ịnh
##nautic
kost
hừ
##cheon
alec
##scra
kess
natal
##hanglong
##aap
bullet
1431
polit
##insky
schil
##ibert
agat
##bery
##rous
##eche
##ẹp
##reich
dsv
fr
##kava
zhukov
##zhe
##257
##xima
lw
##vene
depe
parl
sib
##hoang
##sit
perl
##eik
kirst
poss
##ishan
equip
##ahto
##grade
##ibel
##538
niie
##olay
##asset
virg
##tinson
heel
##ehurst
##vital
##metric
##sft
##itel
steri
listeri
brooke
##varma
elta
##ijev
##graaf
phè
chẳn
##gging
##hệ
firm
##semb
airliner
##loc
##gigo
htl
msg
##tucha
babylo
arr
##erul
##adin
##6767
##ocie
##544
##shtan
##leton
##tka
##fmit
kora
shala
##here
0313
##lid
prote
##erance
sili
sparrow
abha
mansu
##stock
##651
##anyan
##uard
##gott
fisc
fom
##vinsk
##neko
nucle
ecos
##rif
##tiz
##oyl
##gcs
##oodie
##eves
leiv
wali
##bani
##enar
##gol
##282
##wns
glan
##rawa
##fei
mob
##949
##agni
salar
salee
fou
##adam
##kcalo
##yout
djs
kaz
##tesco
lenin
hoess
##ojun
##rnal
##slam
##ternal
##yugo
marki
##meter
##mahmoudi
nop
##mperi
##anal
##asar
joll
##luki
##orya
##bergas
minso
##eaux
##ebas
##khkt
##cred
##eser
##ardo
##639
grind
##bench
cous
parade
industri
##arbel
hava
##onal
knowle
##shoes
popasn
##laya
carer
##oyan
##leic
##hanns
##zeb
##sahin
##ạp
##cas
##rosso
ashu
##599
triple
##pain
hđb
##itch
##nisch
##banking
##lute
magne
##lens
##bass
eugen
maurit
##zhin
##rida
##fli
##pah
royale
##zlo
##xmax
sunwa
##ưỡ
lexi
hev
##leona
##blad
bait
##squ
##elman
shri
##deya
tunic
##bitt
##servo
##ando
##wil
##adel
##epern
strau
lister
##agnes
priv
##614
ethe
##khach
fbs
##kwu
##cula
##ject
##mard
##richs
##hkov
mâ
##ajah
mangani
##kko
6681
koon
stell
oia
fee
##nais
peas
fut
##shburn
##rtn
purchas
##rosol
lek
usc
pă
mcf
##finder
##audio
fade
wf
##swo
##3401
vole
##khu
##relli
##bright
decl
##rnberg
kamika
sanct
##okan
##fox
##aburi
hế
##scha
##ants
3734
tâ
formi
##uille
christma
starter
gorb
kier
##will
eckste
##cabrio
##397
##rocco
##chuan
##gst
ruan
##csg
##afer
##orado
russi
pasta
##baye
##eks
##adda
##iviet
##assis
##sali
##orcza
hien
đhkh
##aware
famili
##tzke
falle
##haile
rề
ober
castel
##úc
##ivsk
mica
##ables
fira
##gir
##ope
##cione
ubq
pande
##cla
##156
foo
##late
unai
##xava
##ernet
##alley
##iken
##ennan
mathe
##lows
masaka
deutsch
physiol
##nary
vă
##zac
sver
##alfa
##mbler
##tốc
##versa
##ssain
loma
##lđxh
asl
vaar
091014
ons
casta
##ankes
durba
composit
leann
##hugue
##998
barber
fnk
creatio
##vdb
##149
bye
diam
##layer
popov
##hcmc
##mansk
##kesh
##giris
gest
midwest
##1221
darya
##oản
##ision
##gfen
dare
fic
##11160
##trinh
##ukis
##fib
##yej
##8229
##ellier
meko
1127
komat
##dzilla
##doanh
##tional
books
##mori
##espic
##perro
chồ
##esporte
##index
##ashenko
##minimizer
##migrant
##wvga
##nborg
##rhein
garay
##pulse
##mohan
##begovic
##donnell
##details
##laodong
##butyl
##jobs
##speroni
##connect
##shirt
##shape
##screen
##franco
##gregor
##clasico
##journal
##global
##smartphone
##michael
##rdas
##bird
##nicol
##verona
##film
##image
##phù
##arsha
##cause
##zine
##square
##fisher
##check
##về
##đơn
coffe
##thị
##thể
##kcal
##phuc
##herd
washin
##nsbruck
##load
##20141006
##kram
##green
##zip
##cute
##giúp
##tỉnh
##bolic
salicyl
##pdf
pope
camelia
##ỡm
##15569
##onghae
##ersei
##ormuz
elisabet
zimmer
passio
xiaoya
##livo
##with
riyad
##ulka
##rait
##szcze
noodle
reuter
higg
rodger
maldive
investor
strait
##ompan
chuộn
dopamin
##liyev
takeshi
guillaum
##cultural
convert
##progress
olimpi
##140535
##amili
expenda
##coccus
bellissi
plutoni
twent
sẳm
vpđk
##waterhousecooper
extravagan
guedio
opxtra
xenlulo
##moenchengladbach
##oughguides
##xicô
0915141288
37560136
abdulaziz
administrati
alkmaar
almunia
amityville
arkapovic
arstechnica
auschwitz
bachinger
barbados
batigol
beautydesiam
berankis
bolikhamxay
brunswick
buddenbrook
bulldogs
burgos
camaguey
cambiasso
canãda
carlyle
carpenter
carricho
ceinture
centimét
chantelle
charalambous
chaudhry
chetak
cinque
clayderman
collymore
colosseo
conakry
constanzo
contostavlos
corticosteroid
cranston
crunch
crutchlow
csokas
curtain
damavand
dauphin
dermendzhiev
dezort
dhaulagiri
distribution
dormund
dubstep
electra
energizing
engkhả
espanol
fidic
fukusima
gallipoli
gencxemis
glycoprotein
gorlovka
gsđtcđ
harpviken
hasakeh
hippocrate
hitzlsperger
hiyoko
hologram
honeymoon
hornstull
hêrôin
inferno
inquisitr
interferon
invocode
isotretinoin
jealous
jeunesse
kadhimiya
kalistova
kandolhu
karnataka
kensington
kermode
kolofata
krasnoyarsk
lalique
lambornghini
lancashire
lecoultre
limpích
lipoprotein
littlewoods
liverpudlian
longitudinal
lyceé
magnit
marchesin
masoch
matryos
megaskills
megawatt
melificent
migremont
mmbtu
montessori
monument
motegi
nafosted
nhiêù
northumb
novoazovsk
oricon
ostrich
pamukkale
pataca
pequo
perisic
perroncel
phnompenh
pianist
piktochart
playground
poenari
priority
prolactin
pérignon
qdnd
ramírez
resolve
rostec
sabibeco
saitama
samoyed
saplastic
savanakhet
seminyak
shakhtersk
sloviansk
slubice
spread
stachurska
statoil
steadyshot
stormtroopher
strawberry
sukhothai
swr
syndica
tbilisi
teamviewer
thornton
tournament
trifkovic
trytophan
tteok
ukriane
uralvagonzavod
valdano
vasselin
verdasco
vinagolf
vitamix
vongchiengkham
vyalitsyna
wachowski
wattanamontr
wddm
xcốp
xishuangbanna
xnkdns
xupap
yehyeok
yushchenko
zainudi
zapata
##resistance
2809140
baguette
certainty
conflict
dahmer
dashain
enzim
feldman
gphđ
guarín
habsi
mickelson
minimalistic
moroccan
najaf
organization
pleasant
quoti
stirling
swallow
triads
whitaker
##chemical
agricol
authentication
cyclop
drinkmate
duhok
gelatin
hammam
lionsgate
motivate
nhtsa
obeid
radzi
solidarit
wittmann
##taichinh
acadia
bolelli
equal
facbook
famous
gallen
jetblue
meizu
motherwell
thonglao
versini
yaoming
analyz
bundang
izvar
leonesse
mansory
patrik
prevent
sahrawi
stockport
treatment
attraction
cdht
whale
##fuego
afterlight
brende
hrotak
kurkova
luxor
puppet
regina
rushdie
soledad
sultanah
bckq
toolbar
abergo
gundam
hanoikids
statham
axeton
buckinghamshire
epoxy
kirill
marsanne
maruyama
truffle
valdez
##dulla
globalization
skirt
yousuf
##delrr
##eniuk
chunming
onscreen
supplie
cordero
demand
iptl
##inisto
##tmose
enforce
mailisagroup
tencent
popeye
vvip
##ssima
##yluk
gorge
tarpi
attach
avram
geiger
glitter
stealth
wallpaper
10101000
adsense
xantho
##62030
bernini
caesar
##thayar
wolse
lpqt
tropic
##rocyte
barometer
fantasia
fortuneland
paisley
bocuse
montella
padilla
stenin
pelé
kaiser
mellon
sarkis
ttgddn
turro
visme
zuff
stuff
arenavision
mariva
babybel
landscape
akmu
anzali
richest
phthali
polycy
stresa
vietteltelecom
infra
kohut
letterman
psycho
skysport
vthk
watkins
sensorial
klđt
enjoy
06063
##turk
aveva
appear
garland
mummi
phứa
beatrice
hospitalet
venetia
sunwear
alcancer
apertur
retouch
campell
murza
roscosmos
pyongyang
blackstone
poltava
boongke
genwei
outfit
##rowland
##oitie
kakadu
sunfat
xlnt
holster
tdttqp
kuban
salyu
syed
##femme
niguez
cnqs
nanometer
icac
likewatch
ramsay
##wyk
agricultur
jallah
schoul
##thalen
henriquez
smoke
shack
satta
lechter
posterior
ngứ
amigo
##ldac
father
quickly
engels
mcintosh
greenport
poitiers
nastro
oreál
reyes
cosmic
##ggae
jahan
##vanco
actual
scarl
tutto
montero
interview
ocsen
kangdong
##emale
sportivo
makeni
catton
ayub
parkour
europic
phuơng
cstđ
fibro
rutil
09869
stuka
garosu
oresh
csip
nasati
automobiles
channi
genove
gunman
##adida
jomsom
riera
grate
imago
##rrle
priest
abhi
##rdica
nescafe
##ecrui
pyro
teenspa
hydroquinone
mackey
tripple
clare
vapor
mudd
##vào
glucozo
parace
minnie
kibum
barral
culli
mendel
mojo
platon
berger
nitrite
vergeer
##schaft
broncos
##grip
pulp
onion
freddy
alize
scream
wish
barent
gmtqn
sopka
helt
kiot
##neft
##minutes
echr
##urator
district
linole
everon
kelley
uscg
plasty
debal
denison
mosque
airplane
##ỡ
sulley
elliott
aleman
##ension
rapide
##rthog
beard
sahel
##kumar
tulum
ifeng
huber
lđnt
hinks
kazama
##yrus
abcnews
humay
shadad
stpo
panay
rothman
zarago
##urea
##ompi
unis
hoaanhdao
tuyensinh
osset
nagura
##9510
ponce
hartson
quạc
avante
##trapat
valdi
pcbf
ecz
cress
jumi
##azing
makka
torah
##izaa
##possible
fremm
eurocha
bitex
ravana
hôị
fateh
hammers
##vieclam
##etwee
slave
salat
##odense
##aiphat
sexual
siste
nhbl
summar
wegne
milagr
tahoe
##hoto
thơì
makievk
sreb
kirovo
senec
##bbit
ajc
ston
cpsc
tthd
nbie
bibo
pesa
deemi
4766
maz
##rpm
millie
petrole
xớt
ayers
fuda
frag
horiuch
dioxit
socks
##hochieu
meiss
topten
savana
vijay
vienthammy
mitta
cnsh
monto
paung
visitor
wiz
myster
##edra
toulo
fowle
vbf
brewer
forman
schatt
vfg
##ticket
golux
hurt
##irl
messer
panic
colts
fanning
##epon
idf
millard
rogue
tiene
rfd
heena
carats
##lấp
zoo
fahd
##vsky
tapas
##blos
teres
mdf
dhcd
migrant
##shenkov
bandera
souther
dsd
unex
##delli
shcn
latino
3857
##gorod
##stries
##ozier
##apura
##nghwa
context
bỗ
pút
##ascia
odoevsk
gsma
cobe
study
##tuổi
bsck
són
jongho
roads
klang
osca
##imico
risen
given
crô
##engage
swatch
malik
porte
rsv
ivano
##this
consultant
mikl
sohn
scala
bradl
jabal
xxl
takata
##fano
gpl
##ibul
##udwe
##tsuji
##hà
osen
##opy
byd
dunk
kcht
##onomy
drawer
formaldehy
vallet
piatt
osim
eros
jé
jcc
praz
universit
tkc
##racker
##kurama
cfo
vnhs
##tirk
morell
iiro
2741
clum
##brahim
hanso
dens
fries
nacc
cityland
##awit
anjos
kcl
1893
sùm
kppi
lipi
9123
wire
sted
##undre
##21134
##udini
revel
quintan
allium
##cyclin
areva
##butano
deso
eldo
1643
nghiep
hbs
##iure
hăn
abcs
##juve
##aksman
laeti
niền
bardi
badr
3999
##shtar
5888
##wg
##kali
##teuk
##01886
rtd
pirat
stuck
frem
aister
stain
##erich
calab
##abab
soire
armand
sight
##11103
jana
##atsuto
kurok
##clet
heil
##nfeld
magsa
1406
1407
birch
##edne
##schmit
##appuccino
abm
ttcc
##343
##loteli
experi
poir
leder
0917
zur
boxy
##sperm
sady
##dma
brave
##kash
##duga
##069
safi
##cdc
##paris
##atoi
##itan
##arkovsky
50001
##561
##brush
##azlan
sook
cacbonat
1381
schae
selfies
##zole
##huang
##czynsk
##cua
cosmi
etz
##ltk
##34040
gbp
##oreo
vittor
ethylen
blogs
##diễn
##oggi
hpl
milly
fogo
gail
miri
xom
##rsal
##ulsan
writer
vhl
##0522
0163
##ddle
poto
##ghỉ
yar
##awak
##tute
serri
lìn
##nagit
comme
reggi
lge
sde
##iberace
oam
payet
ptn
strasse
##neta
##atten
##argo
##vak
kirovsk
2042
loud
deus
estela
##iges
zuy
##icino
xian
mangost
01657
dragan
##2052
##kut
##llman
dios
##adio
##ipman
epso
##lucent
##khxh
##antana
##uness
brem
##duct
1506
tieng
##eido
##lq
##wintour
arist
magal
##cdowell
bitter
##ecum
##ghetti
##jave
strada
##dwell
1805
6680
##isci
##aud
##ussi
albin
##6431
frid
nebo
##vhgdttn
##lough
##japa
aym
##mesto
##comreal
falco
marlo
observat
sule
##ikul
##utch
##wra
yekaterin
beauva
##kako
260914
schro
uzebe
##terone
##apto
grim
##aag
stack
##oroma
patte
buns
##guita
regiona
##mdp
##assim
##oea
##devil
##sola
##lbr
##plica
##file
##tching
##jevi
purchase
expos
##ịp
##aries
##tên
##quả
##achev
##0403
vodo
##bukt
##sys
placid
##ikowsk
##bộ
##berban
##85010
##ijne
orf
kalinin
##caca
researcher
##apper
##agu
being
##elberg
##lahat
fpso
##incon
subje
##1993
##ajou
##aksan
##koto
##chetti
##voir
##021
##tổng
##khanh
##uze
shita
aris
##ddh
quest
##medec
illuminat
##bashi
##lalang
poe
sheep
fabre
lump
##larna
##erise
cypr
polyeste
##statis
##unting
##ext
##ưa
vaw
##eeding
##grave
##aiv
##3156
##5878
sloan
##cina
##eure
##1398
matte
sico
17299
##lyan
balm
genetic
##ccd
##para
##428
##brio
##rovski
##azzar
##vinas
aromati
zim
##liance
irg
##diazep
##lunar
##naire
##lerie
pacha
salafis
##idea
smr
##sibis
fredri
##clean
##6316
teak
##racing
##ooney
feat
##zuma
##airforce
##stop
misae
##oppy
impal
ashle
##aref
##igit
usf
##twmttq
##leb
chandi
##llocat
##2012
korob
jasmi
##sơ
##anadol
##salle
rosale
##cuse
##cooking
morin
##eeta
##tdkt
##orov
krat
marron
ouj
tatar
##uston
auxi
morg
arpa
cvv
##bé
##naught
##erion
djur
##owo
automat
pawe
##cdma
kawi
##aurie
colum
natu
barbr
##gyong
##ozo
##lacross
##máy
agte
##hakan
##ộn
##ubia
##sday
##exa
##horton
sill
##1650
##bqt
##nã
fail
christo
##vcg
##011
gofu
##olden
flore
##roche
##yet
##nadel
##ngaro
##abba
##river
jemi
alish
##tya
##vetta
##alike
##uur
##kotz
##kaido
##raith
##ecome
flick
jame
jez
mcgu
##0989
patti
##dbv
##răm
##ndroi
praba
##tua
bds
vinpa
0972
##inkevic
fey
##nador
##ceton
nhakhoa
##harta
vicenz
spie
##wes
rive
kumi
##jou
aks
##arp
##jell
##felt
##lbert
##torez
##guje
linde
##aggio
##5885
later
##948
##shioka
##11441
##laru
##rney
millenni
zhir
##otheb
##antino
##irkin
orlo
##merch
##ngay
##acor
gta
picker
novotn
##tnhh
##lá
ibar
##jiv
##980
broke
##vũ
##chol
hữ
fujit
##chever
##hood
graz
##8383
##0306
##erys
nickk
atle
##ceae
brea
##etrics
##hermo
##uley
##bản
##turn
pis
##tharat
##loca
##oenen
##yeok
##lamb
##oxia
##ươi
##ostal
wur
bicarbonat
##12146
carte
yakut
##sanna
##otten
komb
##arja
##umin
##idda
##nadine
franca
##ayano
##egle
cary
##môn
##kins
##udak
sword
##tler
schwa
##entry
##elsing
##iris
##elina
##ortez
##1189
##wey
shad
##harma
##anno
##135
##myot
moro
##mang
archiv
##spin
##lbe
##enma
lev
##heter
6683
##dun
##dakha
##omei
##0822
##otus
##eir
##ashto
##ovska
##doff
##40212
##ồ
##ophan
##plane
##1402
riva
0510140
##tí
##gaard
##erdes
hcl
##cours
##vati
##14020
##gota
##byt
##mediate
##ỡng
##ince
##vatt
##dyne
##dua
##àn
##rupa
##rtola
##upd
##sdale
##0401
costil
shinki
##naver
jour
##nhandan
##vtv
##dow
farber
##lick
wora
##tice
ktd
vaooooooo
carlin
coeur
jeli
hứ
##nghe
##ttq
##andre
ferrag
gret
nhậ
##0914103
iod
nott
##rbett
##imax
##ences
dish
panna
##fele
##5100
##attis
##fract
ples
ahra
jutt
##ếp
##lour
neha
##rych
fond
rooi
##elbe
lux
qlđ
##khá
mykha
##qr
##01214
##596
##ssd
##blue
abram
##alling
##malo
skytra
##vante
##btc
perlm
##sted
việ
vola
##uja
zuni
##pct
fot
##996
##raven
##1270
##zima
beze
##rpd
##krông
##dric
atta
##xta
vaooooooooo
pér
##rzy
##kol
brat
##hơn
##nsley
xề
##lease
##795
##scarin
bunch
##enev
academi
##377
##9500
devo
wep
jacqu
gors
##tgđ
##warat
##gse
##uire
##tche
##utsk
amste
##imum
##wall
##vtsi
##2452
##yav
cbcnvc
xyli
##fj
vpub
##vuon
##6210
##count
glucos
##atrick
##russia
##emca
##uzu
##ocal
##oil
##loud
##dimex
##subi
##kalo
##uke
##tinho
##moda
3828
##1028
deck
gren
##nipar
##otor
##arvi
##hiep
##cay
lindl
##ightly
gayno
##hamed
##posa
##urgi
rial
kret
##hash
##rangell
##ragon
##ethyl
maggi
pfo
##ikl
gogo
##evern
##oison
##340103
guara
poche
##2215
scrip
##gens
##ntas
##ganes
##guk
pebe
##glass
tahir
##esv
##nderle
##derna
##jiju
techni
##melia
nươ
##urov
deni
backr
##lsk
álvar
##arva
tồ
aceton
##yacin
##files
manso
##dige
flavi
##jaj
thiamin
amari
##acons
afr
astro
##rysta
##mercato
haz
smooth
alcal
##ãnh
morten
##4070
malte
##silio
smil
##inks
##door
jair
##apple
karol
biế
vinare
marve
##steel
##grass
##tnmt
##cuff
##ẫ
##phenol
##roads
##qiang
##found
##fomat
##cheap
##britain
##bourne
##bkhcn
##llvtnd
##sweet
##telecom
##bloom
##clinic
##foot
##sản
##malaysia
##singapore
##hht
##track
##forum
##cbtt
##này
##kids
##thoai
##kenya
##lượng
##phương
##đàm
##antq
##luis
##jsc
##đại
##ghur
##thường
##gmo
##yol
##lại
##vẫn
nă
##dwt
##hsđ
##pool
##moth
##tuoi
##queen
##savan
himalay
##alish
##jura
##model
##zoom
##đối
##next
mardin
##erida
lakshm
hawa
vergin
##thpt
##sander
##ckas
ngâ
##bị
##avran
fruct
##nisha
gư
##puf
##hrodi
ruffi
nghì
citize
##eltic
luâ
##2009
stylis
##onora
##scar
##10101
##ulture
##ndme
langbian
vẳn
lẳn
mươn
##ulley
mirro
starbuck
marriot
##rden
lloy
##tân
baptist
saxon
automobile
hummel
##tepano
adrenalin
sulfat
autodrom
chocolat
##relko
xă
dents
##hiêp
paradis
##zquez
đvh
gcnqs
##games
##ciur
singapo
##ianni
catimo
internati
vaugh
##structur
##phetamine
##naissance
callej
đườn
##211871
##pignan
##ppines
finmec
independ
okhot
##1215511
methado
petropavl
transcend
##guilhe
comprehensi
##ccidental
##globulin
##hanquoc
##hydrogenase
##pharmaceutical
##phenylenediamin
0914042644
0975580491
0989494420
18008180
1900545586
achieve
administrator
adosbox
afganistan
aflatoxin
albacete
alcá
allosteric
anjikuni
apeldoorn
araabmuzik
arkhangelsk
armytrix
around
arshavin
azawakh
aztei
bahmut
balochistan
bangerz
basterds
bclđg
belenenses
belfast
berzins
bestseller
billionaire
bkhđt
blttds
bluffs
blusukan
bodypainting
bormioli
botulinum
boullier
brangelina
breedlove
bridcutt
brochure
bucca
byzantine
carlifornia
carnarvon
carscoop
casilas
castronovo
cavallo
ceramide
cerci
charantia
cheslea
cheyenne
civilisation
comoros
complication
conditions
configuration
creature
cátxê
dementiev
dendrite
deposit
detachable
dexamethason
dhiab
dholakia
domingues
dpcđ
drobny
drtikol
dthvn
easytaxi
elephant
environment
eredivisie
erotic
ertiga
evergowth
explain
falkland
fiorina
flavanoid
fuqra
gabor
gangneung
geogre
ginkgo
ginola
glinka
goldvish
grenadines
guadalcanal
guayusa
guerlain
hadhad
halifax
haloween
haniyeh
hasakah
hilal
hofmann
honeycomb
horlivka
huesca
hundertwasser
hvnclc
ignatius
increase
ipaint
isensors
ishikawa
israilov
itzler
izhevsk
kaletnik
karabelas
kaufman
kelantan
khatoco
kingbbq
kousavan
ktclstp
kurlantzick
kurtulus
laboratory
ladder
lamnhistudio
leblanc
lichtenstein
lonelyplanet
machimosaurus
macmillan
maerzyn
magdalena
magnum
makakami
mannerheim
mapletree
mcdorman
mefiii
methanmetanmin
mindanao
minicooper
minneapolis
misura
modinomics
moncet
mudarov
mueang
málaga
navratilova
neighbour
nieuws
norodom
nurgali
observatory
ostrava
outbound
oversold
padonmar
panorami
photofast
phytoestrogen
piraeus
platts
pogrebinsk
porphyrin
princip
pryluki
punicalagin
puzzle
pylypysh
pyrenees
qndb
quijote
railway
redskins
reduxio
repechage
revenant
rhodope
riesling
roppongi
rozendaal
sabatini
sansone
saskpower
scenario
scissorhands
seacrest
segre
selangor
seleccion
semiconductor
sharpkeys
shazam
shiozaki
shrewsbury
sigporsson
siphandone
sovigas
srikakulam
stillhart
strayed
supreme
surabaya
sverdlovsk
swarthmore
taittinger
tamoxifen
tarrega
teamsters
tempera
terror
thammyviendonga
torchinskiy
tricolore
tromso
turpel
umenyiora
unlimited
uspto
varsava
vihear
vinafreight
vinnytsia
vivocity
waziristan
wheesung
whenonearth
wieczorkiewicz
wiener
winograd
wowereit
xẹo
yakankun
yedder
yomost
yugoslav
zastava
zieler
adayroi
benzinga
bionz
bodurov
chronomat
encrypt
fretay
grosskreutz
identifie
klub
konosu
koulou
lloren
lukoil
lỉm
manucho
melanocyt
mitshubis
ntfs
otosaigon
reservations
romagna
swazi
trident
troika
urmt
vietheritage
zanotti
##ouare
096343
banovica
bierbike
cherkas
huffpost
linolenic
mathematic
maynmar
meridia
mesopo
nickelback
personalize
trangsuc
ultron
weslife
##nachrichten
2709140
cheongdamdong
davines
dyson
maksim
marzoc
trichloro
##textil
##xanthin
habib
pravy
promise
école
##nnstr
borrome
killspencer
ostrovsk
ratnik
spaniel
miyagi
olestra
paschen
retinoid
yakutsk
##bacteria
##scription
bhăng
corini
diction
filipenko
fireeye
nagatomo
pennington
pfeiffe
seanuts
shuttle
soctrang
stojanov
##004110
lifehack
pavlenko
savoy
##cropolis
##metrix
aisas
alinea
alvalade
flexxi
galvan
uvtw
marfan
podcast
sinoba
arui
nlmt
##121513
hooper
liberati
lifescience
medran
pippin
crosstour
câù
gatling
lactoza
luhrmann
axiata
prokhor
cochran
gracie
kuibyshevsky
##fotec
boucheron
machinery
donatell
taisei
talbot
twitch
whiskey
112815
bejew
fpda
jaxa
rothstein
tapchi
vietcapital
htđđ
iucn
kwgiờ
minami
sandford
sexomnia
yukata
efficien
ivashov
ttvhtt
patent
spaghetti
stennis
dignan
ironhead
quezon
abya
fluid
goodwin
jalil
oversea
aragones
kyivsky
kamke
polarr
sevinch
sveden
warfar
mazur
microchip
suggest
lanewatch
ukrane
bernardino
boroda
##enhall
finca
floor
tisdale
unami
canterbury
panicker
paxton
samarra
##anthrop
##loaf
citinews
fuchs
farrell
favre
##11246
bolsa
tamerlan
authentic
odm
cardboard
cassid
foreman
btob
growth
moreau
##011002
##oblast
cardora
derrick
buyuk
paulista
##yrene
08893
hehe
montse
akhme
pshon
bodda
nagaland
maple
bernad
makeover
aztec
##rensen
oahu
ministop
xkgn
kingsoft
##achur
ryzh
cecem
colney
colonia
competiti
kraus
lynx
draug
melville
onstyle
panelling
##ocphin
accel
thiog
37946
flanders
playlist
catamarans
cotswolds
peanuts
antonius
##hbbt
alcaza
hult
jirap
valleé
##ashki
keshi
liksin
celiac
vienne
woll
gorki
păk
westermann
tđmt
islamia
jenkinson
peska
singum
flir
bistro
##menshealth
krav
viether
hollywoodlife
meyen
avira
countryman
masipa
aluminum
bonaf
wasat
##rrection
chxhcnvn
classroom
matador
sarcar
##umbi
fixer
ammoni
feram
quetta
##kozi
superjet
arabane
cdef
investigation
petabyte
crete
depart
jpmc
shipyards
copple
##ebab
karacha
mailonline
spoon
bolkial
truss
dapharco
shibu
##osur
kandal
qshn
collegi
##bilt
##lifa
added
##ttinge
braw
hosting
echina
heiden
tonkin
pallet
rabbo
interband
##iffer
sergienko
techin
rayder
##sakovski
sharq
berezov
blooming
##esund
##phre
gafin
snappening
jbp
psycholog
##utopo
shute
trinitrat
petco
joker
rowen
liê
obf
rockies
##6859
ergo
nanase
##metra
8226396
##yache
aloise
iccan
##ikhom
cutie
##ians
##esaul
monfils
##akhma
feather
37560
oost
testino
omid
astakhov
ctxh
alessi
calori
artic
tyrosin
smjo
submit
esata
rutherfo
myanam
jail
pdv
ccool
##otep
cđdc
##cdam
unpack
09062
pippo
recon
kurk
willem
##woman
colom
homme
##ezzin
gươ
kangta
cadogan
tcđb
wwe
hanser
oshin
##palm
##utant
##tiendinh
holoc
physics
fibo
ampe
##zmes
50404
tankers
##gamesh
wirt
##fell
##elion
##hypno
rapex
ichnh
irag
currents
khẻo
nitc
bret
eurosport
springer
garos
##vinash
galit
vmusic
neri
##likov
diaries
render
reko
lucka
##prene
đhđđ
kenting
galicia
ehwa
kieh
karru
jahangiri
peers
conversation
osho
##phanh
##031080
##jiwara
##ctico
gorton
phewa
knca
clsa
schroder
prô
sonntag
##động
clipboard
margo
##tốt
##7000
adder
##indeli
vnallshare
prost
calendars
nutri
obst
8359
levan
grimm
tienen
openss
jablon
##ikoku
##nborough
pengo
##đông
please
##8247
##llipo
quito
rhod
jamo
deakin
##nastas
5294
degree
few
##djan
##diasi
dkf
barria
wern
##aisya
##stakhov
graves
##simili
kayo
sahong
chance
takts
##regat
carris
sexta
##alfor
veba
3938
##cocyani
aubr
bowers
iago
0770
seaman
kullen
##itae
synt
vovgt
menlo
mentor
angara
brommel
salta
savon
##rate
chojno
moby
##tê
lcr
jtb
carbin
galina
##enice
bhing
bscki
sbv
##omotive
elan
##wright
isaacs
azerba
parabol
muja
chacha
postgr
delay
hound
crike
đbp
washing
iims
##22021
##alentyn
##oxone
##geme
##elva
biology
babur
prakas
tlx
##mviec
eea
blond
4460
##daro
mancha
directions
farhad
bavar
minimizer
carell
hoét
spili
helo
##cancer
##whisper
omer
aiib
##301133
##cán
0839
vcr
##corporation
bachar
handy
mixen
##motor
division
jumb
opl
##bakk
lds
xăn
mamet
revere
thịtrường
##rtage
hirs
##yevsk
woodland
##igier
ozon
italiano
idea
thanhcong
##năng
rumba
##shine
airway
algi
widow
kunima
adriane
bụa
0399
challenges
accu
mormon
saji
##olotov
balle
xĩnh
trends
smalls
0433
borse
##clb
mortense
ftp
gries
gere
prp
pillar
##ehler
films
văc
0949
cysti
0127
comcast
5960
udf
updates
rosk
vitus
bqlc
saban
##aquariu
##istat
##livio
booko
##strict
##9764
compare
3698
skc
##theridge
6288
fuu
chest
##okemo
vvs
##pigeon
ferar
1838
persi
betul
manufacturer
parall
0780
bahari
hìn
horo
qos
0462
ians
netv
toque
agenci
##faa
##ghzx
##lare
leman
lombar
##finna
##tiếp
mcdonalds
lawyer
yala
##gakuin
sntv
##2338
3760
##rnje
ratcha
ysl
ghou
##auber
georgin
##rell
##ombardi
##aragor
##050
1864
ftu
##zuno
##kinsey
aara
##angsan
mệ
nowhere
prasad
##juh
laff
coun
emotion
zhan
##meji
##okki
dvo
##tooth
##rilla
##akshi
##ứu
1857
##616
krasn
guillemin
##boro
##cefr
##2011
tuva
##teeb
##phore
##emma
##position
garcon
hvk
minimalis
buckle
##onardo
momos
incent
##dman
kines
##hờ
rcs
laterit
##khang
##eawo
guangy
##amir
balog
massou
##syria
##5797
##ussie
##medley
infl
geet
buô
##opter
mccan
##ashov
##waiting
cipr
paso
##methyl
##richa
##nderworld
zorin
##wlin
merced
##unkwan
##dentity
##zopa
##rolat
##eyv
##vib
gramo
ige
##aples
##hcđ
##vasti
joun
##3112
##eichel
vero
pioni
##hirvan
##albor
##tilke
##imov
##wark
##ograph
##sbury
kele
circu
##vado
thebes
##ppes
##6796
zabi
##how
##emil
##jab
speaker
arran
##9888
cloche
##ctd
##omnia
##richt
##lazy
##itrogen
moroc
zand
robe
courte
##assign
##freeride
mgx
##thang
##lâm
##ryba
corr
##rkov
phyto
laurian
##familia
##kudi
##namex
##ange
##manita
##ubnd
##nhiều
##cốt
##ettha
wochi
intha
2609140
##6201
##6650
shok
##levo
##ristine
##ongjin
##akuza
##3377
##rockwell
##ahou
fermi
##attar
##lok
hfc
##lissa
aureli
##0343
epco
0124
cabot
##lót
##wj
##inamoto
scada
tsekho
##chiro
##obber
colga
insul
mame
wyan
##zoo
##xiii
##beca
astral
##geras
##14023
##arine
##rief
orom
##lessing
##owden
marthe
##alor
modo
##rude
murdoc
##ercy
##iws
##imani
##viathan
rocher
kwu
##hiếc
##opf
##anz
marzi
##ndrome
##juan
##ogale
##tdl
ketamin
sask
##abet
activat
##enola
kud
##blum
harith
##llison
##reblo
##metho
##umps
##disha
sidor
otak
##omocystein
##risel
##inglo
##81122
##claro
purpl
##esta
##isto
##edex
##efer
##steer
##seok
danya
##nopy
kabin
##egel
ingeni
##siri
##glione
avt
##entale
levie
##osow
##ywhere
##tổ
##usra
##lorid
polonic
##ruelle
##lkowsk
##vgđ
##islas
thongsin
##buda
jimen
berha
##havina
ragla
##aidi
##irtim
changchun
##ltz
##lpt
silla
##gerst
##adza
##idifi
##771
goodread
norma
##ozar
##php
##wnt
##arker
##loop
##dhd
##20401
##oleate
##guille
##62011
##veve
##avut
##ondon
jawa
##clav
grache
##orst
##aobao
moonr
##geria
09843
##ttxh
seafood
sêr
##9289
japantime
##antes
whip
yasuhi
insti
tonka
##baba
shinj
##muth
##ousel
##62010
waldo
##opp
##tsuma
##tir
##exile
##polita
##cop
sherid
##gara
##erva
##7652
diamo
031014
##ssac
##52020
##pru
09628
##aul
mahdi
stroh
tanju
##lville
##idoo
##ritsu
##gnes
##vsc
##anmar
murta
##lionsg
creati
##ustache
falah
cuve
nast
##iqi
##lulla
##hrami
##noda
lisic
##enbac
##lepid
đăkrin
##tier
##epec
##renhe
nasr
saveri
martell
##pike
seba
##ttori
##1999
irian
##esslin
faw
##7661
cristal
cens
frant
##arches
##opu
##hires
##hendra
##ersion
lugar
##7558
##ruang
##iseko
kuch
wesl
##ilano
##naldi
##6264
##etae
##swell
##759
##erol
transf
14315
copper
gđk
##ndberg
##azad
##adis
##tăng
deares
##azzi
##478
##onnet
patho
##diano
##gues
0610140
##acte
##olina
##trecht
sxc
sita
avic
##hendon
##earnes
##cano
wrappe
##uppl
hamit
3995
0439
##iator
##basa
##ailon
##ilson
##4162
alisa
##arino
##amburger
##jr
##ernot
##vory
lunde
##298
##former
amis
##holic
piqu
meir
##coin
##egas
##strum
cloth
hassa
pali
##shish
##thua
fino
##erez
##taub
##ternet
polaro
##asca
##khai
scou
##emont
capitan
##naut
##tecco
##7906
##hydrate
pucci
##trol
##tense
##ettel
##heng
##fuco
##jeong
##matos
##enco
##ratos
##elov
##lege
##1528
mendo
##tempo
sesa
##ometer
##uzuma
triste
##rmis
##khoan
##neshe
##mdb
##onbet
##uten
gillet
thori
##tbxh
almer
picas
alaa
alwa
##alty
##aranai
mirei
##uccia
resu
##oniz
##oelle
##ealing
leib
##abov
##asas
##pure
##tadata
perri
##erio
fir
joche
humbert
##olie
##rrat
##olito
##shaft
kulu
serra
##cnmt
papp
##eneg
##arall
##lenko
valde
vanderl
jero
##euni
##shka
##masu
korn
##india
##occa
##uther
##thao
##wee
seik
wait
##goku
glyce
##malé
demir
seif
##basov
##atomy
##osef
beauv
##jp
##ingdong
adle
moder
##laren
##arlow
elmor
##ifon
##etu
##lidin
##22011
##rmal
##artel
kilma
amian
fero
mousta
freed
##dole
capuchi
##ezema
salva
##qtb
##slr
##rqa
sokol
##fata
aje
##erri
booc
rival
##chita
mohamad
##edusa
fouc
##3385
##cả
##erms
frau
##ometa
08101403
##vé
##060
##usit
derev
corde
##amban
ríchte
##egler
##kiewicz
##assie
rockstor
##7118
##skđa
parol
##alibr
##vento
##eret
##0455
watters
##onle
##ssell
##fabric
##nicar
##delman
koso
##liez
##riks
sieu
coppa
##sila
janz
##ccari
##kwo
##ovac
##etri
mcla
##sdd
##iamen
##intz
howe
jardi
mone
##liver
##hyuk
##uzar
##hòa
##mitrovska
##984
##gado
kind
##caster
0383
##fax
101014
##0886
louv
##gồm
##quản
jabi
##7274
goswa
georgie
cevi
##lăng
##ylar
##deich
##0104
##kaya
##photos
##1233
##ebbe
##ppf
delij
powerp
##1408
setia
##nberger
##lơ
allie
borge
zia
##ndela
##olis
##thien
gigli
##ruck
nikono
##karni
##edford
grah
##aab
activa
coolwin
##thanas
##8179
##lite
nasc
sample
micr
##sforme
##rés
##erber
##jx
hedg
kadar
##ongse
alber
##hafer
iqba
##elley
##2008
hock
##1424
##iew
techz
##usaf
##errain
##kyo
##ption
##autern
##râ
##enstein
##anoli
##corchi
##heart
##forks
##dtnt
grass
##kazu
##eisa
astu
##rison
##itsun
##omaniac
kudr
##irvan
charme
##morph
##eurae
##hothy
##71001
cib
##dkt
##orman
##ungku
##golux
##eunic
##oudou
##eehan
amro
##lao
agus
plis
##eled
hafe
balad
##0914
mosto
##dmark
##issou
##tize
đụ
sabre
##niek
##ography
##bayar
alfre
##ouf
aspe
##brata
##avare
##catcher
##brunne
asie
##rpio
pavlov
##itto
elegan
agre
##bouli
##auti
olympi
ppt
zanet
remind
##etsky
foua
##9300
##exner
##rhy
##675
diversi
sergeyev
##graphics
##eacher
##hori
##erzh
pants
##ybak
cotter
##mett
provide
##eluga
##bigni
##1026
##iangyi
##ombank
##lđtbxh
##manuel
##pca
##evolution
fros
##clip
architectur
libero
##otou
##ormon
##system
##sdđ
othma
##chiến
##voice
##vienthammy
##doisong
##hemoglobin
##medicine
##friday
##genesis
##thethao
##appstore
##boost
##geographic
##giadinh
##memory
##battery
##globe
##factory
##industrial
##funk
##excalibur
##vfmvn
##bamba
##beauty
##fusion
##luxury
##guinness
##muỗng
##club
##olympic
##nói
##education
##andrew
##body
##cologne
##mario
##rocket
##moza
##hoian
##building
##first
##định
##compact
##thì
##gusta
##0949
##thời
sapon
##meyer
##silva
##strike
##triều
##panel
##aslan
##clough
##tiếng
##systems
##bhing
##phần
##extra
##soul
##ihull
##cream
##yoona
##dành
##knot
curve
##propyl
##chương
##chuẩn
##trump
##pais
##beth
##iowa
##frec
##văn
##loramin
##oping
##onex
##cache
##liên
##retail
##izarr
##quay
##cove
##1088
##ppers
voyage
rufi
##bold
##upkin
##lakha
bennet
diploma
##marino
##brink
##mudin
abde
##odrome
##thực
##rentina
##69999
logitec
##khách
##ajare
##nichenko
##hapiro
compute
gmtq
##darsa
##binsk
##barns
turtle
##dhamma
shipyard
##iegl
confession
adirondack
novorossiy
resource
instrument
##ennis
massachusett
incredible
infrastr
zhuma
persia
ngưỡ
acces
odysse
##wyer
nirbha
##evstaf
##intell
##omotiv
##addin
melbourn
hadith
vientian
competi
baghda
##nuggets
primo
##ladesh
panett
##floxaci
##việc
##rdoba
##emosa
develop
gibralta
rickinge
##utche
##ankul
##imenez
celia
##abiull
amaze
interconti
##kđclgd
experiment
favorit
##dhury
##ungsge
##vocate
attract
jukkasj
970436680
crump
pluto
sensoria
thoitrangcongso
ttbtxh
##atasaray
##dehyde
##kreutz
##ociates
##ologie
##znetsov
amoxicil
amphitheat
cheongdam
democra
hydrochlori
kirsch
margret
rheumati
sibir
sophocle
thegarden
thườn
tutankha
##39683633
##addicti
##atomenergoproekt
##hexyl
##hocduong
##lectrum
##liveconcert
##lkirk
##oscopy
##phauthuat
##spherification
##subishi
##urnalistov
0435380481
0437349470
0439785655
1900571239
629187
8701131
995214100
accelerator
accompli
acesulfam
admob
aetherius
alagyaz
alberobello
amraam
analou
andalusia
anthocyanosid
anthrasis
anthropocene
antioquia
antioxidants
apocrine
appleinsider
apthorp
archimedes
argyra
arnulf
arquiett
assassination
assessment
astrakhan
austdoor
australasia
avellino
babies
bailamos
baohiem
baoquangngai
batkivsh
batkivshchina
benaim
berghof
bernanke
bismarck
blige
blizn
bluetooh
bobruisk
bochum
bonaparte
bouleverd
brigantia
brondby
buccaneers
bukater
bvlgari
bàlamôn
campagnaro
canneto
casanus
catalyuna
cephalexin
cephalo
chamakh
chankonabe
chanrasmey
chongryon
chorrera
chuabenh
chvrches
cipriani
coahuila
cornucopia
correggiari
corridor
cowpens
crucial
cukurs
culotte
curran
càfê
dendro
devgru
dhuluiya
doozandeh
dorvial
doubtfi
dubrovnik
dumfries
dynaoptics
eisenstaedt
elextrolux
elisheba
emelec
emporis
enfamil
epinion
exactearth
fakharazzi
fireblade
fitzharris
flavanol
fluminense
fulcrum
funcinpec
gadgets
galadriel
gghb
gibbons
giraldo
glastonbury
golyshko
gradient
hadrian
hafic
havre
hemophili
hinterkaifeck
hogwart
holographic
iguazú
ikebukuro
immunoglobul
injection
inkigayo
innisfail
instergams
intellectual
ivivu
jaebum
jovovich
jrnba
kamchatka
kampong
kellogg
khadra
kienthuc
klepetko
knaus
knausenberger
korolevskaya
laboriosa
lactasoy
laporta
lenscrafters
litchfield
liveleak
ljub
lourve
lovehoney
luzern
lycanthrope
léviathan
macclesfield
macfarlane
macint
maginot
makamba
makhmour
mandrid
meadow
mekhed
mendeleev
methionin
methylparaben
mikkel
minangkabau
mironov
mobiistar
molnya
moncton
monoamniotic
mowcap
mujica
mukwege
myongguk
naphtha
napoléon
narathiwa
naruko
navantia
netizen
niqab
novanto
nôbita
odierno
oolong
panjikidze
partenopei
patpong
peatland
pekerman
perkasa
phauthuatdep
pilgrim
podvig
popsci
potiniere
prebyterian
priapism
propionat
pussy
qiqijia
raimbourg
ratrawee
regnum
renegade
restriction
restylane
revival
rodphay
rojita
rosacea
roubaille
salbutamol
salinger
samcheong
sandoricum
sanitas
sathasiva
savannah
schastye
schedule
scorm
scythia
seigner
sentinel
sequo
serpenti
sieuthi
sigapore
sisaket
skarsg
skyscanner
slavyan
smartkeyboard
smidb
smithsonian
smôlen
solanke
soribada
souksavanh
speekz
splend
stormtrooper
stratofortress
stunt
subasic
sulfonamid
suvarn
sébastien
sémillon
sêpôn
taarabt
tagalog
tatmadaw
teigen
terephthalate
texprocess
thanhthanhcong
therichest
thẹo
timofti
touchsmart
tranfford
trezeguet
trombicul
trẹm
tsukushi
tuscan
understand
unterhaching
unwto
vacsava
veracruz
veritas
vervet
vesselfinder
vijayanagara
vinaconexmec
vinnitsa
violence
vogelsanger
voloshin
volynskaya
voroshilov
vricl
vstbpn
wakudoki
weapon
wetterich
wijnaldum
wiriyachai
yesterday
yevtushenkov
zhymotyr
zviaguintsev
élyseés
đâùt
##ackpackers
##amishl
##cession
##ficienc
##nidazol
amchide
artemivs
backupdock
boucher
carcino
chitose
dheli
dobrop
elliptic
fliks
freesize
gouffr
hutchinson
hutchison
itochu
kanazawa
kanholmsfj
kienlong
kozlov
krasnogor
kurien
lđsx
maggiore
maksimir
mehico
nacht
pencak
pomeran
radlot
rambla
repeater
shotglass
sicilia
sinoussi
statista
surviv
techradar
viasat
xụi
zahovic
advocate
appetit
atvsv
clezio
dunham
fearless
headhunt
healthvault
holywood
krasnaya
nshcđ
picanto
pompei
rhodium
slooh
takegawa
vilanova
walgreen
wellness
werger
##121810
##nosaur
##quinta
bedfordshire
bergerac
bianco
biologic
bogdanovich
caserta
cathode
corinium
dvorak
hingis
hđnn
kirillov
pongour
postgraduate
solskj
usmagazine
veltliner
##hasw
##ocsinh
##polysaccharid
##session
alarm
aristotle
askmen
balzer
coliform
depplus
ecareco
everett
farewell
firmino
lottecinema
merlot
motherboard
photoshoot
precious
racingboy
raksap
sibiria
srilanka
tqgc
vintorez
zauba
##alari
##conazol
brousse
bulgo
denali
honeypot
madird
marmara
matxa
muppet
nalyva
ogrc
onkyo
pshonka
rickshaw
shonan
wevideo
whitehall
wickham
amstor
cefp
dardenne
falkirk
hawala
keangam
kommerling
ladybird
lawlor
pacheco
sagri
senafilm
slavica
đcsvn
divergen
fashon
hurri
ninomax
ryab
hlvbx
luxurylau
penghu
reforma
##technik
amirmo
charner
folks
headliner
burtka
cluster
edmund
garbin
giadinhnet
kamaz
mckay
reload
saeid
shabet
shahba
camelot
crossfire
dreamworks
gecko
grimes
guyana
sadiq
turya
eviden
irbis
livepool
nicobar
rubenla
wesite
woodsand
##bouti
##cosam
cymb
disorder
phrase
puente
sisavan
tubing
vinaline
##ondial
##tdinov
kobza
roommate
tallat
tearoom
trinity
tweaker
unionpay
##scosmos
##uffar
brsc
flakes
gallate
lucca
mayadeen
providenc
baiyun
hydrogen
openmarket
penafield
nikita
skywalk
arwu
donets
jisheng
levono
osterman
phôtô
trouble
amadora
helpers
nêú
sheehan
##igman
fabulo
gondola
lightroom
madre
nanomét
agora
andrian
engineers
##hrmann
##ofloxacin
cacbonic
droz
navarra
verfi
samoa
yongsheng
##khanov
98886
butchar
joshep
swed
faceless
keynes
yousaf
medecin
luổng
vinafpa
aladdin
beckett
brandner
cnnmoney
cnqsdđ
designlab
larsson
jozab
352563
panteli
would
##routa
combine
espana
michiel
saigoneer
##trieb
dunker
korbe
##6595
marrake
volks
lapland
stories
studyin
##batrach
##enkamp
valve
##ozhi
leucin
veraga
##akuru
piece
##eppel
strud
zolotov
mtoe
innovator
polynesia
wgno
khodorkovsky
assit
cooperation
##itfeld
pritch
tđcare
##ochkin
##ountain
01948
icapp
liliya
loshagin
sandwell
srilan
##eryth
hnxindex
withers
fairbank
streit
jeffers
##tinath
koala
##ebrand
higashi
nddb
##inovsky
infogr
slep
behavior
playful
scret
##ovych
médi
ptmt
kojima
blackjacks
kuzm
kohler
cfrp
##uaj
##ethos
grover
jpeg
saxony
##311002
hbea
##fores
hotdog
amami
##fleamarket
##inuit
90210
tirana
different
elvi
guetta
urv
baodat
garten
onana
unifi
##apatn
##enzing
##ejcz
cush
##wyp
##đây
thevoice
gately
rudol
turtles
kiloton
nguyenvan
pills
betzi
gambia
panja
##lutan
downie
##avir
##mentari
imagine
##affo
andersson
seatimes
murder
##libre
##zinna
##mpei
1800109
pupp
rails
gibc
histamine
sudev
bourge
smarties
##hẹm
##esús
denisov
jorr
exotic
serenade
draper
##lgary
renew
morphine
##sibo
625724
meester
capella
##esday
hupa
natto
vneco
##ruza
##osamu
phềnh
ruiz
tkts
amyts
jager
mátxa
claudius
mckee
darlings
##utaro
70355
frida
##entad
maximus
##abaro
qhđt
hacked
vessel
sgvf
nakata
##orchester
hđkt
debre
nhatrang
##razzi
mytam
smell
problems
campani
ledger
mariadb
obamacare
cotab
artemis
actors
bulat
sisters
chechen
hđtc
lecth
ewec
joke
flug
palla
heroes
techra
veera
##damia
belgra
##9368
sonate
maori
bracel
antara
crewe
goose
##leine
teachers
##xax
hippodrom
voda
midas
sophist
fré
bestia
mention
westport
marocco
shiga
##frog
pache
7728
##htersk
flows
ngoét
ftf
##adena
valse
hutche
plzen
##lchen
stage
visaba
##tyana
pnas
piggy
zăn
luốt
labella
##akush
solna
monterr
recordings
nikel
pinaco
frankel
raubal
##opes
qlrr
gilya
floretin
##moine
ffp
walken
seeds
krasno
##33579
recents
geland
rises
weav
horses
itq
chauth
##hoven
##aryag
knows
netsl
##thion
6287
drak
mccom
duddy
producer
waik
đcs
##chts
hypercar
ofans
jure
khhgd
##pour
asern
##syno
mames
brisb
320013
##assembl
partizana
cakes
pomme
couto
ignashevitc
##spring
cict
pocker
chlóe
aqs
##galy
lobano
##ancau
6566
##verdens
##fosse
henna
newze
telex
mancino
##dynami
##othman
buff
sentence
dayton
sté
pré
ifl
##ryshev
roxan
ingan
##zif
##essar
7718
jahr
mccorm
palem
norden
hicko
##gtq
##rmato
shining
benjam
##edes
6268
##978
torp
prope
##neral
ibri
##bảo
##hongngoc
##jeta
mizuh
##rsol
minds
harmon
tailor
##therland
manhwa
snipe
xuôn
##lohydri
##ejad
ellip
farme
lidong
gurman
##acetyl
##opec
##ẳ
##ắ
##ấ
[UNUSED_0]
[UNUSED_1]
[UNUSED_2]
[UNUSED_3]
[UNUSED_4]
[UNUSED_5]
[UNUSED_6]
[UNUSED_7]
[UNUSED_8]
[UNUSED_9]
[UNUSED_10]
[UNUSED_11]
[UNUSED_12]
[UNUSED_13]
[UNUSED_14]
[UNUSED_15]
[UNUSED_16]
[UNUSED_17]
[UNUSED_18]
[UNUSED_19]
[UNUSED_20]
[UNUSED_21]
[UNUSED_22]
[UNUSED_23]
[UNUSED_24]
[UNUSED_25]
[UNUSED_26]
[UNUSED_27]
[UNUSED_28]
[UNUSED_29]
[UNUSED_30]
[UNUSED_31]
[UNUSED_32]
[UNUSED_33]
[UNUSED_34]
[UNUSED_35]
[UNUSED_36]
[UNUSED_37]
[UNUSED_38]
[UNUSED_39]
[UNUSED_40]
[UNUSED_41]
[UNUSED_42]
[UNUSED_43]
[UNUSED_44]
[UNUSED_45]
[UNUSED_46]
[UNUSED_47]
[UNUSED_48]
[UNUSED_49]
[UNUSED_50]
[UNUSED_51]
[UNUSED_52]
[UNUSED_53]
[UNUSED_54]
[UNUSED_55]
[UNUSED_56]
[UNUSED_57]
[UNUSED_58]
[UNUSED_59]
[UNUSED_60]
[UNUSED_61]
[UNUSED_62]
[UNUSED_63]
[UNUSED_64]
[UNUSED_65]
[UNUSED_66]
[UNUSED_67]
[UNUSED_68]
[UNUSED_69]
[UNUSED_70]
[UNUSED_71]
[UNUSED_72]
[UNUSED_73]
[UNUSED_74]
[UNUSED_75]
[UNUSED_76]
[UNUSED_77]
[UNUSED_78]
[UNUSED_79]
[UNUSED_80]
[UNUSED_81]
[UNUSED_82]
[UNUSED_83]
[UNUSED_84]
[UNUSED_85]
[UNUSED_86]
[UNUSED_87]
[UNUSED_88]
[UNUSED_89]
[UNUSED_90]
[UNUSED_91]
[UNUSED_92]
[UNUSED_93]
[UNUSED_94]
[UNUSED_95]
[UNUSED_96]
[UNUSED_97]
[UNUSED_98]
[UNUSED_99]
[UNUSED_100]
[UNUSED_101]
[UNUSED_102]
[UNUSED_103]
[UNUSED_104]
[UNUSED_105]
[UNUSED_106]
[UNUSED_107]
[UNUSED_108]
[UNUSED_109]
[UNUSED_110]
[UNUSED_111]
[UNUSED_112]
[UNUSED_113]
[UNUSED_114]
[UNUSED_115]
[UNUSED_116]
[UNUSED_117]
[UNUSED_118]
[UNUSED_119]
[UNUSED_120]
[UNUSED_121]
[UNUSED_122]
[UNUSED_123]
[UNUSED_124]
[UNUSED_125]
[...]
